#version: 0.2 - Trained by `huggingface/tokenizers`
t h
i n
a n
e r
o n
r e
t i
a r
o u
e n
th e</w>
in g</w>
t o</w>
o r
e d</w>
s t
h a
d i
a l
an d</w>
i t
i n</w>
i s</w>
e r</w>
o n</w>
o f</w>
a t
o m
r o
o r</w>
e s
e s</w>
l i
e l
a s
i l
a n</w>
a c
e c
u s
a t</w>
v e</w>
r i
I n
n o
a l</w>
l e
f or</w>
e n</w>
In di
v i
a ti
l y</w>
u r
a s</w>
a m
w h
l o
T h
a d
l e</w>
i s
th e
a b
o p
ar e</w>
i t</w>
i c
c om
p o
d e
s h
th at</w>
v er
u n
a g
t s</w>
en t</w>
s i
c e</w>
b e
o l
n e
a k
t r
c h
p ro
w it
s u
t t
g h
a y</w>
g o
er e</w>
a y
b e</w>
ha ve</w>
o u</w>
th is</w>
p e
ou t</w>
' s</w>
d o
s t</w>
e m
wit h</w>
u t</w>
m y</w>
s e
y ou</w>
ou n
ro m</w>
2 0
m e</w>
c on
i r
l d</w>
a p
on e</w>
Indi a</w>
f rom</w>
s .</w>
no t</w>
a r</w>
in g
t er
ati on</w>
m o
e d
u l
ou r</w>
e x
c i
o w</w>
ou ld</w>
o o
e .</w>
' t</w>
il l</w>
ha t</w>
en t
w as</w>
g e
Th e</w>
h i
ti on</w>
f or
er s</w>
s p
w or
u m
a m</w>
b y</w>
o d
at e</w>
p s
p l
f f
a d</w>
ti on
an y</w>
s o</w>
s om
al l</w>
ati on
h tt
u c
/ /
: //
i r</w>
b ut</w>
q u
p re
th er</w>
s e</w>
i m
htt ps
https ://
e st
a in
an d
e e
w ill</w>
pe op
the y</w>
al ly</w>
gh t</w>
e v
u s</w>
p er
w w
k e</w>
t o
ou r
t ed</w>
es t</w>
t h</w>
g i
ab out</w>
it y</w>
no w</w>
p or
t er</w>
c an</w>
i d
w e</w>
m ent</w>
u d
a re
us t</w>
peop le</w>
ha s</w>
i f</w>
k ing</w>
" "
d o</w>
e ar
ti c
A n
m e
i st
a f
g r
an t</w>
en d
a v
in d
a i
or e</w>
an g
e t
I '
c oun
u t
li ke</w>
wh o</w>
ak e</w>
c h</w>
the ir</w>
o w
us e</w>
Indi a
k s</w>
W h
- -
s c
. com
Indi an</w>
y .</w>
( https://
v er</w>
d on
ge t</w>
.com /
ay s</w>
y our</w>
w hat</w>
ic h</w>
h i</w>
p ar
l l</w>
d er
as e</w>
] (https://
in di
* *
a w
h el
vi r
th ing</w>
m on
som e</w>
’ s</w>
D el
t u
do w
h e</w>
h e
c e
po li
j ust</w>
wh ich</w>
or on
c l
h ar
th ere</w>
ver n
com m
g u
f e
c o
ur e</w>
w ould</w>
be en</w>
. .
b ec
h ow</w>
en ts</w>
p p
es s</w>
ag e</w>
k now</w>
t est
C A
o ther</w>
r a
ver y</w>
en ce</w>
W hat</w>
e y</w>
u p</w>
f i
t ing</w>
w .
g h</w>
s o
C h
an y
m in
c k
re s
es e</w>
w e
al l
a il
am e</w>
n 't</w>
es .</w>
u p
t .</w>
s it
in ter
h o
20 1
as t</w>
es s
at ed</w>
N e
in e</w>
w i
n o</w>
0 0
the m</w>
p le
som e
il l
I' m</w>
as h
ww w.
" "</w>
s el
st r
s ti
a use</w>
Th is</w>
ab le</w>
S t
b o
H ow</w>
ha t
d er</w>
Del hi</w>
um b
tion s</w>
m ore</w>
don 't</w>
ac k</w>
oron a
R e
g e</w>
on g</w>
o d</w>
an s</w>
t ri
I n</w>
sh i
p ri
ha d</w>
w s</w>
oun d</w>
ar d
- 1
f in
ou s</w>
ev en</w>
h is</w>
ol d</w>
vern ment</w>
j o
vi d
om e</w>
sh ould</w>
th in
a in</w>
k ed</w>
orona vir
en d</w>
it s</w>
m ar
i c</w>
af ter</w>
ti me</w>
p u
ag ain
G o
ou gh</w>
el y</w>
v e
f ac
re c
w ere</w>
for m
dow n</w>
A r
a st
A m
a u
wh en</w>
el l
i g
re ad
s er
y ear
th ese</w>
st ar
il e</w>
ti z
B J
w ant</w>
b r
e t</w>
con t
on ly</w>
re n
an ce</w>
ar y</w>
bec ause</w>
th er
W e</w>
c an
b u
o ff
em b
tr y</w>
t e
c re
f ir
ti m
n i
I s</w>
H ind
re d
u e</w>
s ec
P o
again st</w>
en ti
al so</w>
y ing</w>
be ing</w>
v ing</w>
M o
S o</w>
C on
a j
wh ere</w>
d ay</w>
us li
pre s
c r
I f</w>
si on</w>
B ut</w>
th an</w>
st ud
ver y
ing s</w>
el l</w>
me di
lo o
ha pp
an n
s /
M od
I t</w>
re d</w>
go od</w>
m ent
p r
an t
are n
m s</w>
hel p</w>
c es</w>
si d
as s
o ver</w>
ne ed</w>
an s
ac k
st at
no w
f ri
g o</w>
h er</w>
P ro
t w
ing .</w>
Mod i</w>
N o
ap p
re ad</w>
m i
o f
po s
-- --
go vernment</w>
d ec
su p
ai d</w>
ec t</w>
tiz en
l a
BJ P</w>
en g
pro test
le g
mo st</w>
vi e
y ou
ed .</w>
com p
N R
CA A</w>
g g
ti es</w>
M y</w>
w ay</w>
por t</w>
t y</w>
at t
M usli
ad e</w>
thin k</w>
) .</w>
c ol
lo w
oronavir us</w>
go ing</w>
c ur
d r
2 0</w>
m is
v es</w>
al i
e very
pl ac
An d</w>
y e
* *</w>
us ed</w>
s -
A l
ar d</w>
b le
or s</w>
on s</w>
or y</w>
uc h</w>
al s</w>
d at
i es</w>
](https:// www.
w at
re e</w>
wi th
shi p</w>
s ?</w>
h er
b oo
l in
f u
so ci
per s
in to</w>
st e
n ation
di t
m ake</w>
f am
t ake</w>
i de
i d</w>
20 0
m any</w>
indi a
p s</w>
re ally</w>
lo ck
1 9
Wh y</w>
wor k</w>
s ha
in ce</w>
b i
il y</w>
o c
it e</w>
oo d</w>
c as
c ri
m uch</w>
ti ve</w>
th en</w>
ak ing</w>
ur ing</w>
h ere</w>
M a
ev er</w>
ne w</w>
l d
1 0
a z
o re
o se</w>
li f
p h
C O
em p
b ack</w>
T r
b li
o t
com e</w>
a i</w>
w r
g en
T o</w>
ou t
ation s</w>
V I
S h
r e</w>
b le</w>
y a</w>
a ve</w>
ri ght</w>
it .</w>
s ur
n ing</w>
tt ing</w>
coun try</w>
at ing</w>
l l
S ha
per i
re li
por t
t est</w>
v ed</w>
d s</w>
d uc
is su
fe w</w>
Th ey</w>
b as
e -
se e</w>
un der
qu es
su ch</w>
Po li
lo g
D e
A c
hi m</w>
1 2
c ould</w>
C om
ou s
for e</w>
ff er
m an
di s
t al
r /
vi de
S u
th r
t ur
c er
it 's</w>
go v
any one</w>
f ic
e ?</w>
year s</w>
ac h
P r
su b
go t</w>
sp ec
fir st</w>
di d</w>
ne w
res s</w>
t ec
ec on
c ha
y s</w>
lo c
wh ile</w>
poli ce</w>
l y
r u
an k</w>
ar i
A s
a th
pro ble
m .</w>
ash m
w ee
-1 9</w>
c or
l ine</w>
g re
sti ll</w>
NR C</w>
am p
lo w</w>
ro w
on g
s y
m il
w om
st ri
do c
M in
c our
’ t</w>
wh y</w>
an k
mon th
CO VI
pu bli
le ase</w>
d ing</w>
el ec
H e</w>
b l
di sc
in d</w>
in f
al is
t od
off ic
poli tic
ye ar</w>
tt er</w>
s ays</w>
t ly</w>
v en</w>
emb er</w>
d .</w>
c all
re l
s aid</w>
ak ist
ac h</w>
re s</w>
re m
F or</w>
.. .</w>
ac t</w>
a k</w>
n umb
fu l</w>
po st
O n
m ade</w>
d es
s ch
m p
econ om
E x
ee l</w>
. in
K ashm
C o
po in
wor k
f ul
er .</w>
cur ren
an c
happ en
ci tizen
ch ang
P akist
m at
s ame</w>
P lease</w>
f a
s ince</w>
20 20</w>
1 5
sh e</w>
some one</w>
w an
d uring</w>
ee p</w>
ay ing</w>
be fore</w>
ex p
i al</w>
India .</w>
reli gi
vi ce</w>
Y ou</w>
th ose</w>
in v
L i
sel f</w>
r y</w>
COVI D
a ff
s pe
M umb
ar ound</w>
P M</w>
lo t</w>
re g
un der</w>
s :</w>
a .</w>
th is
di ffer
M e
s ed</w>
s ure</w>
in i
w on
thr ough</w>
e very</w>
M ar
dow n
fri end
or g
do es</w>
e p
as s</w>
fin d</w>
f ol
ow n</w>
c le
d ays</w>
A s</w>
f un
ou ght</w>
c u
w ays</w>
fam ily</w>
em ent</w>
o p</w>
sp it
al ity</w>
vi ol
f il
ar n
st ate</w>
d ay
E n
gi ve</w>
& #
C an</w>
ard s</w>
sid e</w>
ad es
gh t
x 200
&# x200
&#x200 B
re sp
comm un
G u
P ar
&#x200B ;</w>
s ay</w>
m an</w>
U n
li c
p aren
v el
th ings</w>
al a</w>
c ul
ge tting</w>
we b
.in /
ex peri
lif e</w>
at h</w>
po st</w>
e 's</w>
gh ts</w>
P e
o g
po si
f eel</w>
en c
some thing</w>
re as
to o</w>
aw ay</w>
Min ist
p ur
po w
an i
us ing</w>
20 20
ne ver</w>
I t
s h</w>
e l</w>
Indi ans</w>
f r
do ing</w>
D is
e f
h ome</w>
N o</w>
b re
le ad
I' ve</w>
s ing</w>
ne t</w>
C oronavirus</w>
th at
N ow</w>
L o
tw o</w>
I N
ar g
201 9</w>
ne ws</w>
st and</w>
A f
f re
ce p
C i
o b
ec ted</w>
on .</w>
ple ase</w>
a -
is t</w>
s ol
D o</w>
id e</w>
he al
di d
m ay</w>
in t
is e</w>
ac c
with out</w>
l ast</w>
mon ey</w>
t oo
ti -
[ https://
h u
v o
di t</w>
sit u
l at
y ?</w>
am i
de m
^ B
h and
or i
ar tic
B e
Ch in
0 0</w>
---- ----
as k</w>
k now
ex t
c ase</w>
Poli ce</w>
r a</w>
s s</w>
D o
p ic
se e
ac coun
jo b</w>
read y</w>
ati ve</w>
e f</w>
t ak
de t
do es
g ir
h ear
di c
loo king</w>
ation .</w>
An y</w>
gu ys</w>
publi c</w>
b us
y -
is h
ne x
a ir
k i
in form
o t</w>
op ul
sh ow
or t</w>
hel p
. .</w>
W or
t e</w>
Th ere</w>
tr av
india /
v en
en tr
ver s
r ap
ed uc
u m</w>
wh o
1 0</w>
se ar
O n</w>
od y</w>
l it
le .</w>
l ec
l ess</w>
ou ld
be tter</w>
on -
D i
at es</w>
lock down</w>
d ue</w>
w ell</w>
ff ic
su gg
h op
t ure</w>
re f
f t</w>
re qu
- |
b est</w>
plac e</w>
A ll</w>
be li
k ill
1 .
ti v
sup port</w>
C our
w al
p er</w>
pro vid
t wit
et c
c lo
201 9
1 8
c oronavirus</w>
as ked</w>
ent ly</w>
ic al</w>
paren ts</w>
at a</w>
gr ou
st s</w>
com ple
can 't</w>
W hat
st or
el e
l ong</w>
Musli ms</w>
n ed</w>
pos si
g ress</w>
stud ents</w>
Ne ws</w>
B ang
un i
ch il
tr a</w>
Q u
vi s
em s</w>
nex t</w>
R s</w>
ai l</w>
ter s</w>
ti c</w>
numb er</w>
s af
Del hi
an ks</w>
nation al</w>
K er
Hind u</w>
cas es</w>
G and
t or
1 4
o ver
wor king</w>
mi ght</w>
s en
of f</w>
resp on
u al</w>
Mumb ai</w>
w hat
re .</w>
st ed</w>
st and
vi c
sti tu
p an
proble m</w>
Kashm ir</w>
1 .</w>
In ter
s es</w>
Musli m</w>
vide o</w>
it h</w>
li ve</w>
soci al</w>
t -
medi a</w>
V i
R aj
it ed</w>
le t</w>
red dit
oronavir us
t or</w>
s m
ac y</w>
s l
an a</w>
l aw
COVID -19</w>
Wh en</w>
do m</w>
protest s</w>
any thing</w>
Af ter</w>
hi gh
is m</w>
pro test</w>
t old</w>
ne ed
B eng
P ri
Ne w</w>
wor ld</w>
gen er
' re</w>
are d</w>
pers on</w>
/ )</w>
h a</w>
si g
be t
p opul
b ody</w>
cl ud
on es</w>
t a
coun tr
O f</w>
tion .</w>
ac tu
wat ch
It 's</w>
at e
R a
c ar
l es</w>
u r</w>
Al so</w>
f ore
leg al</w>
pro duc
Ci tizen
2 4
pri v
gov t</w>
3 0
d ri
s )</w>
su l
Ar e</w>
Pe op
u tion</w>
in e
i ght</w>
h om
oo l</w>
U ni
de vel
pers on
coun tri
to w
As s
A d
U S</w>
m y
D ec
ti ce</w>
si on
st u
we en</w>
U S
p le</w>
India 's</w>
No t</w>
f ound</w>
et y</w>
differ ent</w>
oron a</w>
every one</w>
h um
star ted</w>
m en
e y
m e.</w>
Mo di
tr ying</w>
pl ain
does n't</w>
B i
f uc
s a
Go vernment</w>
stri c
con si
ation al</w>
L e
ch ec
ti ci
st ory</w>
ig n
m ak
Ma har
b ack
k eep</w>
w ar
ag es</w>
for m</w>
comm ent
col le
did n't</w>
Go v
fri end</w>
tr ans
to p</w>
vie w</w>
ci al</w>
d one</w>
t re
al ready</w>
r an
ic e</w>
p ut</w>
par t</w>
f li
re gi
Pakist an</w>
b ro
ut e</w>
star t</w>
tim es</w>
c ame</w>
ay .</w>
bet ween</w>
twit ter
al e</w>
bu y</w>
mo vi
dat a</w>
H y
Con gress</w>
inter est
f ood</w>
ro ss</w>
ha n</w>
p ay</w>
con f
web sit
c y</w>
mi gr
j ec
tod ay</w>
2 .</w>
I T</w>
sh are</w>
in -
ali z
b or
on line</w>
el s</w>
wom en</w>
disc us
our s</w>
D on
h ou
n ec
P l
politic al</w>
b er
e ve</w>
friend s</w>
go vern
al ways</w>
ac e</w>
op s</w>
bas ed</w>
under stand</w>
Peop le</w>
c are</w>
mar k
c are
p end
India ?</w>
f ree</w>
reddit .com/
Mahar ash
min ist
c all</w>
emp lo
J ust</w>
T im
ee t</w>
devel op
00 0</w>
call ed</w>
S e
b ad</w>
ho spit
bu il
H e
p ec
loo k</w>
situ ation</w>
W ith</w>
an other</w>
bec ome</w>
ail s</w>
H o
bus in
Cour t</w>
f l
m aj
the m
2 5
ha r</w>
il ity</w>
ab ad</w>
month s</w>
w a
t le</w>
lo ve</w>
str uc
an ts</w>
si ve</w>
es ?</w>
I m
s .
P re
i gh
p ass
W ill</w>
as k
d el
Ker ala</w>
Minist er</w>
twitter .com/
M an
jo b
st re
ard ing</w>
curren t</w>
ades h</w>
1 6
indi a</w>
y /
c ap
log y</w>
J N
tr u
se t</w>
op ini
com ing</w>
sh ow</w>
di rec
ent .</w>
l ed</w>
R an
y s
wan ted</w>
P un
le ast</w>
India ’s</w>
par t
e as
al .</w>
pro c
in clud
An y
is h</w>
the m.</w>
chang e</w>
m ust</w>
la w</w>
inter net</w>
ac tion</w>
R es
A p
o m</w>
er ing</w>
m a</w>
m aking</w>
bo th</w>
experi ence</w>
le ar
av ail
n s</w>
ad d
de mo
poin t</w>
t ell</w>
c ity</w>
CA A
pow er</w>
ould n't</w>
F rom</w>
I T
ap p</w>
Citizen ship</w>
l ing</w>
w ent</w>
stat us
medi c
es -
F ir
li m
ph one</w>
countri es</w>
a im
o s</w>
or d
g a
st ay</w>
pu r</w>
-| -|
wr it
A N
d re
Pro test
it y.</w>
s our
an ti-
Co vid
ti ll</w>
ind u
m or
ques tion</w>
a b</w>
l ak
pos ed</w>
F e
U P</w>
1 3
n ame</w>
de li
. org
5 0
etc .</w>
4 0
H i</w>
se en</w>
comp any</w>
gi ven</w>
reddit.com/ r/
or ity</w>
ha k
am m
an i</w>
ec h
b el
ce i
boo k</w>
On e</w>
A b
j u
in cre
ha ving</w>
est er
wi ki
b ur
e :</w>
po ll
colle ge</w>
th ough</w>
ci d
S ing
t ors</w>
al -
m ents</w>
Tim es</w>
ac ross</w>
b ab
s =
ap pro
im port
s aying</w>
pr om
1 7
H el
R S
T V</w>
h t
/ 0
i li
tr a
you tu
inform ation</w>
en ough</w>
Sha h</w>
k ar
gu y</w>
s al
ha l
. "</w>
mar ri
status /
ig n</w>
th ought</w>
Gand hi</w>
us i
now .</w>
le d
Do es</w>
w ell
A t</w>
c ou
st op</w>
er s.</w>
d am
or der</w>
Am az
sup por
fol low
e qu
re comm
3 .</w>
m a
e j
f y</w>
i k
ne t
cont in
1 9</w>
c ast
th ers</w>
h and</w>
vir us</w>
wor ld
beli eve</w>
reddit.com/r/ india/
N P
d u
j ar
m ess
n a</w>
ri s
pre ci
sugg es
b it</w>
ul ar</w>
issu e</w>
ous ly</w>
I ’
u ary</w>
ing -
y p
spec i
I S
es /
pro f
Hy der
z e</w>
ro w</w>
doc um
o ol
t en</w>
ar ant
sel f
v al
ac e
ad u
# #
t om
actu ally</w>
se ems</w>
A u
k ind</w>
at or</w>
n or
ow ever</w>
B o
der ing</w>
En g
ail y</w>
tec h
S ec
on d</w>
re cei
um p</w>
vie w
e ach</w>
f ut
and s</w>
! !</w>
re por
ch ar
it al</w>
ste m</w>
s ci
at ak
Am it</w>
se .</w>
S hi
heal th</w>
R o
li k
vi ces</w>
to -
/ status/
d ro
arn atak
e i
-1 9
Maharash tra</w>
er s
ans w
fi ght</w>
Chin a</w>
possi ble</w>
A A
gr ap
vers ity</w>
ec h</w>
Y ou
pre me</w>
c a
p ay
ti fic
ar re
ex am
this .</w>
re mo
ic s</w>
t ain</w>
ag ain</w>
s ing
ar m
ad v
par ty</w>
Ac t</w>
S o
mon th</w>
t aking</w>
b ri
ist s</w>
cont ro
bi g</w>
Gov t</w>
J an
n am
R ec
T wit
h y
d e</w>
r ul
J o
th re
su m
as ks</w>
ad vice</w>
ap preci
can not</w>
won 't</w>
cep t</w>
.org /
b er</w>
er i
as king</w>
tion al</w>
con cer
"" .</w>
St ud
k .</w>
en ing</w>
is i
Ne ed</w>
au th
demo cr
W e
m it
li st
id enti
end ed</w>
reas on</w>
[https:// www.
A g
C ha
a ir</w>
le ft</w>
pl ann
t ou
fac e</w>
cl aim
fi ed</w>
t s.</w>
th ou
re le
no thing</w>
tri ed</w>
too k</w>
it ?</w>
sch ool</w>
H er
N ational</w>
c ed</w>
c ent
d ate</w>
re tur
il li
tak en</w>
T u
g row
li ving</w>
ic ally</w>
Wh o</w>
econom y</w>
8 0
d en
C an
viol ence</w>
S he</w>
oun d
read ing</w>
wr ong</w>
new s/
gre at</w>
comment s/
A T
e ts</w>
ge ts</w>
m ay
or t
di st
Beng al
op p
op en</w>
shi p
W om
j ect</w>
ar ly</w>
ain s</w>
at s</w>
Th anks</w>
T hat</w>
reg arding</w>
ste ad</w>
E ven</w>
G oo
n ’t</w>
o ther
gir l
sm all</w>
T od
V ide
f el
c us
l y.</w>
en ce
ide a</w>
S ome</w>
JN U</w>
BJ P
6 0
p ast</w>
s us
re al</w>
el se</w>
"" "
comp an
is n't</w>
sp read</w>
stud ent</w>
ot e</w>
1 1
T H
tal k</w>
trav el</w>
2 9
as ed</w>
Gu jar
grou p</w>
K arnatak
f e</w>
er ed</w>
mak es</w>
3 0</w>
s po
sc ri
s ent</w>
hou se</w>
avail able</w>
c oronavirus
ul t</w>
3 7
on e.</w>
hi gh</w>
ques tions</w>
who le</w>
T i
ser i
citizen ship</w>
sear ch
tow ards</w>
reddit.com/r/india/ comments/
po or</w>
ht m
ch o
ang u
issu es</w>
si mil
n ess</w>
st er</w>
sy stem</w>
O p
c ro
f f</w>
g ur
h on
Su preme</w>
hop e</w>
Mar ch</w>
cu st
r up
hat e</w>
E lec
ch i
r or
ing ?</w>
enti al</w>
her e.</w>
C entr
f ar</w>
th read
re p
2 8
e ff
w as
What s
F or
ir e</w>
ell ing</w>
C hi
li st</w>
Th ese</w>
CA B</w>
Bang al
is ed</w>
tion s.</w>
L oo
ad .</w>
commun ity</w>
% 20
every thing</w>
religi ous</w>
C orona</w>
l ar
sh it</w>
n on-
p ati
hi story</w>
heal th
accoun t</w>
ej ri
B ag
am oun
Sh ould</w>
al most</w>
-------- --------
C M</w>
R E
l u
ch e
he ad</w>
ou th</w>
sear ch</w>
b ir
m ul
ap pe
qu arant
in st
govern ment
ar r
the y
educ ation</w>
2 7
c ard</w>
d h
s !</w>
Th ank</w>
thin king</w>
rec ently</w>
wat ch</w>
gir l</w>
provid e</w>
de ath</w>
R ed
di g
ur ity</w>
j p
need s</w>
r i</w>
com es</w>
Ho spit
Covid -19</w>
o ts</w>
re sul
su c
fa ther</w>
lit tle</w>
requ i
2 6
h ol
om e
H i
c amp
l ab
m emb
p n
der ed</w>
mis sion</w>
happen ed</w>
e p</w>
end ing</w>
Wh ich</w>
Sing h</w>
c y
in de
at ely</w>
us .</w>
pl an</w>
I' ll</w>
1 00
2 3
U P
th read</w>
ch an
loc al</w>
M on
f er
co vid
S C</w>
k id
har d</w>
wat er</w>
N or
m en</w>
al low
ro ad</w>
lo b
b ank</w>
min d</w>
j us
ser vice</w>
D I
H as</w>
S our
t op
tt y</w>
id ed</w>
Kashm ir
posi tive</w>
f oo
m ain
w ard</w>
boo k
wan ts</w>
P M
go og
im p
rel ated</w>
p i
ch arg
mo b
https:// www.
man ag
ful l</w>
K ejri
O ffic
countr y.</w>
O ur</w>
p ho
' ll</w>
B ill</w>
religi on</w>
W i
on ce</w>
es :</w>
me an</w>
dr a</w>
fac t</w>
- b
ami a</w>
f ur
u ally</w>
Lo ck
o thers</w>
tic al</w>
B ha
f ail
re port</w>
di es</w>
wom an</w>
D ay</w>
n at
t ro
an .</w>
stat es</w>
I C
d .
e e</w>
h ours</w>
ain ed</w>
sc re
pres s</w>
simil ar</w>
H ar
ti s
cl ass</w>
cri s
Ass am</w>
fr on
er ic
ve l</w>
compan ies</w>
lock down
4 .</w>
B y</w>
w al</w>
el ing</w>
Hind us</w>
vis it</w>
h ya</w>
wh e
S en
t !</w>
D oc
it ing</w>
be g
es s.</w>
day .</w>
sa w</w>
A n</w>
N C
m id
sch ool
a p</w>
r un
.. .
pec i
di a</w>
1 5</w>
U p
li sh</w>
de f
NR C
import ant</w>
H owever</w>
T el
T ri
s k
po se</w>
Hind i</w>
Pr adesh</w>
i l</w>
n ation</w>
on e
Th e
fin an
soci ety</w>
wee k</w>
H ell
un d
ed ?</w>
curren tly</w>
t ab
y et</w>
de b
Dis cus
rap e</w>
A ir
m er
t ?</w>
th ree</w>
en tion</w>
si mp
od e</w>
to ge
bre ak</w>
N aren
b en
go od
chec k</w>
Fir st</w>
R i
w id
Th read</w>
li ght</w>
ad s</w>
mil li
ful ly</w>
hear d</w>
pn g
W at
ow n
Tr ump</w>
Sha he
cour se</w>
d d
en ces</w>
si ons</w>
tal king</w>
this ?</w>
that 's</w>
G r
Ap p</w>
t ar
it y
em o
ho t
cr ore</w>
posi tion</w>
j ud
vi sit
Goo g
r it
St ate</w>
tim e.</w>
Hell o</w>
A y
l and</w>
th ing.</w>
oo p</w>
don ’t</w>
A R
I sl
v e.</w>
re co
con stitu
ser vices</w>
vie ws</w>
citizen s</w>
lear n</w>
f ake</w>
l angu
p aid</w>
us es</w>
am az
to t
websit e</w>
Any one</w>
es h
le ave</w>
ami l</w>
dre n</w>
fut ure</w>
K um
M ad
C ol
se ver
mo ve</w>
peop le.</w>
eng ine
Tod ay</w>
- in-
v ol
in s</w>
Don 't</w>
3 5
B est</w>
v s</w>
with in</w>
Amaz on</w>
Naren dra</w>
O ver</w>
medic al</w>
' ve</w>
m ed</w>
in ed</w>
vi a</w>
p ap
peop le
amoun t</w>
c li
h ind</w>
in stead</w>
er y</w>
ur u</w>
Am end
saf e</w>
my self</w>
b ul
Hind u
work ers</w>
Bang l
busin ess</w>
s or
en n
li es</w>
pro ve</w>
pro bab
gi ving</w>
plann ing</w>
- old</w>
[ **
O r</w>
as e
us h
Wh ere</w>
stud y</w>
dec isi
enc e.</w>
C l
R am
c am
ic k
tr ac
T amil</w>
out side</w>
S har
li gh
uc k</w>
Am eric
sid ent</w>
d ar
d om
ou t.</w>
ic k</w>
A S
re stric
ex pl
im ple
end s</w>
Dec ember</w>
Twit ter</w>
S ur
vi l</w>
op er
sel ves</w>
lak h</w>
A pri
B ri
h ur
s av
sh ar
ne ar</w>
pro tec
wor th</w>
our n
movi e</w>
pe ti
Mo st</w>
ades h
includ ing</w>
Karnatak a</w>
7 0
E con
V ir
i p
di tion</w>
plac es</w>
Apri l</w>
di a
ch ed</w>
Econ om
. htm
F in
I M
M L
N O
P u
e /
et c</w>
RS S</w>
H ave</w>
emplo y
Hyder abad</w>
Discus sion</w>
S ab
[ O
lo st</w>
Ne w
lin k</w>
cle ar</w>
He al
vi ous</w>
de al</w>
ain ing</w>
bec om
mat ter</w>
ele br
n a
ag o</w>
ill ing</w>
E R
b an</w>
d -
in cid
cl usi
ne l</w>
ei ther</w>
l ap
sh o
dec ided</w>
see m</w>
cust om
H app
M u
ut es</w>
of -
m us
in k</w>
co st</w>
wee k
I’ m</w>
nor m
v ill
ab o
E dit
M an</w>
p at
an -
ag e.</w>
pro per
C oronavirus
c entr
k a</w>
m u
p en
w ar</w>
ati c</w>
op en
la un
comple t
may be</w>
C ur
mo ther</w>
red dit</w>
pr ac
9 0
J amia</w>
f av
ori ties</w>
y oun
li am
sugg est</w>
probab ly</w>
B I</w>
d f
de fin
au gh
Ran dom</w>
/status/ 12
p as
in t</w>
ti l</w>
ud get</w>
sec urity</w>
popul ation</w>
ti vi
wor ks</w>
stand ing</w>
D r
z ed</w>
qu ality</w>
Mumb ai
cou ple</w>
Goog le</w>
- year
L a
the -
](https:// twitter.com/
person al</w>
hospit al</w>
well .</w>
h it</w>
go es</w>
Ar tic
M H
S a
S ays</w>
s '</w>
ig g
politic s</w>
job s</w>
Shahe en</w>
1 )</w>
O r
g ave</w>
enti re</w>
I F
S ince</w>
h an
ol ly
priv ate</w>
Pun j
4 8
st ly</w>
tr an
cre ator</w>
you .</w>
Su b
Li ke</w>
b ar
in es</w>
gr ound</w>
tim es
Bag h</w>
peci ally</w>
P an
^ I</w>
o .</w>
qu ite</w>
pre tty</w>
au to
det ails</w>
hum an</w>
Chi ef</w>
2 1</w>
^ a</w>
h ind
ee p
sc en
so on</w>
show s</w>
ex t</w>
care er</w>
7 5
A pp
H ey</w>
^ if</w>
m om
am ong</w>
gr adu
te l</w>
Lock down</w>
olly w
d ou
g res
w el
as h</w>
ter n
for t
sing le</w>
B S
^ my</w>
^ am</w>
a /
h m
test ing</w>
Wor ld</w>
pan dem
sugges tions</w>
C oun
^ any</w>
^ bo
^ problem</w>
^ ask
^ creator</w>
c op
v ari
es pecially</w>
am ing</w>
^B eep</w>
^B ot</w>
^B oop</w>
interest ed</w>
^bo t!</w>
^ask away</w>
ou gh
Hel p</w>
Th en</w>
hu ge</w>
kill ed</w>
led ge</w>
T o
s il
pl ay
artic le
ta x</w>
Jan uary</w>
D ev
y our
that .</w>
P h
m usli
en ter
si ble</w>
proble ms</w>
Gujar at</w>
suc c
s .com/
ter ror
lob al</w>
Kejri wal</w>
econom ic</w>
AA P</w>
k ar</w>
ac ks</w>
ri c
& s=
ab ad
indi vid
G i
H ome</w>
O N
e )</w>
er -
ri ed</w>
se x
fi c</w>
chil dren</w>
allow ed</w>
S c
as c
stu ff</w>
D et
H ere</w>
W ould</w>
y :</w>
tod ay
nec ess
tech no
Bangal ore</w>
l ack</w>
al leg
sp ort</w>
cul ture</w>
Raj as
ex ist
offic e</w>
memb ers</w>
4 9
A M</w>
pro gr
tic s</w>
me ans</w>
I' d</w>
whe ther</w>
u res</w>
it /
pl es</w>
fi gh
B u
P ol
s end</w>
in c
con nec
comm on</w>
lit er
B e</w>
Y our</w>
r ate</w>
le vel</w>
tion ed</w>
clo se</w>
Pri me</w>
il legal</w>
he ad
form at
4 5
m ee
An ti-
av o
poli tici
O c
h old</w>
com plain
Wh ile</w>
1 2</w>
m un
n er</w>
re t
es h</w>
ac ked</w>
be hind</w>
su g
ed -
lead er</w>
eff ec
S T
ri ghts</w>
si st
ai m</w>
sit e</w>
ni ght</w>
ann oun
cour t</w>
happen ing</w>
arre sted</w>
i .
un til</w>
= web
or d</w>
ad a</w>
ne igh
cor ding</w>
rem ember</w>
ate g
youtu be
f ind
p ite</w>
t en
lo gi
he ar</w>
vide os</w>
sy st
I A
S outh</w>
c orona</w>
d le</w>
li ber
im migr
alis m</w>
b ha
hel d</w>
happ en</w>
Whats App</w>
S an
v a</w>
opini on</w>
goog le
I ts</w>
ti g
am s</w>
emplo ye
M P</w>
S pe
ver age</w>
red d.
T a
a 's</w>
m it</w>
ri ght
sti t
pres ent
10 0</w>
proc ess</w>
complet ely</w>
B ec
m ind
re search</w>
en .
Th ank
de st
What 's</w>
U tt
b al
l ong
t em
and -
app lic
bre ak
em er
happ y</w>
lar ge</w>
' :</w>
C or
S ome
c al
h ic
p m</w>
an ce
at ory</w>
pe dia
pre v
don t</w>
Inter net</w>
mul ti
2 2
c ar</w>
anc e.</w>
1 1</w>
H is</w>
b lo
’ :</w>
con fir
qu e</w>
-year -old</w>
s am
up dat
cont act</w>
wee ks</w>
gener al</w>
Uni versity</w>
recomm end
c ause</w>
doc tors</w>
pho to
1 st</w>
B har
E very
K ar
N et
R T
S er
k ind
ol k
ch es</w>
format =
redd. it/
b an
p ag
al ong</w>
ed ly</w>
fi el
jo in</w>
reg ul
follow ing</w>
jp g
C ri
a :</w>
g ed</w>
ch ing</w>
pl ay</w>
br ing</w>
sha re
youtube .com/
S i
h s</w>
y an
vie w.
5 0</w>
W ee
m em
india -
call s</w>
too .</w>
lat er</w>
F i
t y
tr ue</w>
fol low</w>
.org/ wiki
/ 2020
ha ven
li ves</w>
fre e
maj ority</w>
fron t</w>
A ir</w>
J i
th =
at ed.</w>
li sh
hi m
aw are</w>
sec ond</w>
exp en
3 9
? ?</w>
N ir
V is
a ?</w>
v =
w in
ha l</w>
ut y</w>
rec ent</w>
ell s</w>
ment al</w>
ach ing</w>
acc ess</w>
fur ther</w>
b igg
m ur
p df
re st
im gur
cha ll
Ag ain
wid th=
imgur .com/
& auto
3 6
? width=
D ata</w>
L et
P S
p &s=
ti t
ch ann
pre view.
tic k
lead ers</w>
tak es</w>
maj or</w>
=web p&s=
.org/wiki /
&auto =webp&s=
& format=
J us
th ing
ti es.</w>
st up
ra ther</w>
emp le</w>
wiki pedia
opp ed</w>
Artic le</w>
u gg
Ch enn
fore ign</w>
NP R</w>
wikipedia .org/wiki/
B ank</w>
D E
G en
T e
T ha
i a</w>
s on</w>
v ote</w>
re st</w>
ext rem
Beng al</w>
Tel ang
3 8
u es</w>
re spec
le av
htt p
boo ks</w>
know n</w>
wal i</w>
S ch
g ar
as es</w>
bo ard</w>
Re li
abo ve</w>
f oc
s r
s le
de ath
.com/ news/
mon e
ru n</w>
Kum ar</w>
T w
k no
m eet</w>
s w
ati ves</w>
ai g
year s.</w>
cer tain</w>
Protest s</w>
toge ther</w>
A I
M al
f al
um p
inv est
http ://
L I
T op</w>
d aily</w>
g s</w>
ment .</w>
ant ly</w>
alis t</w>
ini ti
S T</w>
S un
l a</w>
pro ject</w>
her e
preview. redd.it/
2 .
7 6
R am</w>
u /
re -
Pro test</w>
N i
c ir
o k
re sid
ro om</w>
indu str
Happ y</w>
ollyw ood</w>
c row
f er</w>
r am</w>
s low
er ?</w>
ac tivi
mo d
col leg
ep t</w>
help .</w>
A L
c elebr
th .</w>
ir d</w>
and a</w>
.. ..
all s</w>
lif e.</w>
Vide o</w>
Edit :</w>
A si
D aily</w>
L at
W est</w>
् य
ci es</w>
sp ir
are a</w>
pp ed</w>
off er</w>
google .com/
in k
su ic
ra is
pri ce</w>
chil d</w>
M ore</w>
Y og
p un
es sion
mo v
IN DI
sen se</w>
watch ?
: **</w>
J &
O R
j i</w>
l and
u b
st .</w>
ac cep
sh ort</w>
"" :</w>
tu res</w>
sy mp
Vi ol
Centr e</w>
youtube.com/ watch?
2 4</w>
N ag
j i
s ave</w>
en .</w>
wh er
ne g
au ght</w>
Eng lish</w>
2 )</w>
p e</w>
u ro
or ig
di ffic
op tion</w>
pre p
Ch ec
form s</w>
Con stitu
gre at
mark et</w>
fel t</w>
kid s</w>
0 9
I s
ur al</w>
ex plain
te e</w>
amp le</w>
inv ol
comple te</w>
.htm l
1 8</w>
A tt
c ut</w>
s ong</w>
ic .</w>
ex pres
par tic
fe ar</w>
reas on
jec ts</w>
thou ghts</w>
youtube.com/watch? v=
F ac
W as</w>
de .</w>
pl at
offic i
A ad
D id</w>
in ess
ou d</w>
li ed</w>
hu l</w>
mob ile</w>
imple ment
1 4</w>
9 9
d ad</w>
s un
it ’s</w>
is .</w>
de pres
sp end</w>
ear ly</w>
** ](https://
ther .</w>
you 're</w>
lin k
tur n</w>
fuc k</w>
fuc king</w>
lik ely</w>
Loo king</w>
K olk
sh ut
ef for
Qu es
tom or
G re
re ach</w>
en s</w>
ang e</w>
comm it
cre ate</w>
spe ech</w>
artic l
Amend ment</w>
7 8
mo m</w>
res our
ast e</w>
ther e.</w>
loc k</w>
tod ay.</w>
Uni on</w>
## #</w>
A M
d ers</w>
em ents</w>
fr om
watch ing</w>
coronavirus -
quarant ine</w>
5 .</w>
D es
W H
b ill</w>
f arm
h r
t 's</w>
tre at
G er
S .</w>
ar s</w>
ro r</w>
am a
ab ility</w>
ver si
Ar my</w>
ther e's</w>
No v
tot al</w>
T ech
er a</w>
inf ec
arg um
acc used</w>
ord ers</w>
contin ue</w>
cast e</w>
mess age</w>
recei ved</w>
answ er</w>
You Tu
S up
y ester
in side</w>
ud e</w>
India :</w>
all .</w>
can c
att ack</w>
post s</w>
Ra hul</w>
thre at
finan cial</w>
Heal th</w>
di sp
me as
comm ents</w>
inter national</w>
att emp
Minist ry</w>
discus s</w>
us h</w>
Th er
ab sol
ell ed</w>
popul ar</w>
Stud ents</w>
sug ge
en. wikipedia.org/wiki/
Let 's</w>
w ide</w>
as i
for -
of ten</w>
post ed</w>
h or
j ourn
no tic
sh ot</w>
mo stly</w>
ed |
wi fe</w>
rel ation
ta x
haven 't</w>
2 5</w>
F ri
H ot
v ely</w>
cor rec
kill s</w>
extrem ely</w>
2 -
E E
im ag
im medi
tri p</w>
col lec
6 00
a h</w>
con duc
ple ase
peri od</w>
vide o
numb ers</w>
them selves</w>
grow th</w>
Bengal uru</w>
Again st</w>
. ""</w>
3 -
4 1.
E very</w>
T ]</w>
c le</w>
m ast
r on
hi m.</w>
up .</w>
tiz en</w>
what 's</w>
g l
m asks</w>
n t</w>
on d
st -
ha s
ver i
ci ties</w>
cl ass
offic ial</w>
org ani
K am
a di
b a
b ed</w>
v ind</w>
gh t.</w>
ent al</w>
day s.</w>
movi es</w>
l ess
Go vern
ques tion
ran di
ben ef
vari ous</w>
multi ple</w>
A B
_ a
m as
ha i</w>
for ce</w>
bor n</w>
/2020 |
P at
R em
el ess</w>
wor d</w>
gi ves</w>
fam ili
minist er</w>
illi on</w>
L et</w>
S ci
s ong
t ol
an e</w>
st ing</w>
sur vi
see ing</w>
aliz ed|
Fe br
Hospit alized|
- to-
C C
l ate</w>
er al</w>
ch oo
Ch ri
4 6
M B
b it
f lo
v ey</w>
no t
ver ed</w>
se x</w>
respon se</w>
tici p
docum ent
democr acy</w>
S am
p a
al one</w>
ear s</w>
test s</w>
law y
= =
b ility</w>
c ouldn't</w>
g ni
t i</w>
t ren
al i</w>
su pp
wor ds</w>
au ti
cont ent</w>
ph ys
tec h</w>
Me dia</w>
Ay od
. gov
l arg
x i
re alis
am .</w>
par ties</w>
tw ee
retur n</w>
Sab ha</w>
7 9
k ept</w>
ac tions</w>
ur g
ad vi
ed om
Re gi
app ly</w>
sur ve
won dering</w>
org an
B r
c m
an al
ri min
no tice</w>
vir on
busin ess
F I
R ap
b hak
् र
ti sh</w>
le ad</w>
ati s
ex per
ge t
ation ?</w>
te am</w>
stud ent
dr aw
grap h
was n't</w>
Nor th</w>
sever al</w>
Jus tice</w>
di ed</w>
di stric
In st
af t</w>
wr ite</w>
cor rup
mid dle</w>
S ik
m ain</w>
v al</w>
in come</w>
es sion</w>
am es</w>
su b</w>
inter net
tw are</w>
Musli m
Par liam
Di wali</w>
school s</w>
1 20
G od
d ang
p ack
t yp
u re
an ces</w>
es tig
ex c
str ugg
On ly</w>
know ledge</w>
Oc to
B ab
b and</w>
d /
r at
ti me
are n't</w>
poli cy</w>
ser v
pres ent</w>
men tioned</w>
tific ation</w>
1 -
M E
c ent</w>
is ol
for ced</w>
so f
Con t
wr ong
disc rimin
ref er
Telang ana</w>
D uring</w>
ad d</w>
per sec
poli c
protest ing</w>
ach ed</w>
artic le</w>
del hi
So cial</w>
camp aig
inde pend
: )</w>
F il
li er</w>
ch .</w>
hi stor
for ward</w>
.. ..</w>
tri b
Sh are</w>
des pite</w>
grou ps</w>
C r
D al
f all</w>
in .</w>
fe eling</w>
spe ak</w>
add ress</w>
Hi gh</w>
hm ed
kno ws</w>
S p
w ish</w>
op port
et .</w>
ra in</w>
bas ic</w>
elec tions</w>
contro l</w>
New s
neigh b
ha i
ra il
Hind ut
. **</w>
a ut
g an
n ic
t ect</w>
in ess</w>
on na</w>
lo ad</w>
ul l</w>
call ing</w>
youn g</w>
K o
k a
m ist
w ay
| |</w>
ar t</w>
elec tion</w>
countr y
rul es</w>
scri p
chi ef</w>
decisi on</w>
expl ain</w>
J u
U r
re port
st opped</w>
al d</w>
ad ing</w>
aw a
inter est</w>
St at
Rajas than</w>
Febr uary</w>
h indu
k i</w>
an im
ag re
ck ed</w>
ck et</w>
sup posed</w>
fre edom
Wom en</w>
cris is</w>
necess ary</w>
avo id</w>
+ +
S ho
n d</w>
tr ain</w>
for c
fir e</w>
ans _
self .</w>
% 2
? "</w>
M any</w>
Y es</w>
de ad</w>
ter m</w>
ex ample</w>
bu ying</w>
sur pri
ly _
doc tor</w>
Bec ause</w>
Tw o</w>
H ist
N D
N av
c en
ar ri
On line</w>
work .</w>
Pakist ani</w>
pur su
! !!</w>
K han</w>
M P
_ share
b lock
y a
me an
fam il
pur cha
char ge</w>
9 5
d ed</w>
e vid
er 's</w>
en sure</w>
al tern
vi d</w>
de ep</w>
Ar vind</w>
gen cy</w>
fli ght</w>
eas y</w>
writ ten</w>
Ab out</w>
MH T]</w>
figh ting</w>
Chenn ai</w>
please _share
randi ans_
please_share _a
randians_ please_share_a
) )</w>
M us
_ thread
a po
f o
oun ds</w>
mo re.</w>
indi an</w>
** *
loo ks</w>
happ iness
ant i</w>
ste p</w>
cri tic
anc ing</w>
jud g
Bangl adesh</w>
mus ic</w>
' .</w>
3 4
B an
M is
Y O
mo der
qu i
ph ones</w>
resp ect</w>
need ed</w>
run ning</w>
B oo
K an
b ly</w>
d ated</w>
em ent
id =
cl aim</w>
publi c
fun d</w>
sour ce</w>
docum ents</w>
self -
Chec k</w>
_thread _
A k
Re port</w>
dec ent</w>
buil d</w>
norm al</w>
Wee k
C ase</w>
M ay</w>
S y
a ur
ind er</w>
dou b
6 6
G D
T er
e at</w>
g onna</w>
on lin
ro ll
vi ously</w>
do ?</w>
ci tizen</w>
str ong</w>
br ought</w>
month ly_
actu al</w>
randians_please_share_a /)</w>
happiness _thread_
monthly_ happiness_thread_
monthly_happiness_thread_ randians_please_share_a/)</w>
F ace
T I
c it
on al</w>
ri ots</w>
ther e
IN G</w>
show ing</w>
law s</w>
Modi 's</w>
mor ning</w>
deli very</w>
Punj ab</w>
liter ally</w>
Ayod hya</w>
E uro
R s.</w>
b at
h un
Ch and
citizen ship
int ro
Pre sident</w>
A C
G o</w>
N ight</w>
op e</w>
com ment</w>
ear ing</w>
min utes</w>
lin es</w>
fil ed</w>
hand s</w>
det ail
develop ment</w>
they 're</w>
chan nel</w>
langu age</w>
J& K</w>
S af
Y e
ा र
om b
op tions</w>
su ffer
](https:// en.wikipedia.org/wiki/
ni fic
inf ected</w>
what ever</w>
pass ed</w>
Coronavirus :</w>
P ay
p kar
s ay
w ing</w>
ab road</w>
ow /
ra ise</w>
high er</w>
ga ther
( I</w>
. pdf
P er
a verage</w>
b ann
l s</w>
t on
in al</w>
en ed</w>
ad u</w>
un ch</w>
pro pag
ex ac
ve hic
Delhi .</w>
marri age</w>
Sen a</w>
free dom</w>
S al
g lobal</w>
o logy</w>
th s</w>
us ually</w>
pe ace
se par
con v
https:// preview.redd.it/
fe at
ren t</w>
emb ly</w>
Com mit
hal f</w>
seri ous</w>
dest ro
symp tom
Octo ber</w>
. co
F un
c k</w>
s mo
y es</w>
at or
at ors</w>
cor por
incre ase</w>
exam s</w>
girl s</w>
diffic ult</w>
articl esh
? ""</w>
H um
J amm
g one</w>
m es
t /
es )</w>
ac cept</w>
de pend
gu id
Gand hi
produc t</w>
sal ary</w>
Shi v</w>
rele v
articlesh ow/
5 5
M ay
O ut
S w
c ops</w>
n er
w ise</w>
il e
cri min
COVID -19
lear ning</w>
ester n</w>
industr y</w>
YouTu be</w>
/2020| -|-|
ra z
protest ers</w>
-|-| Hospitalized|
marri ed</w>
Her e's</w>
dig ital</w>
engine ering</w>
/2020|-|-| -|-|Hospitalized|
A z
s mar
w in</w>
ac tiv
Indi an
de p
sh ut</w>
ter ms</w>
wor d
par ticip
hom e.</w>
consi der</w>
y )</w>
be ha
af ter
fe ed
bo y
r/ india</w>
happen s</w>
speci fic</w>
your self</w>
Net fli
3 .
t ain
al low</w>
ro om
le tter</w>
lo se</w>
sc ared</w>
cre ated</w>
sha ll</w>
oc k</w>
enc y</w>
Kolk ata</w>
R ight</w>
f em
v es.</w>
di se
le arn
de al
pr in
reas ons</w>
consi dered</w>
appreci ate</w>
pandem ic</w>
H C</w>
f asc
n on</w>
ve -
br ut
syst em
V e
[ P
k e
m m
r ac
s ’</w>
ar .</w>
at i</w>
ro ad
ac cording</w>
pro tect</w>
ay ed</w>
sp reading</w>
me t</w>
boo ked</w>
spe ak
fel low</w>
' d</w>
B ollywood</w>
a h
b b
k ey</w>
p aying</w>
r an</w>
w illing</w>
or ies</w>
li g
el .</w>
ab le.</w>
pre vious</w>
Chin ese</w>
becom ing</w>
am a</w>
un ity</w>
ear n</w>
har d
ill ed</w>
fin al</w>
stat us</w>
wa it</w>
repor ts</w>
sci ence</w>
milli on</w>
Lat est</w>
Nov ember</w>
1 /
8 8
F ore
s ort</w>
in no
in sur
po t
ag ed</w>
con struc
(https:// www.
all y.</w>
gen u
tur ned</w>
hear ing</w>
claim s</w>
fort un
Utt ar</w>
stup id</w>
1 3</w>
2 2</w>
j it</w>
m al
th ous
am id</w>
coun ter</w>
** *</w>
](https://www. reddit.com/r/india/comments/
4 7
U K</w>
in ing</w>
in ation</w>
it self</w>
ati c
con st
year .</w>
low er</w>
log ical</w>
inf lu
aff ected</w>
sig nific
prof ession
shar ing</w>
G ood</w>
f ru
h us
m ember</w>
t a</w>
u re.</w>
क े</w>
ver sion</w>
mo di
wor se</w>
fin ally</w>
fac ing</w>
form ation</w>
Pr adesh
poin ts</w>
regi st
repor ted</w>
Isl am
succ ess
E D
d augh
m ag
s wit
s ""</w>
t :</w>
t ed.</w>
re ly</w>
ti fy</w>
ac king</w>
ver .</w>
ver s</w>
se tt
wor st</w>
ation s.</w>
im age</w>
por ts</w>
af f</w>
chang ed</w>
exp ect</w>
fun c
pow er
writ ing</w>
bel ow</w>
3 3
C E
M i
e m</w>
h ous
m ass</w>
w ard
en jo
con sul
ci vil</w>
00 0
fic ation</w>
lim ited</w>
pati ents</w>
simp ly</w>
hot star
tran sp
4 -
? s=
A N</w>
N S
b udget</w>
ab le
su per
pl ans</w>
ev ent
min e</w>
soci et
Pun e</w>
anti- CAA</w>
sh it
sh oo
pro per</w>
wor ried</w>
gu e</w>
R u
c oo
g ree</w>
p ass</w>
re pe
re fu
it ary</w>
ri se</w>
ur u
lo y
ol i</w>
differ ence</w>
vo ice</w>
men tion</w>
part ment</w>
Pu bli
organi z
Hindut va</w>
b ought</w>
g ame</w>
i or</w>
u ted</w>
uc k
hand le</w>
buil ding</w>
---------------- ----------------
Mad hya</w>
pap er</w>
Americ an</w>
tomor row</w>
4 4
C re
E ast</w>
F am
c at
er c
ri o
ati mes
ad em
sh ort
ak es</w>
tr o</w>
tr aff
pro vi
pp ing</w>
nation al
Pakist an
cle arly</w>
Bi har</w>
contin u
Wom an</w>
[O C
Jamm u</w>
. be
T ur
d y</w>
d ra
w ay.</w>
re aliz
al a
ac ts</w>
par ts</w>
ck er
ble .</w>
beli ev
Centr al</w>
Bri tish</w>
bigg est</w>
I IT</w>
O ut</w>
R ul
in si
at e.</w>
is es</w>
ch ance</w>
con vers
ed :</w>
ess ential</w>
Go a</w>
enc ed</w>
ign or
poll ution</w>
sci enti
Sour ce
A hmed
I S</w>
T R
T ech</w>
t el
it ely</w>
ur y</w>
ex cept</w>
he 's</w>
minist r
youtu .be
IF F</w>
R ail
d ?</w>
t ells</w>
ag ree</w>
are as</w>
gr and
ut ely</w>
indi atimes
min im
St ay</w>
inv estig
aff ect</w>
help ing</w>
produc ts</w>
/0 4
Wat ch</w>
techno logy</w>
5 6
L ast</w>
ar ies</w>
di sh
at -
le vel
end er</w>
res er
inter view</w>
stud ying</w>
r/ India</w>
uni versity</w>
Vir us</w>
politici ans</w>
employe es</w>
exac tly</w>
hotstar .com/
D ist
L aw
P aw
S av
k en</w>
k ill</w>
p age</w>
’ re</w>
st ation</w>
is m
do .</w>
An dh
Ch il
201 8
websit es</w>
Ti me</w>
imp act</w>
pi ec
reco gni
beha vi
(https://www. reddit.com/r/india/comments/
A no
H ou
L ate</w>
T hat
] (
f ine</w>
g er</w>
n or</w>
ag e
pro of</w>
con di
wor ked</w>
pre c
res ol
col l
Tr av
Offic ial</w>
png ?width=
png &auto=webp&s=
article /
&format= png&auto=webp&s=
INDI A</w>
4 0</w>
S in
i di
er ous</w>
re present
se qu
gr y</w>
inter n
Re public</w>
her e?</w>
commun ic
educ ated</w>
sig n</w>
bro ther</w>
discus sion</w>
bir th</w>
. indiatimes
G O
H im
M as
a v</w>
m er</w>
n y</w>
st ar</w>
st uck</w>
ad ly</w>
ap poin
ev ent</w>
bas ically</w>
cer tific
new s
dem and</w>
vic tim
Red dit</w>
Up dat
simp le</w>
vill age</w>
stit ute</w>
5 -
A I</w>
S ol
n ess
t elling</w>
si on.</w>
ps y
cre dit</w>
comp ared</w>
ank a</w>
rele ased</w>
The ir</w>
peti tion</w>
C har
R O
ul ar
et ing</w>
sit ting</w>
Sha h
air s</w>
Bha g
Doc um
ML A</w>
B re
F li
S at
f ile</w>
i ther</w>
re ve
en viron
de gree</w>
tr ust</w>
he av
pri ces</w>
ru pe
Be fore</w>
back .</w>
lap top</w>
GD P</w>
G et</w>
b ank
m ad
n .</w>
o -
em ail</w>
now ?</w>
dec ide</w>
sha red</w>
Li ve</w>
ish ed</w>
consi dering</w>
interest ing</w>
La w</w>
auti ful</w>
P P
P ow
m _
as -
In v
ing /
pl an
sec tion</w>
priv acy</w>
US A</w>
pay ment</w>
mee ting</w>
chann els</w>
Viol ence</w>
Face book</w>
Ano ther</w>
L E
P ers
T ab
U N
x ed</w>
ac hi
ag ing</w>
ter .</w>
we ar</w>
2020 .</w>
accoun ts</w>
incre as
TH E</w>
Det ails</w>
a head</w>
t emple</w>
u tion
u fac
y le</w>
be d
ex am</w>
test ed</w>
ann a</w>
issu ed</w>
ris k</w>
[OC ]</w>
8 6
: 15
J ai
N adu</w>
V o
on i
en se</w>
at en</w>
ing :</w>
Par t</w>
vis a</w>
hospit als</w>
resour ces</w>
youtu.be /
/ monthly_happiness_thread_randians_please_share_a/)</w>
3 2
K now</w>
L oc
S eri
am e
op position</w>
od ay
thin k
ide as</w>
elec tri
provid ed</w>
struc ture</w>
eas ily</w>
ju di
prac tic
( and</w>
= 1
I P
R BI</w>
T V
f ast</w>
h our</w>
p on
w ards</w>
स े</w>
in stitu
tr ack</w>
up on</w>
sec tor</w>
Tr ans
ot es</w>
Me dic
/0 3
mov ement</w>
absol utely</w>
sof tware</w>
g ri
p .</w>
y ond</w>
z z
li fe
ri ous</w>
ag ram</w>
https:// twitter.com/
sit es</w>
sel l</w>
Re ad</w>
offic er</w>
post ing</w>
resul t</w>
vol un
defin itely</w>
scen ari
choo se</w>
Netfli x</w>
3 )</w>
H u
b ag
i ed</w>
j ay</w>
k new</w>
m ask</w>
r d</w>
di e</w>
ev ents</w>
under standing</w>
suppor ting</w>
mit ted</w>
Anti- CAA</w>
Constitu tion</w>
F ree</w>
H O
S E
T E
c ateg
le ts</w>
mo s
ed ding</w>
pre fer
ear lier</w>
ra ised</w>
des er
requi red</w>
Dev el
Commit tee</w>
- -</w>
B us
M y
V P
g ro
j ected</w>
m i</w>
m and
it es</w>
un able</w>
tr ou
id es</w>
Ch an
stor y/
Inter national</w>
appreci ated.</w>
internet freedom
D ig
G ST</w>
M ake</w>
in ju
no te</w>
lo ad
ut m_
red .</w>
aren tly</w>
att ention</w>
ru le</w>
fun dam
Sec tion</w>
fail ed</w>
Tha cker
Yog i</w>
09 :15
relev ant</w>
09:15 AM</w>
J a
K a
a )</w>
on e's</w>
ri sh
is -
sh op</w>
bec ame</w>
str ation</w>
shi ps</w>
sec ular</w>
protest ors</w>
spe aking</w>
requ est
recomm end</w>
protec tion</w>
mom ent</w>
individ u
prev ent</w>
suic ide</w>
partic ular</w>
.gov .in/
Andh ra</w>
. google.com/
f our</w>
k ey
en s
st ore
di n</w>
indi an
all ing</w>
plac ed</w>
requ est</w>
recommend ations</w>
offici als</w>
treat ment</w>
yester day</w>
C ould</w>
W ell</w>
b att
l ation</w>
or .</w>
al le
ro te</w>
ab ly</w>
su me</w>
af for
cl u
Com mun
sch em
develop ed</w>
resul ts</w>
beg in
proper ty</w>
2 nd</w>
I IT
s an
w ouldn't</w>
ri ch</w>
sp i
and ing</w>
id s</w>
don ate</w>
ash ed</w>
star tu
Mar k
direc tly</w>
Can ada</w>
covid -19
8 5
B ud
r ying</w>
े ं</w>
as p
ri st</w>
ent er</w>
per f
201 8</w>
again .</w>
12 600
commun al</w>
ffic i
chall eng
Gen eral</w>
4 .
6 .</w>
C u
s em
al s.</w>
es tiv
ri es</w>
mo ved</w>
bas is</w>
exp ec
It ’s</w>
sour ces</w>
Gr ou
Pol l
Chri sti
refu ge
D emo
F re
p ain
r out
t able</w>
en ge</w>
ap er</w>
and ed</w>
per form
min orities</w>
str ali
ser ies</w>
ste ps</w>
ari an</w>
twit ter</w>
Le ad
Tech no
1 000</w>
C ar
E dit</w>
b us</w>
s n
th -
ti ps</w>
be tt
are s</w>
Re g
mis sion
hum an
add res
world .</w>
foc us</w>
.html )</w>
surve ill
/04 /2020|-|-|-|-|Hospitalized|
A T</w>
s li
t ation</w>
v ed
re search
or der
de l</w>
ol d
tu k
12 th</w>
tur al</w>
sol ution</w>
Be ing</w>
Au strali
custom er</w>
fiel d</w>
evid ence</w>
pkar t</w>
hotstar.com/ 12600
O ld</w>
S ri</w>
V E
p al</w>
s log
u g
st aff</w>
al ists</w>
is ing</w>
sh ouldn't</w>
mo ving</w>
ed s</w>
poli ce
har k
har m
app ed</w>
concer ned</w>
incid ent</w>
Parliam ent</w>
B udget</w>
K ore
b ill
c ow
e ating</w>
g ing</w>
p m
ar -
de d.</w>
con n
pl aying</w>
ang al
so li
te ach
dec l
elec om</w>
Modi ’s</w>
# #</w>
1 6</w>
4 )</w>
B ra
M ur
N ation
S tr
h our
m ass
t s
v ac
z ing</w>
re ality</w>
ti tle</w>
as tic</w>
ad y</w>
go tt
sur vey</w>
proble m
COVI D</w>
pic ture</w>
2019 .</w>
pass eng
stre et</w>
amaz on
Bhar at</w>
Publi c</w>
internetfreedom .in/
A .</w>
A m</w>
i -
u tr
ha b
es tic</w>
no t.</w>
ang ed</w>
fi ve</w>
out break</w>
fun ds</w>
sig n
buil t</w>
job .</w>
list en</w>
9 8
M S</w>
N a
P .</w>
S on
h ow
ac tive</w>
lo ws</w>
fe w
star ting</w>
Com p
thr ough
jus tice</w>
find ing</w>
1 7</w>
B hak
G e
H igh
I de
J hark
T al
h owever</w>
r ally</w>
t ment</w>
ar an
di tional</w>
Th ose</w>
com b
sh ed</w>
pe ace</w>
con sum
CA B
her .</w>
man ufac
Su gg
exp lo
respon sible</w>
notic ed</w>
A dit
f ill</w>
tr on
ir ing</w>
gu ide</w>
any body</w>
00 00</w>
sel ling</w>
loo ked</w>
stat ement</w>
Pro tec
app ing</w>
pos ing</w>
Li fe</w>
stor ies</w>
typ e</w>
B as
D em
n arr
y 's</w>
ar i</w>
us ers</w>
vi sion</w>
be .</w>
sp ent</w>
-- -</w>
](https://www. youtube.com/watch?v=
spec ial</w>
high est</w>
Wi th
sex ual</w>
applic ation</w>
F ull</w>
S ep
k -
k es</w>
t _
or dered</w>
ac ting</w>
si ster</w>
id .</w>
up date</w>
bo tt
fac e
fac ts</w>
ast er</w>
ser vic
red uc
down .</w>
lat est</w>
relation ship</w>
articleshow/ 7
oday .in/
5 7
6 9
B al
L ak
U R
a j</w>
k eep
m .
p /
r .</w>
s _
w are</w>
w rote</w>
di o</w>
ne y</w>
se ats</w>
ing ly</w>
** .</w>
pu ter</w>
sub reddit</w>
Pri v
hou se
wa iting</w>
lim ate</w>
speci fic
jud ge</w>
- 0
H on
O N</w>
s ou
est ab
hel l</w>
res h</w>
Am id</w>
te ac
app s</w>
19 9
rem ain</w>
fil m</w>
Shi v
scri be</w>
Air tel</w>
becom es</w>
centr al</w>
Ji o</w>
Reli gi
Fam ily</w>
traff ic</w>
A ff
D ay
L uc
a g</w>
g n
g es</w>
s tic
u n</w>
ar y.</w>
st o
di stri
li ghts</w>
tion -
gu ess</w>
co ver</w>
can ’t</w>
ant a</w>
Lo k</w>
hom e
government .</w>
deb ate</w>
5 00</w>
K un
O C
b anks</w>
e li
r c
v ation</w>
in king</w>
ha ar</w>
ro le</w>
as .</w>
In formation</w>
ag ue</w>
tion s?</w>
per spec
indi at
hel pl
tri es</w>
dec ad
ys is</w>
BJP 's</w>
nat ure</w>
individ ual</w>
colleg es</w>
famili es</w>
delhi -
H E
b ud
c ard
l er</w>
er j
ro ads</w>
vi ce
be yond</w>
str ong
att ack
des ign
Gu ys</w>
ob jec
Vi e
dri ve</w>
lak hs</w>
blo od</w>
peace ful</w>
Devel op
. )</w>
D eep
N E
d ge</w>
y r
ha v</w>
ad ver
se ts</w>
ex ec
coun ter
ful .</w>
viol ent</w>
viol ence
clo sed</w>
saf ety</w>
opini ons</w>
Vide o
Elec tion</w>
bul l
meas ures</w>
41. png?width=
symptom s</w>
Paw ar</w>
F r
M e</w>
S or
g ation</w>
r ing</w>
y m
th row
er :</w>
ex erc
sp ace</w>
af r
har ass
mar ks</w>
pres sure</w>
No id
cas h</w>
gener ation</w>
dri ve
rep ly</w>
long er</w>
correc t</w>
MB A</w>
3 rd</w>
A li
B ir
E ar
T ake</w>
U p</w>
c ode</w>
k ee
m ach
t v
w arn
y e</w>
an xi
ac ted</w>
vi li
ap pl
im prove</w>
St ates</w>
bo y</w>
mis sing</w>
19 8
month s.</w>
hear t</w>
stre am</w>
auth orities</w>
grow ing</w>
charg es</w>
song s</w>
separ ate</w>
. ”</w>
B l
H er</w>
s s
ar a</w>
ar ti
ac qu
us e
wh ite</w>
ag ar</w>
be at</w>
ation :</w>
chang es</w>
fa ir</w>
Par ty</w>
24 x
concer ns</w>
confir med</w>
RT I</w>
? **</w>
m ask
s ound</w>
s ani
ou s.</w>
fe els</w>
St ar
Mo vi
cle an</w>
hom es</w>
Pl us</w>
opini on
Hyder abad
Op ini
che ap</w>
NO T</w>
Dig ital</w>
) ?</w>
A D
L ink</w>
T est</w>
ad i</w>
se d.</w>
ing ing</w>
exp ected</w>
commun i
artic les</w>
Bi g</w>
ech an
opp ing</w>
mas sive</w>
Rul es</w>
Sep t
F ound</w>
I G
J ap
U .
d uty</w>
t ext</w>
v oc
ti red</w>
ation -
we 're</w>
rec ord</w>
aff ec
situ ation.</w>
14 4</w>
foo t
pas sport</w>
Ph one</w>
death s</w>
Tab ligh
3 1
6 8
I D</w>
P .
j a
k ha
n ice</w>
s on
re view</w>
di vid
ac adem
ex clusi
to .</w>
Go t</w>
form er</w>
inf ra
fa ul
2019 /
fore ign
conf used</w>
/status/ 120
democr ac
attemp t</w>
%2 F
.pdf )</w>
May be</w>
That 's</w>
]( http://
D r</w>
I L
s ick</w>
in e.</w>
par ti
tw eet</w>
every day</w>
ep is
cle an
ord in
val ue</w>
covid 19
fal se</w>
Ther e's</w>
Sci ence</w>
Ban erj
thous ands</w>
( [**
J an</w>
K ann
[ NP
u tt
क ी</w>
ar ch
wh ose</w>
lo an</w>
sh i</w>
be autiful</w>
ess enti
some times</w>
star ts</w>
bl ame</w>
bl ack</w>
won der</w>
det ained</w>
rap ed</w>
high ly</w>
sor ry</w>
Econom y</w>
alleg edly</w>
neg ative</w>
C ops</w>
J ama
L ist</w>
S po
g er
k ers</w>
s kills</w>
t ory</w>
u ti
x im
न े</w>
st an
ay a</w>
con vic
for ces</w>
tu re.</w>
ser ve</w>
Af gh
them ?</w>
tru th</w>
Eng ine
Kashmir i</w>
lockdown .</w>
FI R</w>
famil y.</w>
C ap
F ood</w>
H it</w>
I D
a ther</w>
g a</w>
h en
j an</w>
k an
s it</w>
ar am
st er
st aying</w>
do g</w>
tu re
ce l</w>
ren g
Po st</w>
sup er</w>
you th</w>
lin ks</w>
200 0</w>
lic k</w>
know .</w>
what s
I’ ve</w>
Bangal ore
mur der</w>
rest aur
shut down</w>
Inst agram</w>
6 7
A K
C orona
P opul
v acc
y ana</w>
at .</w>
is l
pre par
im pro
pos es</w>
amp ;
ext re
air port</w>
provid ing</w>
dri ving</w>
cap it
proc ess
Hospit al</w>
organ is
C am
H ope</w>
g ust</w>
o s
p ul
Th ey
is m.</w>
ab use</w>
con dition</w>
sp read
St re
gov t.</w>
lead er
dic t</w>
tow n</w>
conf id
dro p</w>
complain t</w>
mone y.</w>
invol ved</w>
Thacker ay</w>
covid-19 -
Demo cr
Adit yan
indiat oday.in/
. cm
d ur
f are</w>
h oo
r am
s ent
t .
ar y
st ore</w>
al ed</w>
at ure</w>
ing )</w>
gi ft</w>
sc am</w>
sec ular
Con gres
ass a
att acked</w>
loc ation</w>
pic tures</w>
watch ed</w>
logi es</w>
immigr ants</w>
gar h</w>
Rap e</w>
Week ly</w>
daugh ter</w>
7 .</w>
C ent
M ag
S us
T O
k id</w>
w earing</w>
sp or
est ing</w>
are ly</w>
fi g
str ai
tim es.</w>
Co vid</w>
CAA -
37 0</w>
tro l</w>
Cor por
propag anda</w>
.indiatimes .com/
Tabligh i</w>
2 1
2 3</w>
C A</w>
M il
a a
d y
s ).</w>
v ali
th ird</w>
an ist
us ual</w>
ri t</w>
sh ops</w>
su s</w>
ast er
Ex press</w>
kill ing</w>
prom o
du ce</w>
recei ve</w>
sugge sted</w>
insur ance</w>
Medic al</w>
. *</w>
B ur
P O
T L
V er
Y o
e di
t =
u k
w anna</w>
re vol
un employ
20 0</w>
ap ar
tion ?</w>
qu ali
poli cies</w>
ho li
comp ani
inf o</w>
Delhi :</w>
Ker al
respon si
seri ously</w>
pati ent</w>
Har yana</w>
visit ing</w>
Punj ab
Every one</w>
ok ay</w>
supp ly</w>
intro duc
.co m</w>
regist ered</w>
( or</w>
5 8
U dd
b loc
f it</w>
i m</w>
m b
n d
s ad</w>
am i</w>
pro ce
se em
me th
comm er
Am bed
reli ef</w>
auth or
cro res</w>
charg ed</w>
dom estic</w>
lig ence</w>
Afgh anist
I d
K ap
N az
f ying</w>
h ence</w>
m ing</w>
n e</w>
er o</w>
it er
ic es</w>
con ver
An ur
cre ating</w>
10 th</w>
Un der</w>
tor al</w>
includ e</w>
net work</w>
thre at</w>
sus p
sun g</w>
farm ers</w>
awa ited</w>
Euro pe
suffer ing</w>
prin ci
volun te
Bus iness</w>
Kun al</w>
Sept ember</w>
( which</w>
C M
W ant</w>
j e
k er</w>
t y.</w>
se d
ff er</w>
month .</w>
lead ing</w>
Twit ter
cho ice</w>
hon est
eff ect</w>
main tain</w>
und red
expen sive</w>
orig inal</w>
surveill ance</w>
Sor ry</w>
24x 7</w>
4 3
C ity</w>
E duc
L ef
P ho
f ra
f la
g .</w>
g am
g old</w>
p t</w>
r ates</w>
en ever</w>
li ght
ad ministr
mar k</w>
of india
mil k</w>
vo ted</w>
dri ver</w>
trans fer</w>
AN D</w>
sour ce
remo ve</w>
sus pend
Col le
Fri day</w>
larg est</w>
% 3
H indi
J un
M at
S econ
w ast
w edding</w>
en cour
si tive</w>
be fore
cl as
mar y</w>
fa ith</w>
fol ks</w>
Ass embly</w>
bel ong
thou ght
NRC .</w>
milli ons</w>
visit ed</w>
restric tions</w>
aut om
bann ed</w>
Protec tion</w>
drive .google.com/
[NP ]</w>
- of-
G ir
H ow
N umb
O b
P i
S ar
S ong</w>
h ood</w>
” .</w>
th anks</w>
am il
ab in
de ep
ver sit
ter ri
mo re
ed y</w>
for get</w>
sel y</w>
pri me</w>
pu ts</w>
att acks</w>
19 7
tiv ely</w>
clo th
Le g
times ofindia
exist ing</w>
progr amm
Thank s!</w>
S m
m ala</w>
o il</w>
s wee
र ्
st reng
at ed
as on</w>
lo ved</w>
con trib
end ra</w>
ple as
Sh ow
Pr o</w>
rel atives</w>
pur pose</w>
inform ed</w>
Ass am
adv ance</w>
nam es</w>
concer n</w>
Sun day</w>
argum ent</w>
immedi ately</w>
Mus ic</w>
Ahmed abad</w>
afr aid</w>
2 6</w>
B B
J ai</w>
R el
W el
th aram
st age</w>
al ?</w>
ac hal</w>
le f
com pe
be aten</w>
ne e
em ent.</w>
sp ending</w>
ear ning</w>
aj i</w>
cr u
ach es</w>
reg ular</w>
trav elling</w>
wal k</w>
Delhi 's</w>
tre ated</w>
Au gust</w>
health care</w>
Dr .</w>
respec tive</w>
versi ties</w>
distric t</w>
Techno logy</w>
( not</w>
2 8</w>
3 1</w>
6 4
B .
B a
E mp
G lobal</w>
L P
S C
S im
d ren
t in
y ed</w>
म ें</w>
er ial</w>
re a
as soci
am end
lo sing</w>
ing s.</w>
ex tra</w>
are .</w>
gr am</w>
aw aren
thin ks</w>
plac e.</w>
anc y</w>
anc ed</w>
experi ences</w>
does n’t</w>
sen ior</w>
stu ff
Im port
Amaz on
hon est</w>
musli m</w>
connec tion</w>
Nir bha
tol l</w>
campaig n</w>
Hist ory</w>
block ed</w>
psy cho
C al
D R
J ag
L ink
O ther</w>
R ev
c e.</w>
f illed</w>
l -
s er</w>
t an
u ce</w>
th y</w>
es .
Th ings</w>
tr ade</w>
mo b</w>
ang ing</w>
vir us
sch ed
fre sh
show ed</w>
Wor ld
Di rec
identi fy</w>
NC P</w>
dar k</w>
Thank s.</w>
emer gency</w>
ban king</w>
phys ical</w>
fundam ental</w>
keep ing</w>
Udd hav</w>
I R
b ing</w>
c raz
i f
j a</w>
re ci
al ity.</w>
ak e
con ven
mo del</w>
tim ate</w>
with draw
bi ke</w>
man age</w>
car ry</w>
Dec can</w>
chec ked</w>
back ground</w>
sal es</w>
answ ers</w>
%20 %
health y</w>
good .</w>
depres sion</w>
graph y</w>
opport unity</w>
fem ale</w>
teach ers</w>
Jhark hand</w>
undred s</w>
B en
C P
G ur
J av
S um
V E</w>
e th
i er</w>
l .</w>
t )</w>
er s?</w>
di dat
it ation</w>
el ines</w>
le t's</w>
lo ts</w>
do or</w>
pre fer</w>
Mo b
app lied</w>
Ac c
cul tural</w>
int en
Raj ya</w>
ran dom</w>
direc t</w>
ili ties</w>
follow ed</w>
IA S</w>
sle ep</w>
mod i</w>
Grou p</w>
C J
S he
V P</w>
V od
l ying</w>
m ail
w aste</w>
er g
on ds</w>
sh own</w>
ag end
su mp
fi gu
we ak
jo ining</w>
te gr
you ?</w>
pers ons</w>
De ath</w>
des cri
cu rious</w>
pic k</w>
see king</w>
tiv e.</w>
person ally</w>
dd en</w>
Si tharam
wher e
wrong .</w>
pursu e</w>
convers ation</w>
Source :</w>
2 7</w>
6 0</w>
S ee
b illion</w>
c ore</w>
j ail</w>
s ](https://www.
t al</w>
u tions</w>
न ा
ti ve
at least</w>
ad op
me ?</w>
me ant</w>
par liam
gu y
jo ined</w>
br and</w>
pr o</w>
stat e.</w>
fu n</w>
ob viously</w>
det ention</w>
Maharash tra
appro ach</w>
tech n
TH E
camp us</w>
Sour ce</w>
manag ement</w>
Cl ass</w>
Econom ic</w>
wel come</w>
him self</w>
Aad haar</w>
effor ts</w>
hr u</w>
twee ts</w>
Sho t</w>
Chand r
gott en</w>
amazon .in/
L O
L ad
b ad
b and
c ow</w>
e _
e ’s</w>
e dit
l i</w>
n ing.</w>
q =
r ant</w>
w on</w>
w is
on e-
ti er</w>
st op
di v
it ems</w>
lo ss</w>
ud din</w>
indi c
mon it
pp er</w>
we b</w>
fac ed</w>
off ers</w>
Tr u
cour ses</w>
migr ant</w>
del hi</w>
mess ages</w>
val u
Shar ma</w>
fav our
/status/12 3
leav ing</w>
Ger many</w>
Ye ar</w>
Fli pkart</w>
A gr
B ack
C are
D ue</w>
T emple</w>
U N</w>
f ar
f le
g ain</w>
j ay
k m</w>
n ers</w>
o l</w>
p il
s low</w>
ar ing</w>
ag no
ne utr
pro jec
hi r</w>
201 7</w>
br ain
tal ks</w>
doc tor
Ex plain
COVID 19</w>
spe ech
ey es</w>
conf er
claim ed</w>
Loo k</w>
kind a</w>
plat form</w>
== ==
[P ]</w>
pot ential</w>
Jama at</w>
N ever</w>
P ur
T ele
W on
c aught</w>
f ound
p ha
s **</w>
t ack
z ation</w>
en ough
com par
ne ither</w>
qu e
im posed</w>
vir al</w>
Ne hru</w>
spe ed</w>
ext en
see k</w>
hop ing</w>
conf lic
nam ed</w>
Nir mala</w>
Gre at</w>
Dal it</w>
sani tiz
B omb
M ade</w>
M eet</w>
P ay</w>
s ale</w>
th ro
st ock</w>
ha ps</w>
In d
pro -
pro jects</w>
ap s</w>
ent ed</w>
pl us</w>
fe ed</w>
so .</w>
any thing.</w>
ash ing</w>
hat i</w>
can didat
Ac cording</w>
alis ed</w>
Un ited</w>
stre ets</w>
deli vered</w>
bur ning</w>
suppor ters</w>
Rec ently</w>
identi ty</w>
Can 't</w>
dist ancing</w>
constitu tional</w>
Hindu ism</w>
centr e</w>
Asi an</w>
effor t</w>
signific ant</w>
hus band</w>
hous es</w>
piec e</w>
kee ps</w>
) "</w>
2 /
B ack</w>
J ob
K al
f estiv
j un
n av
p el
s ?
s old</w>
t ele
u l</w>
th o
th ank</w>
li v
In stead</w>
un less</w>
oun d.</w>
im ages</w>
min ority</w>
some how</w>
Re action</w>
cre di
Tr ump
De c</w>
On ce</w>
econom ic
fa ir
stu dies</w>
top ic</w>
Amend ment
Ques tion</w>
corrup tion</w>
Hou se</w>
fig ure</w>
Afghanist an</w>
0 4
7 7
C he
G od</w>
O R</w>
S top</w>
Y ear
c ant</w>
c ast</w>
c ards</w>
e !</w>
p s.</w>
t uring</w>
w estern</w>
on y</w>
it -
el se
ac cur
Th ou
sh ould
ag o.</w>
si x</w>
tt ed</w>
um s</w>
tion ally</w>
hel ps</w>
co sts</w>
all ed</w>
ash es</w>
pu tting</w>
dr u
De f
As k
offic ers</w>
govern ments</w>
tar ge
hur t</w>
musli ms</w>
syst ems</w>
enjo y</w>
increas ing</w>
Australi a</w>
estab lish
Luc know</w>
abin et</w>
A jit</w>
M aj
m echan
s ;</w>
il leg
ri ot
le -
is c
com e.</w>
ne ar
pl ain</w>
cl ari
co ver
str ateg
fam ous</w>
issu e.</w>
won ’t</w>
trav eling</w>
requ ire</w>
priv ile
bro ad
tou ch</w>
Bengal uru
nat ural</w>
tot ally</w>
imgur.com/ a/
crow d</w>
WH O</w>
Kam ra</w>
dang erous</w>
purcha se</w>
=1 &
gro cer
0 3
G ang
H A
J ud
R et
T ot
U se</w>
g y
k h
स ्
ा र</w>
re ached</w>
st om
st ood</w>
ha d
de v
de ter
ang er</w>
India )</w>
Ch ann
ve get
No tification</w>
cri me</w>
cri tical</w>
who m</w>
bor der</w>
cap ital</w>
Stud ent</w>
plann ed</w>
Whats app</w>
constitu tion</w>
announ ced</w>
bal ance</w>
has n't</w>
Regi ster</w>
++ ++
corpor ate</w>
inju red</w>
individu als</w>
6 5
8 9
F R
I tal
J ourn
M ish
c ell</w>
k o</w>
m ann
p =
t aught</w>
~ ~
an t.</w>
er s-
ar gu
en -
ac t
ac cid
tion :</w>
An al
sc ale</w>
te ach</w>
lin ked</w>
bi ased</w>
new sp
fun d
remo ved</w>
bir th
gradu ate</w>
implement ed</w>
class es</w>
moder n</w>
affor d</w>
Noid a</w>
infra structure</w>
Colle ge</w>
3 00</w>
P ati
T hak
c od
s ort
w er
in a</w>
an ted</w>
re ven
ti m</w>
ti fied</w>
ha ir</w>
de gre
si de.</w>
se at</w>
tu red</w>
any where</w>
ther 's</w>
cro s
hol ding</w>
announ c
jpg ?width=
prep ared</w>
construc tion</w>
Jai pur</w>
S O
Y ad
f ast
g ender</w>
j our
n u
p jpg
th an
er )</w>
re view
ab out
com fort
ver se</w>
do -
coun t</w>
co ff
201 4</w>
under stand
2020 :</w>
stand ard</w>
countr y?</w>
indu stri
char ac
laun ched</w>
liber al</w>
&format= pjpg
Mal ay
conv ince</w>
swit ch</w>
dra w</w>
&format=pjpg &auto=webp&s=
I N</w>
W in
ि य
on ym
re lease</w>
de mon
tr ain
tr ack
pre dic
some where</w>
ill s</w>
ser ved</w>
fir m</w>
ni ght
red uce</w>
Poli tical</w>
Com ment</w>
fre qu
Qu arant
Gov t.</w>
sam e.</w>
leav es</w>
imag ine</w>
fortun ately</w>
societ y.</w>
Vod af
& q
5 th</w>
b unch</w>
d in
m umb
v ent</w>
on ?</w>
it a</w>
el y.</w>
do gs</w>
con tr
ci l</w>
ent ary</w>
gr ound
ill -
Me an
that ?</w>
ext ended</w>
ref used</w>
fuc ked</w>
regi on</w>
migr ants</w>
Se e</w>
CAA /
democr atic</w>
finan ci
cam era</w>
open ed</w>
i. imgur.com/
expres s.com/
AB VP</w>
lawy er</w>
doub t</w>
minim um</w>
scenari o</w>
comfort able</w>
5 )</w>
8 .
? q=
I M</w>
M am
S ad
c up
c orona
c ous
d um
g in
i an</w>
y o</w>
al o
ri d
po d
sh ou
sh el
av ing</w>
vir us.</w>
tu al</w>
comm is
fe el
fi es</w>
min s</w>
ath y</w>
Un der
fre el
regi ster</w>
hy po
Her ald</w>
other .</w>
Some one</w>
rais ing</w>
prep are</w>
Hot star
environ ment</w>
rupe es</w>
specific ally</w>
! !
. in</w>
0 7
5 9
M O
M C</w>
N L</w>
T re
b od
k o
p ath</w>
y o
re views</w>
st yle</w>
li ve
po ver
con sequ
sp on
tion ing</w>
dat ing</w>
mat ters</w>
lead s</w>
Lo ve</w>
Ci vil</w>
vo ting</w>
chil dh
cir c
lawy ers</w>
isol ation</w>
altern ative</w>
communi ties</w>
Banerj ee</w>
strai ght</w>
Mob ile</w>
A P
C S</w>
J e
M and
M r.</w>
a ’s</w>
b s</w>
p is
p ush
t end</w>
र ा
in ated</w>
ar o
ar my</w>
op ho
pro gres
mo tiv
ex act</w>
ci vili
gr ad
Re view</w>
religi ons</w>
ven tion</w>
equ i
equ ip
ca used</w>
spo t</w>
%20 OR
resid ents</w>
argum ents</w>
fru str
awaren ess</w>
%20% 40
%20OR %20%40
5 .
A P</w>
D ri
F ake</w>
M un
S E</w>
S el
S ay</w>
S pec
U T
a .
m ale</w>
s ](https://
t ed
an gry</w>
on s.</w>
ha ts</w>
li ved</w>
ac es</w>
ri c</w>
ad vis
hat red</w>
br inging</w>
pr oud</w>
la h</w>
Al though</w>
tal ked</w>
chang ing</w>
bre aking</w>
who 's</w>
Pri y
my self.</w>
aliz ed</w>
incre ased</w>
Stud y</w>
den ied</w>
pho to</w>
enter ed</w>
thing s.</w>
dish a</w>
teac her</w>
Vie w</w>
Kap il</w>
C ases</w>
M or
M ic
U C
k it
l ay
w age</w>
y !</w>
th es
in em
in ely</w>
ou d
ter ror</w>
wor ry</w>
ess or</w>
mar ch</w>
enti lat
bi go
reli able</w>
Pr as
sub ject</w>
cha in</w>
stri ke</w>
experi enced</w>
sol ve</w>
int el
CAA .</w>
Jo h
own ers</w>
ML As</w>
tick ets</w>
Sch ool</w>
Is su
cit y/
crimin al</w>
Pow er</w>
whats app</w>
Nirbha ya</w>
D ar
E S</w>
F ol
G P
f b
f ail</w>
n one</w>
p -
y et.</w>
ो ं</w>
er /
re jected</w>
al li
it y?</w>
no body</w>
le n</w>
ati sh</w>
sh it.</w>
pre -
tic ally</w>
ref =
2019 :</w>
possi ble.</w>
Don ald</w>
claim ing</w>
ence ?</w>
ick en</w>
Fin ally</w>
benef it</w>
event ually</w>
achi ev
/ view
2 9</w>
B I
C R
C y
M angal
P ak</w>
T ra
d en</w>
j id</w>
m ar</w>
u tive</w>
~ ~</w>
re ment</w>
or a</w>
al /
al er
am ed</w>
de d
tr ains</w>
ter s.</w>
co t
201 7
red di
Su per
mil itary</w>
ish es</w>
help ed</w>
bro ken</w>
fut ure.</w>
Tu k</w>
den ly</w>
manag ed</w>
Fin ance</w>
Muslim s.</w>
Sin gh
Adityan ath</w>
bloc king</w>
Sitharam an</w>
E D</w>
P ul
S BI</w>
_ 1
b row
c on</w>
c ity.</w>
f resh</w>
n ur
r um
s in
en 's</w>
st ones</w>
be l</w>
ind ly</w>
up load
inter view
cont ext</w>
att end</w>
mis s</w>
lock ed</w>
19 4
Ma hat
fil e/
ign ore</w>
Fe b</w>
sle ep
from -
immedi ate</w>
pack age</w>
independ ent</w>
dise ase</w>
power ful</w>
communic ation</w>
&q id=
C BS
E V
L ab
O F</w>
S S
S k
T O</w>
b ar</w>
c limate</w>
e .
n i</w>
x y
म ा
an ci
or ing</w>
or ds</w>
al co
al though</w>
as hi
lo g</w>
Th ree</w>
ap art</w>
pl astic</w>
to il
ut ing</w>
ho t</w>
fac es</w>
cr ack
app arently</w>
des ign</w>
know ing</w>
pec ts</w>
tru ly</w>
add ed</w>
Hel p
dig ar
tar get</w>
imple ment</w>
Mumbai :</w>
ret ary</w>
Spe ak</w>
photo s</w>
Ser vices</w>
hor ri
Rem ember</w>
Kan hai
vehic le</w>
fasc ist</w>
ED IT
victim s</w>
indian express.com/
CJ I</w>
- for-
C le
L Y</w>
M em
W estern</w>
b lock</w>
e b
g as</w>
l ady</w>
m ir
m ail</w>
o red</w>
t s?</w>
w ake</w>
व ा
ह ै</w>
ti es
ar ak
ro ad.</w>
ne y
pro por
sp r
pl om
me tro</w>
fe e</w>
we ird</w>
off ered</w>
Pro f
protest s.</w>
nation s</w>
ide o
ide ology</w>
As k</w>
[https:// twitter.com/
Ad vice</w>
chec k
proc ed
ga on</w>
prof ile</w>
scre en</w>
pen sion</w>
Cur ren
Pan dem
bigg er</w>
const antly</w>
Dist ric
Law y
Seri ous
ffici ent</w>
appl ying</w>
timesofindia .indiatimes.com/
7 4
J ay
K ha
L ist
O disha</w>
P ress</w>
R us
W ar</w>
p ast
w ali
क र
al ty</w>
ol s</w>
ak s</w>
pe t</w>
con dem
gr ade</w>
201 6</w>
Go go
cr yp
every where</w>
De ar</w>
ly n
tre at</w>
bro ke</w>
dre am</w>
Covid -19
repor ting</w>
adv ant
ship .</w>
Kejri wal
cir cul
्य ा
accep ted</w>
d/ 1
persec ution</w>
smar t
Islam ic</w>
transp aren
Rail ways</w>
heav y</w>
batt le</w>
Import ant</w>
Priy anka</w>
1 :</w>
3 00
6 )</w>
= new
S il
W a
_ in
a to</w>
b y
b arely</w>
f an</w>
g hal
k ashm
s atis
on going</w>
us p=
the hindu
com puter</w>
po sit
ter y</w>
ex clud
ci ary</w>
qu it</w>
qu ick</w>
to x
por n</w>
mis sed</w>
cas e:</w>
gre w</w>
vic tim</w>
sm all
car rying</w>
mark et
Man ag
Eng lish
Jo in</w>
manag er</w>
amaz ing</w>
amaz on</w>
Mumbai .</w>
infec tion</w>
canc elled</w>
collec tion</w>
mast ers</w>
gan g</w>
Hum an</w>
profession al</w>
Lef t</w>
Job s</w>
G op
S P
T ik
v ul
न ा</w>
in tegr
on e?</w>
ha z
ri ght.</w>
be ating</w>
tt on</w>
ent s.</w>
hi c</w>
qu ar
any more.</w>
ho l</w>
ho tel</w>
St ory</w>
Ar n
pr adesh
now ledge</w>
of _
cri tici
ot a</w>
sub mit</w>
amp /
publi shed</w>
fil es/
dem ands</w>
accoun t.</w>
ca using</w>
Isl am</w>
prac tice</w>
terror ist</w>
ric s</w>
today 's</w>
link **](https://
Sam sung</w>
anal y
strugg le</w>
opport uni
ND TV</w>
YO U</w>
Mi gr
mos que</w>
Chan digar
Aff airs</w>
perspec tive</w>
suspend ed</w>
compe t
D N
D O
F ar
M en</w>
S r
T ou
h il
s ac
s ession</w>
v and
st ?</w>
di r
is tic</w>
su d
ul ts</w>
ex press</w>
up dated</w>
bu tion</w>
medi um
Pro duc
des per
down s</w>
fr ame
sol di
possi bly</w>
car s</w>
poll s</w>
ei ther.</w>
dist ance</w>
other wise</w>
Tod ay
Doc tors</w>
incid ents</w>
fav or
2- 3</w>
survi ve</w>
genu ine</w>
coll ect</w>
certific ate</w>
Sugg es
( in</w>
. 0
A C</w>
D ub
E E</w>
K eep</w>
K rish
N ext</w>
O ver
S mar
T wee
W ar
_ _
d a
g row</w>
h .</w>
k er
p ain</w>
p ush</w>
s ounds</w>
t v</w>
t on</w>
z ero</w>
प ्र
an 's</w>
en forc
es day</w>
ri sts</w>
In du
the ast</w>
ak ed</w>
ul ed</w>
ps e</w>
India ]</w>
aw ay.</w>
har m</w>
min or</w>
sti c</w>
tri gg
shi f
sec re
sid es</w>
you !</w>
cas e.</w>
did n’t</w>
Wor k</w>
provid es</w>
ey e</w>
consi der
dam age</w>
docum ent</w>
Bo th</w>
contro ll
lab our
100 %</w>
scen e</w>
cop y</w>
progr am</w>
activi ties</w>
्य ा</w>
disp l
realis e</w>
begin ning</w>
/04/2020|-|-|-|-|Hospitalized| Details</w>
Popul ation</w>
Anur ag</w>
drive.google.com/ file/
Lad ak
) :</w>
? )</w>
? usp=
B aj
D har
E mer
M illi
P I
a the
g ang
i Phone</w>
m in</w>
en try</w>
or s.</w>
ri er</w>
com for
tr aining</w>
se tting</w>
od s</w>
qu ick
ear ch</w>
India -
cl in
fi x</w>
Re qu
br an
Com mission</w>
religi on.</w>
fil es</w>
experi ence.</w>
bus es</w>
trav el
wal king</w>
reddit.com/r/india/ search
Au th
appe ar</w>
beg in</w>
restric t_
effec tive</w>
Vis it</w>
commit ted</w>
rail way</w>
guid elines</w>
genu inely</w>
perf ect</w>
refuge es</w>
decl ared</w>
sort =new
Kanhai ya</w>
restrict_ sr
& utm_
- and-
C ard</w>
H us
I r
M ust</w>
N T
O k
f alls</w>
g ate</w>
g ames</w>
h o</w>
m ic
s ending</w>
v a
w il
z am
क ्
in do
re fund</w>
om ato</w>
li e</w>
ic ip
de fe
pro posed</w>
ex ist</w>
our selves</w>
bo ard
Re al</w>
form ed</w>
Ar re
No te</w>
protest .</w>
sur g
rem ains</w>
post .</w>
down load</w>
friend ly</w>
pic al</w>
help ful</w>
uni versities</w>
fli ghts</w>
rul ing</w>
For mer</w>
musli m
right ?</w>
wher e.</w>
partic ul
41. jpg?width=
brut ality</w>
7 0</w>
C amp
F l
G an
M ast
M ani
N ar
T ata</w>
V ill
Y et</w>
c d
c ks</w>
ज ा
en cies</w>
es ome</w>
es tim
ac ity</w>
us er</w>
is n’t</w>
si a</w>
ol der</w>
su ffer</w>
** :</w>
ess ed</w>
can cel</w>
De partment</w>
tur ns</w>
ly ?</w>
rel ati
fa ult</w>
cu ts</w>
Dis cor
ish ing</w>
2019 -
2019 )</w>
sig ned</w>
priv ac
Bi har
appro pri
Ro ad</w>
other s.</w>
Red dit
Up date</w>
dar ity</w>
find s</w>
Ta x</w>
updat es</w>
colleg e.</w>
anal ysis</w>
bhak ts</w>
surpri sed</w>
feed back</w>
success ful</w>
face book
CAA- NRC</w>
Ambed kar</w>
Educ ation</w>
techn ical</w>
3 5</w>
8 0</w>
C elebr
D M</w>
N on-
s qu
y al</w>
di agno
it arian</w>
no -
ab ad.</w>
de mone
sh op
ch em
su st
for .</w>
ev ening</w>
"" Tuk</w>
fe es</w>
au di
cont ain</w>
](https://www. amazon.in/
Poli tics</w>
ath i</w>
mp i
Qu int</w>
pan ic</w>
Protest ers</w>
identi fied</w>
hol ds</w>
Mu k
Every thing</w>
Aad har</w>
Ger man</w>
benef its</w>
persec uted</w>
deal ing</w>
resol ution</w>
Lead er</w>
tuk ?""</w>
exerc ise</w>
extre me</w>
conven i
Tot al</w>
Hotstar !</w>
0 1
5 %</w>
A fri
C all</w>
D own
F ur
P aren
S of
b log
c old</w>
f -
j p</w>
n ar
r ural</w>
t ag
t s:</w>
u d</w>
v ement</w>
क ो</w>
ह ै
th row</w>
on es.</w>
is on</w>
de partment</w>
go .</w>
oo d
gi f
end .</w>
ra pe
min ut
we ap
wi gg
br ands</w>
pr ay
gg ing</w>
low ing</w>
nation wide</w>
chil dren
saf e
person nel</w>
Don ’t</w>
girl friend</w>
cy cle</w>
goog le</w>
scre en
cam er
great er</w>
Ques tions</w>
not es</w>
advi ce
independ ence</w>
Ju ly</w>
Trav el</w>
appoin ted</w>
Develop ment</w>
epis ode</w>
circ um
Curren tly</w>
' t.</w>
A G
A h
A )</w>
H ad</w>
H oli</w>
M ir
O T
P F</w>
S to
S till</w>
V ery</w>
a ad
c r</w>
c ool</w>
o es</w>
— —
re sident</w>
st al
di cul
es cap
li qu
wh enever</w>
the _
op pose</w>
po ll</w>
de ad
wit ness
oun ding</w>
20 00
pre hen
por ting</w>
An n
An dro
gu il
co p</w>
bo x</w>
boo king</w>
cri cket</w>
cer tain
inv est</w>
Dis ney
see ks</w>
JN U
Fir e</w>
Sec urity</w>
We 're</w>
retur ned</w>
Americ a</w>
tem por
tick et</w>
journ alist</w>
journ alists</w>
Hot star</w>
recogni tion</w>
Bra h
prepar ing</w>
8 7
9 7
S ou
S how</w>
S uch</w>
U L
U ber</w>
Y ears</w>
b es</w>
b ase</w>
c king</w>
n on
s !
v ed.</w>
an onym
on :</w>
In depend
le /
am p</w>
am ong
po or
sh e
su red</w>
go d</w>
se ?</w>
por ted</w>
sc oo
** **
we ight</w>
ve ?</w>
medi a.</w>
tw ice</w>
cur few</w>
india .</w>
19 5
new s.</w>
tiv ity</w>
gener ally</w>
pass es</w>
ris m</w>
list ening</w>
Mon ey</w>
fail ure</w>
Ri ghts</w>
celebr ate</w>
Nag ar</w>
scrip tion</w>
onlin e.</w>
realiz ed</w>
Him achal</w>
Pers onal</w>
passeng ers</w>
spor ts</w>
Europe an</w>
Bomb ay</w>
1 %</w>
B ill
F asc
L ord</w>
O ne
R est
S ud
T l
U s</w>
V alle
Y ester
[ Ask
a un
b ra
d p/
h u</w>
t ough</w>
u tion.</w>
क ा
th i</w>
th ank
an o
al ing</w>
In stitute</w>
Th r
de -
ch ose</w>
go ons</w>
mo han</w>
An im
we al
pu ri
ass es</w>
ass embly</w>
comp ens
mis sions</w>
ali ve</w>
ques tion.</w>
ru it
disc over
mat eri
Pe ti
india/ story/
comple ted</w>
stric t</w>
trans fer
regi stration</w>
Pl ann
youtu be</w>
dro pped</w>
We b
Ag ain</w>
Sub scribe</w>
Asi a</w>
CC TV</w>
Sik h</w>
institu tions</w>
.cm s)</w>
seem ed</w>
honest ly</w>
clas si
erg y</w>
Arn ab</w>
sud denly</w>
2 :</w>
6 .
B ro
F ad
F arm
K u
K .</w>
M id
S ang
U T</w>
[ News
c lick</w>
n om
s (
t m</w>
y an</w>
y as</w>
th i
an ti
en em
it u
it able</w>
le tt
am b
lo s
sh u
pre mi
im possible</w>
ail ed</w>
up coming</w>
sel ec
ther n</w>
sec ure</w>
pres sed</w>
dis gu
elec tron
bl ack
Pakist an.</w>
countri es.</w>
interest s</w>
mark eting</w>
grap h</w>
arre st</w>
So ci
chan ces</w>
sist ance</w>
i. e.</w>
San gh
chann el
Is ra
tren d</w>
exper ts</w>
discrimin ation</w>
Fil m</w>
MP s</w>
deser ve</w>
through out</w>
Bas ically</w>
nd tv
Vodaf one</w>
Disney +</w>
6 -
B ell</w>
C .</w>
G row
P D
R O</w>
R av
b all</w>
f ing
h ire</w>
h undreds</w>
k har</w>
r ou
s kill
v i</w>
स ा
ar ity</w>
ar ily</w>
st ated</w>
st ori
at :</w>
as i</w>
as ha
ri g
wh y?</w>
ad mitted</w>
si ze</w>
pre ad</w>
sc amm
ve :</w>
ig no
off .</w>
off ering</w>
dec ade</w>
ste l</w>
tur ning</w>
pic i
inform ation.</w>
hop e
produc tion</w>
trans mission</w>
maj or
50 %</w>
bel ow
tou rist</w>
cent er</w>
requi res</w>
IC M
AR E</w>
pap ers</w>
Cur rent</w>
neigh bor
chall enge</w>
slow down</w>
plat forms</w>
anim als</w>
Mas jid</w>
Bhag at</w>
store s</w>
bett er.</w>
Movi e</w>
vali d</w>
cloth es</w>
Ital y</w>
Pras ad</w>
Mahat ma</w>
CBS E</w>
( Amendment
8 )</w>
A F
A Y</w>
B hop
C H
H D</w>
H it
N I
T elecom</w>
_ of_
c ould
e =
h its</w>
k its</w>
l ast
l augh
n ut
t ’s</w>
an s.</w>
di str
no te
ur ge</w>
am -
pro pos
con trac
ed )</w>
ul ty</w>
ex emp
per cent
gu n</w>
pri or</w>
Go ing</w>
fac ilities</w>
ig ned</w>
sup port
Al leg
dat ab
with .</w>
pers on.</w>
De p
curren cy</w>
mat erial</w>
1. htm
lim it</w>
AN I</w>
arm ed</w>
Jo b</w>
appe al</w>
Doc tor</w>
App le</w>
BS NL</w>
Cri cket</w>
tax es</w>
conduc t</w>
business es</w>
polic em
modi -
trou ble</w>
startu p</w>
conn ect</w>
decad es</w>
Numb er</w>
Spec ial</w>
[News ]</w>
% .</w>
5 00
9 5</w>
B ar
C ode</w>
D M
E M
F uck</w>
H al
I con</w>
R ag
R ash
c hat</w>
d ol
s ki
t ex
w ant
w ould
th ing?</w>
st ers</w>
es '</w>
li sted</w>
us ed.</w>
po site</w>
de faul
per mission</w>
An ti</w>
sc ore</w>
min ute</w>
cont ent
pres sion</w>
ment s.</w>
Pro ble
No thing</w>
you 'll</w>
comp any
](https://www. reddit.com/
pow er.</w>
cep tion</w>
ob vious</w>
bus y</w>
devel op</w>
pass ing</w>
mor al</w>
deli ver
dist ur
BJP .</w>
jus tify</w>
hind i</w>
succ ess</w>
rais es</w>
conduc ted</w>
histor ical</w>
Hist or
](https://www.reddit.com/r/india/comments/ d
shit ty</w>
national /
condi tions</w>
sump tion</w>
economic times
Chann el.</w>
0 6
: -</w>
C T
C en
J EE</w>
L y
N GO
O w
S et
r s</w>
r ant
r ank
v entilat
z e
त ्
er n
re gre
st atis
ha ck
di r</w>
ro g
ri de</w>
Indi ans
am y</w>
is :</w>
the at
ne arly</w>
id ing</w>
are tt
tu p</w>
cl es</w>
bo ards</w>
mar ry</w>
cr aft</w>
dr inking</w>
](https://www. hotstar.com/12600
](https://www. indiatoday.in/
bi o
ath s</w>
IN R</w>
hum ans</w>
stre aming</w>
Res pon
bur n</w>
equ al</w>
speci ally</w>
[https://www. hotstar.com/12600
11 /
Elec tri
Elec toral</w>
quarant ined</w>
arr anged</w>
lab or
toge ther.</w>
Bangl ades
laun ch</w>
tit ude</w>
ba g</w>
Cont act</w>
neighb our
cen sor
Ter ror
COVID-19 :</w>
realiz e</w>
Fre e
slog ans</w>
Thak ur</w>
Mean while</w>
pover ty</w>
. I</w>
4 1
8 .</w>
B S</w>
P AN</w>
R ele
b ac
g lo
k e.</w>
s outh</w>
re ti
at trac
In f
no .</w>
sh ir
con serv
ed ing</w>
don e.</w>
gu ys
-1 0
wee k.</w>
sol utions</w>
hand ling</w>
dic t
uni que</w>
saf e.</w>
law .</w>
fl u
eas ier</w>
contin ues</w>
Goo d
was h</w>
tis m</w>
Air port</w>
sav ings</w>
mu ch.</w>
Coun try</w>
To k</w>
San jay</w>
Utt arak
Des pite</w>
citizenship .</w>
prec au
Docum ents</w>
Sat ur
schem e</w>
apar tment</w>
Care er</w>
nav is</w>
near by</w>
vul ner
opportuni ties</w>
0 2
4 5</w>
A Q
C er
E -
G ho
S tu
S et</w>
V ic
[ Serious
b al</w>
c ut
l on
p a</w>
s a</w>
v an
v otes</w>
st ance</w>
al ity
it ting</w>
it y-
il ity.</w>
ri ce</w>
ri ot</w>
Th aro
do w</w>
id st</w>
we ak</w>
sel ves.</w>
pri c
ell ec
dr af
sha n</w>
bi li
cas i
az e
work er</w>
sig ns</w>
stu died</w>
war a</w>
deli ver</w>
ik a</w>
ool s</w>
Op en</w>
government 's</w>
main ly</w>
.htm l</w>
Heal th
na hi</w>
open ly</w>
terror ists</w>
Ni zam
implement ation</w>
gather ing</w>
violence :</w>
Engine ering</w>
enough .</w>
Mam ata</w>
Yester day</w>
3 1st</w>
4 8</w>
5 000</w>
A Y
C ul
C abinet</w>
F ight</w>
G ul
H ear
P res
U R</w>
c o</w>
d =
k h</w>
m al</w>
p ed</w>
r ace</w>
s ...</w>
क ा</w>
in sul
ar gue</w>
ro ll</w>
el der
ag u
pe trol</w>
se ason</w>
con sci
ent -
ud i</w>
all -
hat tis
lin d</w>
Ma hab
Sh ri</w>
issu es.</w>
12 /
Me tro</w>
minist ers</w>
direc tion</w>
dam n</w>
You tu
contro versi
BJP ’s</w>
11 th</w>
run s</w>
own er</w>
fav our</w>
play ed</w>
Gi ve</w>
politici an</w>
emer gen
tol er
strugg ling</w>
Euro pe</w>
distri b
anxi ety</w>
administr ation</w>
candidat es</w>
indianexpress.com/ article/
?usp= shar
Valle y</w>
Fad navis</w>
7 -
A R</w>
B E
D I</w>
F ound
H R
M ul
O L
T rail
e ""</w>
h -
h ec
p ing</w>
t s/
t elecom</w>
u pper</w>
v end
ह ा
ह ी</w>
er ’s</w>
re sc
di c</w>
li ked</w>
con cept</w>
ter ed</w>
est s</w>
India !</w>
ra p</w>
str ang
Re f
shi ft</w>
No bel</w>
dr aft</w>
plac ement</w>
cas es-
sur r
new s-
Ex clusi
IN G
accoun tab
Modi -
hou se.</w>
pend ing</w>
includ ed</w>
appro ved</w>
prom ise</w>
beg an</w>
sever e</w>
Hindu st
expl an
proper ly</w>
sil ent</w>
mist ake</w>
vehic les</w>
Indian s.</w>
Fore ign</w>
think ?</w>
conn ected</w>
Ide a</w>
narr ative</w>
Democr acy</w>
Secon d</w>
contrib ute</w>
tack le</w>
Joh n</w>
among st</w>
9 4
D S</w>
D ays</w>
H op
H ence</w>
I l
T N</w>
a _
d ying</w>
h is
k il
m its</w>
p al
s ab
v ent
व ि
en ?</w>
as sume</w>
no t-
le d.</w>
ati ve.</w>
wh el
ad mission</w>
po l
de part
un cle</w>
tt a</w>
pre sident</w>
https:// youtu.be/
ow ned</w>
cl apping</w>
ple a</w>
bo om
bo dies</w>
dr y</w>
out break
ank ar</w>
elec tions.</w>
chang e.</w>
fil m
dem anding</w>
rap es</w>
ref use</w>
vic e.</w>
high -
Im ran</w>
Man mohan</w>
medic ine</w>
NP R
adv oc
Jan ata</w>
good s</w>
Wat er</w>
hind u</w>
immigr ation</w>
Sik hs</w>
%2 C
mean ing</w>
system .</w>
Jap an</w>
([** link**](https://
source =
agend a</w>
strateg y</w>
childh ood</w>
Pandem ic</w>
favor ite</w>
(Amendment )</w>
( the</w>
* .</w>
5 4
: 00</w>
G ate</w>
I .</w>
M r</w>
N adu
P L
P as
V aran
W u
g i</w>
h ing
i /
p akist
द े
ल ा
re vi
al :</w>
ab out.</w>
de bit</w>
pro hi
pro gress</w>
do g
ap ur
ter rit
av es</w>
coun t
co vered</w>
pri mary</w>
ard ed</w>
fin ance</w>
au r</w>
pr int</w>
nation .</w>
peri od
Ac tion</w>
mil it
inv ited</w>
viol ence.</w>
ght -
chec king</w>
regi onal</w>
minist ry</w>
Ab hi
sugges tion</w>
lik es</w>
grap hic</w>
thou gh
cent ury</w>
Offic er</w>
Sur vey</w>
Ta j</w>
Some thing</w>
pun ish
explain ed</w>
Govern ment
critic ism</w>
Az ad</w>
inno v
Sav ar
VP N</w>
Ka poor</w>
soli darity</w>
responsi bility</w>
stuff .</w>
Agr a</w>
Yad av</w>
pod cast
cot t</w>
EDIT :</w>
Gogo i</w>
facebook .com/
" How</w>
0 .
6 3
7 .
8 -
A pr
B ank
D u
D .</w>
D om
F eel</w>
I I</w>
K ash
P or
P ic
S H
c and
e ver.</w>
g un
h ru
n ess.</w>
r as</w>
s ligh
न ्
’ ve</w>
in ks</w>
st res
as sum
us e.</w>
ri dicul
op ening</w>
com peti
ch i</w>
ch ron
go al</w>
ing !</w>
per man
to ?</w>
gi ble</w>
"" I</w>
gr ate
co aching</w>
so on.</w>
up to</w>
emb er.</w>
Con f
app .</w>
with -
Com mission
friend s.</w>
ext ent</w>
hear t
beli ef</w>
sa id.</w>
bab y</w>
tis ation</w>
decisi ons</w>
To o</w>
effec ts</w>
slow ly</w>
Att ack</w>
tomor row
Sup port</w>
corrup t</w>
mag az
level s</w>
challeng es</w>
ug u</w>
Video 's</w>
bull shit</w>
restaur ant</w>
aster n</w>
[Ask India]</w>
ndtv .com/
# 2
4 th</w>
B an</w>
C ris
D own</w>
E l
H an
H om
L ank
O f
P C
V en
c ab
d ele
l es.</w>
o bli
p ack</w>
s ar
t es
x ing</w>
त ा</w>
on ed</w>
di plom
ati v
Th ough</w>
po em</w>
ag ers</w>
uc ks</w>
per haps</w>
"" The</w>
** ](https://www.
fi re
any more</w>
ni ght.</w>
ann ual</w>
att en
every one.</w>
Al la
Al most</w>
15 8
fil ms</w>
paren ts.</w>
2020 -0
war i</w>
buil d
ga p</w>
You th</w>
adv ance.</w>
sus pici
seri ous
Ri ots</w>
emo tional</w>
langu ages</w>
Col lec
people 's</w>
times .com/
Coun cil</w>
Bu il
mind .</w>
.com/news/ india/
activi sts</w>
reason able</w>
absol ute</w>
flo or</w>
smar t</w>
Yo Do
fla g</w>
craz y</w>
guy s.</w>
favour ite</w>
dum b</w>
Ok ay</w>
& restrict_sr
( B
7 3
8 2
: 30</w>
? ??</w>
A v
A re
C ou
C ro
E N
H ack
I m</w>
I ran</w>
K han
b es
b ad.</w>
b jp</w>
c c
d u</w>
f our
h in
h iring</w>
m ut
x .</w>
th us</w>
in stit
re pl
li br
el ine</w>
il s</w>
ur ch</w>
com plain</w>
sh or
ap .</w>
fi xed</w>
br ings</w>
ther e?</w>
Mo ha
cr it
](https://www. reddit.com/r/india/search
10 24
Tr ade</w>
gre en</w>
rem ents</w>
poin t.</w>
mark ets</w>
fl ying</w>
prom ote</w>
recomm ended</w>
world 's</w>
Bo ard</w>
compan y.</w>
-b y-
dom in
tran sport</w>
alleg ed</w>
employe e</w>
cal cul
mur der
realis ed</w>
room s</w>
?s= 19</w>
mand atory</w>
Reg ul
With out</w>
Bangalore .</w>
Ladak h</w>
Andro id</w>
[Serious ]</w>
/ ref=
4 00</w>
A L</w>
A ar
P al
P le
R af
S S</w>
T amil
V ar
a an</w>
c ure</w>
c ell
c ross</w>
i zed</w>
m ed
p ar</w>
u le</w>
w o
w a</w>
w an</w>
y '
al lows</w>
es !</w>
il .</w>
ac e.</w>
In de
de vice</w>
de dic
ch icken</w>
con tri
ing _
ent ly.</w>
hi ke</w>
tion s/
ation /
uc r
Ch ow
Al t</w>
her e's</w>
out ?</w>
Ex -
mat ch</w>
pur a</w>
educ ate</w>
etc )</w>
ele bri
over whel
poll /
suppor ted</w>
retur ning</w>
100 00</w>
PM C</w>
Offic e</w>
fail ing</w>
tab les</w>
Shar ad</w>
explain ing</w>
Govern or</w>
Ju di
Gandhi 's</w>
investig ation</w>
Poll ution</w>
rout e</w>
use ful</w>
uti li
introduc ed</w>
Pho to
_in _
safe gu
YoDo INDIA</w>
& sr
7 )</w>
9 6
B lo
D ou
D AT
N rc
V al
Z omato</w>
b rain</w>
e ast</w>
f ly</w>
i tion</w>
i ze</w>
r on</w>
s i</w>
t ac
t s-
x y</w>
y '</w>
ে র</w>
in struc
en 't</w>
om m
om et
us eless</w>
Indi ra</w>
ur ban</w>
lo t.</w>
sh e's</w>
ex change</w>
hi de</w>
don ate
ra j
up -
inter ven
cr y</w>
stat ing</w>
of .</w>
dr am
dis rup
elec tor
sch ol
ef s</w>
car ried</w>
Ad vice
Pre vious</w>
part ner</w>
incre di
bur nt</w>
prom ised</w>
RS S
Cha ll
search ing</w>
they 'll</w>
100 0
Mon day</w>
ligh ting</w>
App arently</w>
india- news/
invest ment</w>
orig in
veri fication</w>
Boo k</w>
Week ly
continu ed</w>
Christi an</w>
exclusi vely</w>
secular ism</w>
Mish ra</w>
Quarant ine</w>
CAA/ NRC</w>
?q= Weekly
Distric t</w>
Arre sted</w>
particul arly</w>
& amp;
& t=
A mon
A sho
D av
H R</w>
R is
W r
W al
Y oun
[ View</w>
a f</w>
a vi
b omb
k 1
m ess</w>
n it
s anc
t aining</w>
w all</w>
st ab
di ty</w>
es ""</w>
el a</w>
ri d</w>
ne t.</w>
tr ad
ch est</w>
pro duce</w>
est er</w>
gi en
sc roll
par k</w>
fi red</w>
so red</w>
so ft</w>
Ch ha
all )</w>
read s](https://www.
ser ver</w>
can .</w>
mis information</w>
s- and-
nation alism</w>
ques tions.</w>
log y.</w>
man .</w>
cha os</w>
alis ation</w>
15 0
Gu wa
Par k</w>
Un na
experi enc
int ellec
show /
over -
over all</w>
Peop le
migr ation</w>
Se ver
Im ag
cap able</w>
Any body</w>
recei ving</w>
allow ing</w>
top ic.</w>
foo d.</w>
Cur few</w>
Dr aft</w>
Gi ven</w>
tem per
Some times</w>
Sup er</w>
threat ening</w>
surpri se</w>
gather ed</w>
Pradesh :</w>
scienti fic</w>
Poll ](https://www.reddit.com/
/04/2020|-|-|-|-|Hospitalized| -</w>
Kore a</w>
Comp any</w>
Spo tify</w>
%3 A
03 /04/2020|-|-|-|-|Hospitalized|-</w>
Sugges tions</w>
Tl ;
Tharo or</w>
#2 YoDoINDIA</w>
Poll](https://www.reddit.com/ poll/
" What</w>
# CAA
= on
B H
L anka</w>
O h</w>
O ff
S ave</w>
T ell</w>
f ell</w>
l )</w>
o k</w>
s at
t ops</w>
y et
| 0
क ो
er ship</w>
ti n</w>
ou tr
or o
or ial</w>
om b</w>
ac com
ri cul
vi sh</w>
op posite</w>
ver dict</w>
pro be</w>
mo ther
ex -
pl ays</w>
pre mis
im mun
are a.</w>
et ro
CA RE
fac ial</w>
rec ord
ser ving</w>
att le</w>
dr ink</w>
Poli ce
Ac tivi
econom y.</w>
aff ili
reg ard</w>
cle ared</w>
fun ding</w>
fun ny</w>
comple x</w>
over .</w>
Man o
direc ted</w>
includ es</w>
tra di
remo te</w>
[https://www. youtube.com/watch?v=
jus tic
PM .</w>
NC R
Bangl adesh
oper ation</w>
sav ing</w>
mu ch
Coun tries</w>
announ ces</w>
confir m</w>
PS :</w>
great ly</w>
threat ened</w>
pursu ing</w>
particip ate</w>
hard ly</w>
consul t
behavi our</w>
prec ed
Priv acy</w>
vacc ine</w>
Jun e</w>
Ind ore</w>
festiv al</w>
kashm ir
Chandigar h</w>
icip al</w>
Nrc Protest
8 4
9 .</w>
C anc
D S
H e's</w>
N am
b on
b un
c b
g lob
g arett
n p
p air</w>
t un
t ext
in form</w>
ac tion.</w>
ri sing</w>
no t?</w>
com mon
ag e?</w>
be -
con clusi
ap ore</w>
ci garett
and /
An and</w>
](https:// preview.redd.it/
gu it
ho st
St ep</w>
Ar t</w>
cont ain
you 've</w>
NR I</w>
every one
200 2</w>
oc casi
dis h</w>
exp i
friend .</w>
lic ense</w>
fl ag
s. "</w>
tra ditional</w>
val ent</w>
auth ority</w>
Bengal i</w>
scre ening</w>
good read
Kum ar
people ?</w>
Or der</w>
Chenn ai
sugge sts</w>
larg er</w>
Cr ore</w>
mist ak
Sy stem</w>
destro yed</w>
learn ed</w>
inno cent</w>
success fully</w>
judi cial</w>
/03 /
Bud dh
Gir l</w>
drive.google.com/file/ d/1
Trail er</w>
" The</w>
( if</w>
7 f
7 l
B O
B h
B ad
C H</w>
F ut
H ate</w>
P C</w>
P en
P ass
R ak
U d
b )</w>
d ul
i a
k g</w>
r om
w ill
y ’s</w>
ह ि
th a</w>
re al
ti ves</w>
el se.</w>
is i</w>
ch er
su preme</w>
for ?</w>
indi ans</w>
gu jar
all y
Ne pal</w>
bo ys</w>
ast s</w>
Am b
sec ond
az a
Sh oo
Poli cy</w>
work ?</w>
ob serv
vo ic
ext end</w>
possi bility</w>
Modi .</w>
fuc k
mak ers</w>
war ning</w>
del et
Res earch</w>
ga ther</w>
bel ong</w>
dam bar
Can adi
For ce</w>
Chi dambar
lockdown ?</w>
Wat ch
sho es</w>
laun ches</w>
Rajas than
isol ated</w>
polic e.</w>
activ ely</w>
speak s</w>
const ant</w>
Rail way</w>
intern al</w>
spi red</w>
manufac turing</w>
xim um</w>
assa ul
Id enti
fra ud
programm ing</w>
accur ate</w>
Sad h
alco hol</w>
soldi ers</w>
Sof tware</w>
' m</w>
( [
- k
- n
9 /
B el
F Y
L D
M )</w>
M er
P a
S l
S id
S peci
X X
b hi</w>
e g
f ans</w>
r ation
v ar
’ ll</w>
in stitute</w>
ti al</w>
st able</w>
st ations</w>
ha ir
al )</w>
In to</w>
ab s
ag es.</w>
do or
qu er
me /
mon ey
co -
sit es/
St and
sec tor
ans k
you ’re</w>
emp ty</w>
Tr an
gov t-
citizen s.</w>
did ate</w>
Wor kers</w>
Vi jay
car to
US .</w>
tre es</w>
develop ing</w>
Ran jan</w>
sour c
suppor ts</w>
remo ved
Wi ki
sk in</w>
custom s</w>
play ers</w>
enter ing</w>
mind s</w>
Ser vice</w>
depres sed</w>
commit tee</w>
agre ement</w>
word pres
short age</w>
electri city</w>
hour s.</w>
Son ia</w>
Dem one
U. S.</w>
Paren ts</w>
Free dom</w>
. m
3 /
B and
B et
H un
K E
K ab
K ids</w>
M ee
N EE
R at
U G
W AT
b a</w>
d har
i i
j ump</w>
l au
l ands</w>
l oud</w>
ल ि
re s.</w>
en ni
st ress</w>
st ayed</w>
es _
le gi
Th re
be ar</w>
se at
20 th</w>
qu ote</w>
.com/ india/
Ch hattis
inter pre
Go sw
ther ap
te a</w>
ni vers
pres ence</w>
comp ul
ali ties</w>
10 %</w>
De ad
man ip
Pr om
Pr ash
new -
ly )</w>
As soci
cour ts</w>
elec ted</w>
Ex p
Li ght</w>
pow ers</w>
educ ational</w>
Citizen s</w>
Any thing</w>
mor ning.</w>
AA P
ca a-
Rec omm
hy gien
rul ed</w>
Vide os</w>
spo ts</w>
Sour ces</w>
book /
lockdown -
Ram ay
week ly</w>
dou ble</w>
pandem ic.</w>
progr am
liber als</w>
ty pical</w>
initi al</w>
AL L</w>
Ther e
bhak t</w>
judg ement</w>
Ak sha
-------------------------------- --------------------------------
Chil dren</w>
categ ory</w>
Deep ika</w>
associ ated</w>
fair ly</w>
birth day</w>
Tik Tok</w>
wigg y</w>
Plann ing</w>
percent age</w>
crit eri
wordpres s.com/
A t
A :</w>
B ul
C as
D en
F em
F OR</w>
N ame</w>
R ed</w>
S O</w>
T ej
[ Previous</w>
d ress</w>
f ed</w>
f alling</w>
j an
m outh</w>
p ath
r ange</w>
v ot
or 's</w>
ac i
In come</w>
le ar</w>
lo ans</w>
is ?</w>
the ory</w>
op posed</w>
sh ee
un g</w>
su pre
se -
ing '</w>
ter min
ps /
uc lear</w>
pre sid
gi c</w>
sc are
](https:// youtu.be/
Ar ab
stat ue</w>
la z
eng age</w>
bi a</w>
oc cup
Sha shi</w>
De li
post -
sen sitive</w>
respon d</w>
stand ards</w>
stu di
s. google.com/
cap acity</w>
Sing apore</w>
ma p</w>
Tel ugu</w>
sho cked</w>
week s.</w>
vill ages</w>
tem ples</w>
regul arly</w>
urg ent</w>
Bab ri</w>
discrimin atory</w>
neighb ours</w>
sett le</w>
organiz ation</w>
ignor ant</w>
Docum ent
Christi ans</w>
perform ance</w>
police -
Religi ous</w>
stic k</w>
democrac y.</w>
essenti ally</w>
leader ship</w>
before .</w>
div or
confer ence</w>
dru g</w>
advant age</w>
Krish na</w>
Sang h</w>
Nizam uddin</w>
Amon g</w>
Guwa hati</w>
3 2</w>
3 1.
F C</w>
G up
H or
J M
L ong</w>
M c
M ess
O ni
T em
[ R
d able</w>
e vil</w>
f ak
f ails</w>
s la
্ র
an no
st y
as pects</w>
ri ses</w>
wh it
op posing</w>
ver t</w>
ch er</w>
ex posed</w>
ent y</w>
sc ar
co z</w>
co verage</w>
Ch ange</w>
ho stel</w>
some body</w>
sel l
str ay</w>
str anded</w>
fin ished</w>
tw o-
No body</w>
Ma ha
ari an
sy m
bl ing</w>
bl at
alis m
Ex per
Li ber
ep ide
En viron
experi ence?</w>
reas on.</w>
ani an</w>
ref uses</w>
stor y-
Pri ce</w>
Uni versit
Pre sid
Man dir</w>
tru e
Fe w</w>
ca uses</w>
bri ef
auth ori
rele as
inst ance</w>
Mad ras</w>
engine er</w>
youn ger</w>
mee t
Reli ance</w>
LI VE</w>
question ing</w>
tren ding</w>
dep loy
Cu stom
Lak h</w>
Opini on</w>
divid ed</w>
They 're</w>
rea ucr
figu res</w>
FR T</w>
jour ney</w>
small er</w>
quick ly</w>
transfer red</w>
Abhi jit</w>
Unna o</w>
goodread s.com/
9 2
: *</w>
? utm_
A sh
C L
D O</w>
D am
E X
G B</w>
H D
J anta</w>
K i</w>
N an
P and
P RO
R om
S ame</w>
W arn
Y or
b t
c ash
c ity
d r</w>
f i</w>
f ears</w>
i 'm</w>
k it</w>
p harm
r ound</w>
s ane</w>
u b</w>
y th
त ्र
er o
it 'll</w>
li c</w>
il os
ad mit</w>
de tec
ol d.</w>
con centr
ent ?</w>
pl ine</w>
and ro
we 'll</w>
some thing.</w>
Re ally</w>
form s.
br am
Po sitive</w>
stat e-
Pro vid
cri m
Ma hal</w>
ph one.</w>
won t</w>
viol ation</w>
Un ity</w>
Un popular</w>
situ ation?</w>
discus sing</w>
Res er
yp e</w>
ound ed</w>
Elec tron
def end</w>
pat rio
pandem ic
break s</w>
spir acy</w>
AM U</w>
Pat el</w>
phys ically</w>
forc ing</w>
learn t</w>
influ ence</w>
CE O</w>
coo k</w>
reser vation</w>
internetfreedom.in/ donate
consum er</w>
Sugg est</w>
Priv ate</w>
arti sts</w>
unemploy ment</w>
financi ally</w>
Dub ai</w>
Milli a</w>
Varan asi</w>
manip ul
Prash ant</w>
ilos op
" I</w>
( as</w>
( like</w>
. nic
: -
> **
F oo
F ai
G O</w>
I B
K as
M ain
M other</w>
O S</w>
S aj
T ar
T oo
V a
b jp
b ond
b lind</w>
d res
e ver
f it
f illing</w>
h f
p se
r y
r ain
u red</w>
z es</w>
औ र</w>
ब ा
ह ी
an ch
ti ous</w>
ha sh
di ts</w>
di ans</w>
it i</w>
li t</w>
il ed</w>
il it
ac t.</w>
us -
ad dic
ad vice.</w>
ag gres
ol ution</w>
ed ed</w>
for ward
um an</w>
indi an-
cl ue</w>
ra j</w>
ple .</w>
St e
fac tor
bu y
te aching</w>
pr int
protest s:</w>
col lap
dit ya</w>
sha me</w>
sub stan
proble m.</w>
bl aming</w>
alis tic</w>
happen .</w>
vo ters</w>
Delhi ’s</w>
what ’s</w>
stand s</w>
comment s.</w>
fl at</w>
medic ines</w>
cou gh
equ ality</w>
appreci ated</w>
spo ke</w>
Op position</w>
bir ds</w>
they 've</w>
UP SC</w>
Kashmir .</w>
main stream</w>
charg ing</w>
nat ur
tern al</w>
Spe ech</w>
Vis a</w>
win ning</w>
Kolk at
shut downs</w>
provi sions</w>
believ ed</w>
Mark eting</w>
mass ac
Thou ght
targe ted</w>
cod ing</w>
cous in</w>
appropri ate</w>
circum st
prehen sive</w>
controversi al</w>
Wu han</w>
Aksha y</w>
# Delhi
5 3
8 3
> The</w>
A D</w>
B road
E r
I E
I mp
K h
N O</w>
P E
P s</w>
P eri
T S
T esting</w>
V id
a z</w>
b ail</w>
c inem
d umb
e ing</w>
k al</w>
k um
k arnatak
m ic</w>
n -
n um
n ative</w>
r ab
w ala</w>
प र</w>
al d
it self.</w>
at ori
as ide</w>
ri fic
In side</w>
no tification</w>
wh il
go d
20 -
ing ""</w>
ed /
ed !</w>
per cent</w>
gi th
are y</w>
gr ad</w>
ai -
Po st
pres s
leg isl
india ?</w>
gen o
Poli tic
inf lation</w>
differ ences</w>
vo ter</w>
1. 5</w>
Modi ji</w>
writ es</w>
usi on</w>
prof essor</w>
Sec retary</w>
cho ic
che aper</w>
Red mi</w>
hol ders</w>
imp lic
cam p</w>
trac king</w>
logi c</w>
mem e</w>
initi ative</w>
video s/
advi se</w>
exper im
purcha sed</w>
Saf e</w>
feat ures</w>
Fun d</w>
profession als</w>
consul tation</w>
Mark et</w>
adver tis
mach ine</w>
meth od</w>
susp ected</w>
sched uled</w>
gy m</w>
coff ee</w>
equip ment</w>
tox ic</w>
labour ers</w>
ICM R</w>
! "</w>
- the-
3 6</w>
5 2
C ome</w>
C BI</w>
G uru</w>
H um</w>
I )</w>
R s.
S ri
S ard
S low
S MS</w>
b illi
e '</w>
f ai
g e.</w>
l ad
n ai
r ation</w>
r ack
s ake</w>
x )</w>
in clusi
re jec
en /
at ing.</w>
es ;</w>
ad equ
ad ditional</w>
si ght</w>
si vely</w>
oo m</w>
ge t.</w>
for got</w>
od i</w>
ation )</w>
im port</w>
per form</w>
"" ?</w>
Wh y?</w>
dow s</w>
some time</w>
St ar</w>
te en
Mo han</w>
ant s.</w>
dec lin
nation als</w>
cas es.</w>
De b
doc s.google.com/
bl u
rem aining</w>
poin ted</w>
Be en</w>
stand ard
sl ams</w>
Ra vish</w>
struc tion</w>
Fir st
Ab dul
import ance</w>
suppor t.</w>
adv ance
cent res</w>
Elec tions</w>
UP DAT
covid -19</w>
tro ll
pat ter
/status/12 4
Fi ve</w>
Te am</w>
Fac ts</w>
survi v
student s.</w>
Dal its</w>
TI L</w>
COVID-19 .</w>
activ ity</w>
after -
Chil d</w>
reve als</w>
achi eve</w>
Religi on</w>
throw n</w>
harass ment</w>
Jap an
academ ic</w>
confid ence</w>
Acc used</w>
Pul w
timesofindia.indiatimes.com/ city/
Manag ement</w>
elebri ties</w>
Youn g</w>
and/ or</w>
F ather</w>
H aving</w>
O per
P sy
T an
U B
[ The</w>
c iting</w>
d a</w>
g as
g le/
m N
m as</w>
p ut
in ations</w>
ha m</w>
el ess
el low</w>
is ation</w>
op tim
de duc
un necessary</w>
ag encies</w>
con sumption</w>
tion s:</w>
pre gn
gi es</w>
por tr
gr ounds</w>
gr anted</w>
Wh o
mon y</w>
he ad.</w>
.. ...</w>
ail ing</w>
ess ing</w>
bo ss</w>
-1 6
ast ro
au to</w>
au dio</w>
fir ms</w>
Pro c
dr ones</w>
Com ple
dis sent</w>
Su ic
cha ir
loc als</w>
des igned</w>
vo ices</w>
respon ses</w>
Vi k
reddit ors</w>
ta g</w>
fore st</w>
discus sed</w>
Pl an</w>
well -
ris k
coronavirus .</w>
Wi fe</w>
engine er
Hindu -
wel come.</w>
Sc india</w>
kind s</w>
Kam al</w>
Nav y</w>
citizenship -
boy cott</w>
organiz ations</w>
intern ship</w>
IIT -
foreign ers</w>
Naz i</w>
Twitter :</w>
encour age</w>
Wel come</w>
/view ?usp=shar
anci ent</w>
propor tion
thehindu .com/news/
enforc ement</w>
relati vely</w>
Imag ine</w>
forms. gle/
9 0</w>
A .
D id
E m
F i</w>
H a
I O
N at
P R</w>
T om
T ill</w>
c a</w>
d ance</w>
f ant
f eet</w>
l aid</w>
s is</w>
s es.</w>
t ly.</w>
w ins</w>
y ani</w>
द ि
ल ा</w>
th en.</w>
en tic
st aff
it s.</w>
ati ve
Th ous
Th ink</w>
ic h
de posit
si de
ne d.</w>
su fficient</w>
ex ha
ex it</w>
ist .</w>
CA T</w>
ra dic
201 5</w>
St ation</w>
jo int</w>
Am it
red -
Con si
Con sul
Con sum
stat es.</w>
No .</w>
every thing.</w>
10 .</w>
lif est
gen ous</w>
sub mitted</w>
amp _
rem ind
15 0</w>
15 th</w>
know led
Ra j</w>
aliz ation</w>
develop er</w>
He ad
fut ure
hy a-
den y</w>
cust om</w>
rep lied</w>
appe ars</w>
school .</w>
IM S</w>
employ ment</w>
defin ite</w>
sil ence</w>
enter tain
Bu y</w>
celebr ating</w>
veri fied</w>
Saf ety</w>
feat ure</w>
destro ying</w>
Ve hic
atic ally</w>
reduc ed</w>
card .</w>
volunte ers</w>
terri ble</w>
streng th</w>
Maharashtra :</w>
newsp ap
shou ting</w>
Emer gency</w>
Found ation</w>
sligh tly</w>
- based</w>
7 th</w>
B ig
C )</w>
C alls</w>
E ff
G old</w>
H ong</w>
K ey</w>
O ff</w>
O rig
S ansk
T aking</w>
X i</w>
g ent
l en
l uc
l uck
p in</w>
p ure</w>
s ..</w>
er s:</w>
ar ms</w>
st ro
al lies</w>
at e-
pe dia</w>
ent ally</w>
coun ts</w>
form .</w>
Ar ound</w>
can didate</w>
No v</w>
nation /
oc cur
CO R
Com puter</w>
gov .in/
sub jects</w>
alis e</w>
won der
too l</w>
30 -
dri vers</w>
colle ge
trans action</w>
bro thers</w>
Pl ay
usi ve</w>
prof it</w>
pay ments</w>
arre st
bri dge</w>
tou rists</w>
gur u</w>
Red dy</w>
requi rements</w>
UP I</w>
fer ence</w>
Nor theast</w>
whe el
Sur at</w>
sav ed</w>
peti tion
exist ence</w>
Spe ak
from _
exper t</w>
Out :</w>
boy friend</w>
Fore ign
ignor ance</w>
PP E</w>
Loc al</w>
electri c</w>
key word
Bud d
yr s</w>
Stre et</w>
commer ce</w>
How dy</w>
smart phone</w>
sac rific
dir ty</w>
Reddit ors</w>
Mahab har
grate ful</w>
elector al-
) ).</w>
- Old</w>
6 2
9 3
A o
A ur
D H
D R</w>
E U</w>
F M</w>
G B
L it
M aking</w>
O wa
T han</w>
W ed
b h
e k</w>
f ear
k is
m oun
n b
p d
r ang
t ained</w>
v an</w>
y og
in ch</w>
in her
re la
en ergy</w>
al one.</w>
it ual</w>
ac tors</w>
In tel
ad e
ad ap
ab h</w>
ab road.</w>
un fortunately</w>
ag ar
ol a</w>
pro te
pro spec
se dition</w>
con gress</w>
ed '</w>
ent ing</w>
sp ort
um .</w>
pl ant</w>
ation s?</w>
](https:// i.imgur.com/
aw ay
jo ke</w>
rec ords</w>
fir st
Con trol</w>
att end
every body</w>
with draw</w>
19 6
Tr aining</w>
De ad</w>
sy n
disc our
numb er.</w>
mat ter
fa ther's</w>
that ’s</w>
Chin a's</w>
consi st
trans actions</w>
regi me</w>
tru e?</w>
prom ises</w>
Hel lo
follow ers</w>
Loo ks</w>
government ’s</w>
jus ti
top ics</w>
NC R</w>
def ence</w>
22 nd</w>
ump ing</w>
yester day.</w>
3- 4</w>
Chri st
advi sed</w>
distric ts</w>
bat tery</w>
detail ed</w>
particip ating</w>
atic s</w>
Bre ak
heav ily</w>
life ?</w>
perf ec
human ity</w>
research ers</w>
Bhak ts</w>
Ge tting</w>
comb at</w>
eli gible</w>
Punjab i</w>
commer cial</w>
Sim il
Ret ur
intel ligence</w>
Migr ant</w>
discover ed</w>
1024 &format=png&auto=webp&s=
Chhattis garh</w>
keyword s=
A arey</w>
B C</w>
D ro
D us
F our</w>
G E
G ets</w>
K ish
M E</w>
U l
W ere</w>
] .</w>
b ig
c ab</w>
f lat
k ing
m ou
t our</w>
v o</w>
் த
re action</w>
st one</w>
al ong
it age</w>
li ves.</w>
ri ver</w>
le y</w>
vi c</w>
am bi
lo ves</w>
un like</w>
su rely</w>
con cep
ir y</w>
id -
ang an
Wh e
sc ary</w>
tu ally</w>
inter views</w>
wi fe
some what</w>
ve g
te es</w>
te en</w>
Mo b</w>
medi um</w>
stat ements</w>
att acking</w>
dat a.</w>
sha m
man if
sub scribe</w>
mat h</w>
mat ter.</w>
fil ing</w>
day ?</w>
lic it
cul ture.</w>
possi ble
Delhi ?</w>
Citizen ship
Any way</w>
sal aries</w>
sugges tions.</w>
Hyder abad.</w>
/status/ 1
bri ef</w>
nam e.</w>
inde ed</w>
Kashmir is</w>
ben e
Gr ound</w>
cli cked</w>
terror ism</w>
blo od
Reli ef</w>
invest ments</w>
accep ting</w>
Nag pur</w>
veri fy</w>
less er</w>
famili ar</w>
pa the
time ?</w>
country 's</w>
Ur du</w>
hindu stan
Pay tm</w>
t/ files/
ala xy</w>
scienti sts</w>
Updat es</w>
Bre aking</w>
mos qu
startu ps</w>
expec ting</w>
cow s</w>
Shiv aji</w>
exec utive</w>
Hyderabad |
clean ing</w>
assa ult</w>
cover ing</w>
grocer y</w>
accid ent</w>
frame work</w>
asha med</w>
defaul t/files/
NGO s</w>
Uttarak hand</w>
Cris is</w>
Mano j</w>
Canadi an</w>
sites/ default/files/
book/ show/
( for</w>
/ article
1 dr
A part</w>
B ody</w>
B ased</w>
C S
C op
C od
C limate</w>
G haz
J am
L and</w>
M .
M S
M .</w>
R ise</w>
U A
W T
b age</w>
b other</w>
s or</w>
s ory</w>
t ee
v .m
y ""</w>
ন ্
র ্
ti ve-
en counter</w>
di sha
il tr
vi g
un known</w>
ing u
ge tables</w>
hi k
pre ne
sc ope</w>
.com/ )</w>
cl oud</w>
ill enni
tri al</w>
fac ility</w>
ast .</w>
cont acted</w>
cre ates</w>
enti rely</w>
cr ack</w>
ment :</w>
leg is
comp lic
s- in-
lif t</w>
Su bram
sub -
disc lo
inf iltr
econom ics</w>
Mar ri
fil ter</w>
clo ser</w>
What ’s</w>
war rant
tre ating</w>
tru th.</w>
CAA :</w>
Bo y</w>
Rec og
We 've</w>
We k1
Hi m</w>
lab our</w>
inde x
cris y</w>
sho ck
Sa udi</w>
wel com
Dev endra</w>
ON E</w>
present ation</w>
Cor rup
Wee k</w>
Telang an
Sci enti
bit r
YO mN
there fore</w>
Chand ra</w>
destro y</w>
fortun ate</w>
cat ch</w>
behavi our
practic es</w>
Commun ity</w>
spi rit</w>
asp ir
P. S.</w>
ordin ary</w>
Sus pension</w>
conver t</w>
Show s</w>
BB C</w>
neutr al</w>
wer en't</w>
demon str
shel ter</w>
feel ings</w>
aler t</w>
controll ed</w>
Mast ers</w>
liqu or</w>
s! Ao
weal th</w>
puri fi
Banglades hi</w>
Satur day</w>
Youtu be</w>
Pas sport</w>
perman ent</w>
Aar og
?q=Weekly +
Sever al</w>
CARE S</w>
7l Wek1
removed ]</w>
goodreads.com/ book/show/
1dr v.m
YOmN 7lWek1
s!Ao YOmN7lWek1
1drv.m s/
! )</w>
- on-
0 5
4 /
: (</w>
A mar
B at
D a
F ace</w>
G a
G ro
G uru
H T
I C</w>
L earn</w>
N 95</w>
P R
P il
S n
V ol
W E
Z ee</w>
[ Amazon
[ Good
_ r
f ought</w>
g ath
k ic
k ha</w>
l al</w>
o o</w>
’ .</w>
th ?</w>
in i</w>
on ly.</w>
re sume</w>
ti es?</w>
di y
di vi
it !</w>
at es.</w>
as y</w>
ac tor</w>
no vel</w>
am ps</w>
ad dition</w>
de v</w>
sh a</w>
si m</w>
be ?</w>
ch l
su dden</w>
em i
mo ves</w>
ex port</w>
hi dden</w>
for ce
sp ar
wor ri
wor ship</w>
est ed</w>
to ols</w>
sc am
sc are</w>
](https:// 1drv.ms/
fi x
any way</w>
sit -
ill ness</w>
sel ected</w>
sti g
tiz ation</w>
fir ing</w>
Po or</w>
comp li
cur few
dat e.</w>
sha res</w>
10 -
bl indly</w>
aff airs</w>
Me h
commun ity.</w>
Be hind</w>
popul ation.</w>
Ad v
bor ders</w>
care s</w>
JN US
opini on.</w>
IS RO</w>
val ues</w>
adu k
Shi m
adv anced</w>
Cha mpi
dist inc
chan ge
NRC ?</w>
mer ely</w>
own .</w>
cam ps</w>
custom ers</w>
pen alty</w>
alleg ations</w>
head ing</w>
complain ing</w>
bal con
cal m</w>
resour c
canc er</w>
meas ure</w>
attemp ts</w>
supp lies</w>
God se</w>
refer ence</w>
arri ved</w>
say s-
dise as
request s</w>
passeng er</w>
design ated</w>
Bir th
warn s</w>
essenti als</w>
proce ed</w>
parliam ent</w>
==== ====
pha se</w>
privile ged</w>
++++ ++++
Mic ro
Hus s
Down load</w>
Dep uty</w>
censor ship</w>
" Why</w>
) **</w>
/ articleshow/7
8 00
B hu
C R</w>
E vent</w>
H and
H ours</w>
I ON
K ong</w>
L S</w>
M ak
N IT
R en
S ong
W il
[ removed]</w>
b ath
d )</w>
d s.</w>
e gg
g in</w>
l eng
m ere</w>
n y
o ?</w>
p ull</w>
r y.</w>
s es
s ar</w>
t ask</w>
w ashed</w>
y .
in spir
re place</w>
il ing</w>
us ?</w>
un biased</w>
su re.</w>
ge o
hi e</w>
ps ?</w>
ain t
me in</w>
me al</w>
et oo
co st
sel ler</w>
rec ruit
bu ted</w>
te ar</w>
sec onds</w>
loo k
ment ally</w>
cur ricul
Al i</w>
Tr ust</w>
Com plain
tal ity</w>
vide o.</w>
Pr ag
ly -
cour se.</w>
bl es</w>
disc ord
numb ers.</w>
post pon
mat es</w>
inv ite</w>
down ?</w>
Minist ers</w>
vo id</w>
help !</w>
Di wali
pan el</w>
aliz e</w>
them selves.</w>
proc ess.</w>
avail able.</w>
ma ximum</w>
Gujar at
che ap
Sen ior</w>
Isl amia</w>
Shar j
youn g
gradu ation</w>
right s.</w>
kind ly</w>
Sch ools</w>
foc used</w>
Sal man</w>
coll ected</w>
judi ciary</w>
IP L</w>
old en</w>
Movi es</w>
convic ts</w>
confid ent</w>
amend ment</w>
toil et</w>
List en</w>
Indu stri
estim ated</w>
Fur ther</w>
camer as</w>
escap e</w>
Grow th</w>
Bhop al</w>
Raf ale</w>
dedic ated</w>
Fut ure</w>
WAT CH</w>
Gosw ami</w>
sym bo
3 000</w>
4 b
? e=
A w
D G
E .</w>
E C</w>
F a
F igh
G aut
K nowledge</w>
L T
N ation</w>
P aduk
T en
W S</w>
[ S
[ Source
a ""</w>
b ans</w>
b acks</w>
c f
d ly</w>
g aming</w>
k m
l es
o h</w>
s ity</w>
t at
w ishes</w>
भ ी</w>
in compet
re act</w>
re aching</w>
ar di
st y</w>
st opping</w>
di es
di et</w>
di versity</w>
it ec
at titude</w>
ac u
ac tion
ac he</w>
In don
no thing.</w>
Th ir
com petition</w>
sh r
sh eet</w>
ag er</w>
ag ues</w>
tr act</w>
tr illion</w>
tt e</w>
se es</w>
ap e</w>
wor thy</w>
pre viously</w>
and _
ev ol
per pe
ist s.</w>
](https:// imgur.com/a/
](https:// internetfreedom.in/donate
co vid</w>
so on
we ather</w>
all er
inter net.</w>
sec ur
enti ally</w>
cr ying</w>
mi d</w>
pos ure</w>
leg ally</w>
NR Is</w>
col labor
cur b</w>
cas ual</w>
Ma id
Com pan
man -
dis ci
fic i
wom en.</w>
cour age</w>
rel ative</w>
happen ed.</w>
Me di
fol k
Gu j
Gu ide</w>
cul ture
fre e.</w>
int ention</w>
hand .</w>
Wor st</w>
ref using</w>
stor m</w>
discus sions</w>
fl u</w>
s. ](https://www.reddit.com/r/india/search
import antly</w>
world ’s</w>
exam ples</w>
80 %</w>
thread s.](https://www.reddit.com/r/india/search
rep ut
quarant in
tab le.</w>
constitu tion
Sab ar
Sa w</w>
connec tions</w>
effec tively</w>
long -
fiel ds</w>
u/ s!AoYOmN7lWek1
orig in</w>
explain s</w>
WH O
Cont in
histor y.</w>
anim al</w>
fasc ism</w>
Updat es:</w>
bag h</w>
request ed</w>
strong ly</w>
arch y</w>
organis ation</w>
Gur gaon</w>
where as</w>
Thou ghts</w>
newsp aper</w>
reven ue</w>
consequ ences</w>
horri ble</w>
tempor ary</w>
dp/ B
Hindust an</w>
Kash y
y' all</w>
guit ar</w>
There fore</w>
[Amazon ](https://www.amazon.in/
Indon es
Compan ies</w>
( P
( S
. fil
2 1-
4 2
7 2
7 5</w>
? !</w>
B lock
C ell</w>
C la
D C
F act</w>
F estiv
I P</w>
I ON</w>
L L
L im
L ess
M L</w>
M ach
N AS
P ad
R aw
S U
U sing</w>
V ish
[ M
b -
c )</w>
d es</w>
d ut
f at
f ee
f all
g en</w>
m on</w>
p he
s ”</w>
t end
t ast
t ree</w>
z en</w>
क ार
त ी
ह ु
ব া
at ro
es cal
li sts</w>
li ve-
as ci
no where</w>
ab and
sh ots</w>
ag ency</w>
do tin
em int
ir respective</w>
ed -in-
ci ous</w>
our gov
ra w</w>
we 've</w>
up s</w>
up ?</w>
201 1</w>
umb le</w>
Re port
form ul
bu reaucr
off en
Mo re
ant ar</w>
gg ed</w>
dr ag
fu el</w>
10 /
Tr ying</w>
Ac t
sub scription</w>
bl ed</w>
rel ating</w>
rem emb
Ex c
anc est
reg ard
2020 -
lat er.</w>
Do es
pic ked</w>
help ?</w>
Wor king</w>
rap ing</w>
Di ffer
provid ers</w>
Ker ala
vic tory</w>
dri ven</w>
Bi -
trans late</w>
regi ons</w>
websit e.</w>
discus sion
care .</w>
care ful</w>
He av
appro val</w>
equ ally</w>
IS T
inst ances</w>
inst alled</w>
IC IC
The m</w>
Sur ve
prac tical</w>
complain ts</w>
IA F</w>
sam ples</w>
win ter</w>
sr _1
2. 5</w>
Is n't</w>
exc ell
refer red</w>
Stat ue</w>
agre ed</w>
roll ed</w>
level .</w>
reve aled</w>
Inv est
Inv estig
sem ester</w>
bill s</w>
mass es</w>
divid e</w>
restaur ants</w>
amp; amp;
princi ples</w>
es. wordpress.com/
Tele gram</w>
Maj or</w>
corona -
commis sion</w>
Lawy ers</w>
transparen cy</w>
Today 's</w>
comfor t</w>
Discor d</w>
Fasc ism</w>
Web site</w>
premi um</w>
igno red</w>
vulner able</w>
elder ly</w>
Il legal</w>
Asho k</w>
oro qu
Wiki pedia</w>
Associ ation</w>
yth on</w>
First post</w>
Recog ni
[Good reads](https://www.
](https://1drv.ms/ u/s!AoYOmN7lWek1
Sharj eel</w>
Gaut am</w>
.fil es.wordpress.com/
dotin .files.wordpress.com/
ourgov dotin.files.wordpress.com/
1 e
2 1st</w>
6 th</w>
9 .
A -
B or
C E</w>
D ad
F F
F ast</w>
F ren
F ron
G alaxy</w>
I V
J awa
R ang
S .
T ak
U s
[ p
b il
b ble</w>
c ough</w>
d 0
d 5
d al
f an
h li</w>
k ?</w>
m ac
r at</w>
r ut
क ि
र ि
th ir
in puts</w>
an cial</w>
on to</w>
re ject</w>
di d.</w>
it s-
om i</w>
el ess.</w>
as sets</w>
ac cor
us age</w>
In no
am bul
am idst</w>
de als</w>
si an</w>
be ach</w>
ol .</w>
ol d.
tr ag
pro sec
su it</w>
se a</w>
ing ))</w>
ter m
mo vie
ex ists</w>
est -
id :</w>
are st</w>
ear li
gr av
sc al
he ads</w>
cl ub
gu y.</w>
all y?</w>
201 2</w>
str um
fin e.</w>
fac ilit
Ar un
cre ative</w>
ment ?</w>
leg it</w>
gg /
att ended</w>
col our</w>
emp t</w>
ll ab
12 .
sub scri
As ked</w>
Ex peri
friend 's</w>
arn a</w>
Un fortunately</w>
air e</w>
comple ting</w>
stre am
cid e</w>
world -
hy der
Tu esday</w>
Ti ps</w>
Bag h
requi rement</w>
cy l
lockdown :</w>
beg ins</w>
ben ch</w>
hot els</w>
people ’s</w>
Americ ans</w>
Fin ancial</w>
han g</w>
Sub mit</w>
sex ually</w>
Ser ies</w>
Cri me</w>
conduc ting</w>
News 18</w>
Boo ks</w>
propag and
represent ation</w>
IP S</w>
order .</w>
Ali garh</w>
/status/120 75
holi day</w>
pleas e.</w>
compar ison</w>
liv emint
dru gs</w>
mann er</w>
frustr ated</w>
Mun icipal</w>
pradesh -
pray ers</w>
Mid dle</w>
Cen sus</w>
conserv ative</w>
guys !</w>
punish ment</w>
Chidambar am</w>
Gup ta</w>
Pulw ama</w>
Thous ands</w>
sit- in</w>
etoo th</w>
[Goodreads](https://www. goodreads.com/book/show/
. gg/
A ay
B lack</w>
C over</w>
K Y
K ul
N .</w>
N ow
N ath</w>
N ik
O ly
O thers</w>
P ath
R C</w>
S ach
T ag
[ http://
a uty</w>
c y.</w>
i .</w>
j aw
n aren
s ]</w>
s -</w>
s en</w>
t f</w>
w at</w>
w ashing</w>
y _
ल ो
in er
in ary</w>
an ing</w>
ar chi
or dering</w>
di alo
al _
li p</w>
as y
In i
In fo
Th read
ag e-
be have</w>
ol er
ol d-
ak ash</w>
ex cep
ci ties.</w>
qu o
are -
sc ore
indi genous</w>
** The</w>
gu aran
so -
ail .</w>
Ne ar</w>
Re ports</w>
fin ed</w>
Am rit
cr ing
aren ’t</w>
19 th</w>
bi as</w>
under stood</w>
log ist</w>
inf o
politic s.</w>
aff ron</w>
fol lows</w>
cu tting</w>
int end</w>
rap ists</w>
respon d
tru e.</w>
bur den</w>
## ##
Bo y
lik e?</w>
tou ching</w>
girl .</w>
Ti wari</w>
search ed</w>
pati ent
lu x
mob ile
Lock down
cris is.</w>
def ec
restric ted</w>
Vir al</w>
mus ic
IF F
gradu ated</w>
hm in</w>
Ph D</w>
right -
Bec ome</w>
jpg )</w>
resid ence</w>
farm er</w>
Fri ends</w>
EE EE
twee ted</w>
onlin e?</w>
rac ism</w>
Pradesh .</w>
shoo ting</w>
Ru pe
.indiatimes .com/news/
appoin tment</w>
Sol ar</w>
Pow er
prefer ably</w>
key board</w>
sign al</w>
](http:// www.
belong ing</w>
Cal cu
adop ted</w>
establish ed</w>
Pati ent</w>
िय ा</w>
CR PF</w>
materi als</w>
nut ri
economictimes .indiatimes.com/news/
ndtv.com/ india-news/
Tl; dr</w>
thehindu.com/news/ national/
Consum er</w>
Wed n
discord .gg/
( a</w>
1 c
4 00
9 -
: -|
C lo
C ar</w>
D est
D ru
J ami
J yo
K illed</w>
M C
M om
R ally</w>
V -
W anted</w>
a o</w>
b ut
d ail
h es
l ess.</w>
r s
r ati
r are</w>
r amp
w ed</w>
त ा
य े</w>
“ The</w>
in ent</w>
re jects</w>
ar m</w>
or -
ha m
al '</w>
al ay
it t
it em</w>
es si
vi su
vi sible</w>
ad ult</w>
sh opping</w>
ch ant</w>
pro ved</w>
se ven</w>
ed d
hi ding</w>
sp here</w>
im s</w>
gr am
et y.</w>
Wh ite</w>
don ation</w>
co tton</w>
pp l</w>
St and</w>
bo t</w>
rec ession</w>
cont em
cont acts</w>
fir m
mi xed</w>
la ze</w>
att ached</w>
Al l
her e:</w>
19 )</w>
Sha red</w>
Com ments</w>
cha y
month ly</w>
elec toral</w>
bl ank
alis m.</w>
post ers</w>
Pe ace</w>
pur po
did nt</w>
situ ations</w>
beli efs</w>
2019 ]</w>
fore ver</w>
30 %</w>
trans l
Pl ay</w>
govern ance</w>
Ran dians</w>
part y.</w>
Ap r</w>
marri age.</w>
We b</w>
tou rism</w>
AT E</w>
thread .</w>
rep lies</w>
UP 's</w>
[O LD
lap top
cop e</w>
applic ations</w>
confir m
Cri min
Te ac
fal len</w>
activi st</w>
suic id
Yog a</w>
**](https:// internetfreedom.in/
relation ships</w>
mast er
ond on</w>
rat ri</w>
campaig n
mist akes</w>
detail s.</w>
Sav e
/03 /2020|-|-|-|-|Hospitalized|
expec t
Mur der</w>
yr -old</w>
promo ting</w>
susp ect</w>
deep ly</w>
tan e
Ben ef
Tru th</w>
Year -Old</w>
Def ence</w>
argu ed</w>
frequ ently</w>
din ner</w>
Sr in
defe at</w>
los ses</w>
Respon se</w>
Inde x</w>
Poll](https://www.reddit.com/poll/ f
nivers ary</w>
Japan ese</w>
Aur ang
Aarog ya</w>
ICIC I</w>
Recogni tion</w>
' S
( C
- modi-
0 )</w>
5 G</w>
= true
B ad</w>
D ies</w>
D urg
E S
E qu
E specially</w>
F O</w>
G ar
I ran
J in
L t
L ap
P T
P ak
R emo
S R
S ak
S ex
T rain</w>
V s</w>
W rit
Z e
b .</w>
b adly</w>
c at</w>
h anging</w>
i z
k es
n ath</w>
p op
s *</w>
s /</w>
s we
s ends</w>
t ains</w>
t s'</w>
w all
y .com/
re r</w>
re aches</w>
ti vel
ar bitr
ha ve.</w>
al and</w>
as a</w>
il a</w>
ec li
In definite</w>
Indi an.</w>
ab road
po sed
ver ted</w>
un k</w>
ch a</w>
wit ness</w>
se as</w>
ap ur</w>
mo del
um ps</w>
od a</w>
est .</w>
and .</w>
to _
me -
end or
](https:// the
comm it</w>
ho st</w>
Ne hru
wi re
ill iter
pri son
fin ish</w>
te :</w>
sec tions</w>
pr ay</w>
comp are</w>
att ending</w>
col um
low .</w>
dr ama</w>
ye ah</w>
lin e.</w>
10 -1
ph ilosop
Tr ue</w>
Sh ut
port al</w>
Ac adem
cour se
offic es</w>
offic e.</w>
religi on
cle ar
Par ti
posi tive
enc es.</w>
2020 **</w>
bre a
ob served</w>
accoun table</w>
etc ?</w>
Qu ality</w>
Inter view</w>
ate :</w>
Ass am.</w>
mak er</w>
develop ers</w>
mor atori
cou rier</w>
val id
Ro hing
list .</w>
retur ns</w>
grow n</w>
other wis
TH IS</w>
spo ken</w>
government -
book s
Ay ur
reco gn
pap er
cli p</w>
Shar ing</w>
employ ed</w>
defin ition</w>
MH A</w>
Ph ys
Sc en
Det ention</w>
invest ing</w>
mean ing
apo logi
doub ts</w>
hun ger</w>
smo king</w>
after no
repe at</w>
Updat e:</w>
Shah 's</w>
Car to
through .</w>
servic e.</w>
Corpor ation</w>
cru cial</w>
monit or</w>
Explain ed:</w>
Anal ysis</w>
contr act</w>
spon sored</w>
alli ance</w>
desper ate</w>
bran ch</w>
minut es.</w>
guil ty</w>
certain ly</w>
Thr ough</w>
Cou ple</w>
|0 |</w>
crim es</w>
Sansk rit</w>
Christ mas</w>
pathe tic</w>
old. reddit.com/r/india/comments/
# cit
& sort=new
/ r/
3 D</w>
A head</w>
B ac
B MC</w>
C alling</w>
F o
F ind</w>
F ort</w>
I -
J D
J ad
J ain</w>
K ing</w>
K indly</w>
L ondon</w>
M s</w>
M ale</w>
P S</w>
P G</w>
P hon
R ol
S pread</w>
V ed
V aj
d i</w>
d :</w>
e .com/
f ab
f oun
f t.</w>
l an
l ac
n rc
p es</w>
p ill
p ic</w>
s ad
t aste</w>
v ast</w>
w ave</w>
w ages</w>
x el</w>
य ा</w>
र ो
ल े</w>
er a
on om
st ops</w>
al ""</w>
as he
no se</w>
le tting</w>
Indi an-
vi br
op tion.</w>
ag ri
ch -
do ors</w>
se aled</w>
con fron
con spiracy</w>
ap r
mo tor
mo de</w>
hi red</w>
sp ;</w>
sp ic
me at</w>
der .</w>
](https:// ourgovdotin.files.wordpress.com/
aw esome</w>
co tt
ck e
str ate
again st-
star s</w>
cont est</w>
Con cer
Mod er
ans ?</w>
now led
app li
la g</w>
col on
Tr y</w>
sub jec
ath a</w>
post er</w>
wan ting</w>
fun ded</w>
viol ating</w>
Lo st</w>
hand led</w>
Chin a.</w>
help ful.</w>
grou p
uni or</w>
uni versit
busin ess.</w>
job s.</w>
Res id
Res ult</w>
appro ves</w>
kar i</w>
Sec re
Ro hit</w>
dro xy
thre e-
auth entic
ence :</w>
suc ce
kid s.</w>
DI Y</w>
Offic i
tar gets</w>
dom ain</w>
sav e
protec tive</w>
week end</w>
Cur few
Or gan
regul ation</w>
mem es</w>
Sch ed
ump ed</w>
reason s.</w>
organ ised</w>
dang er</w>
way ?</w>
fo li
qui et</w>
intro duce</w>
suffer ed</w>
room .</w>
rac ist</w>
signific antly</w>
func tion
func tioning</w>
shoo t</w>
Cre dit</w>
idi ots</w>
challeng ing</w>
mission s.</w>
CAB .</w>
distri bution</w>
helpl ine</w>
arti st</w>
Kann ada</w>
organis ations</w>
Corpor ate</w>
Assam ese</w>
nee ded.</w>
sched ule</w>
e_ note
Won 't</w>
exten sion</w>
credi ble</w>
equi valent</w>
Issu e</w>
upload s/
proced ure</w>
Rus sia</w>
condem n</w>
exclud ed</w>
Gop in
secre t</w>
Requ est</w>
Vill age</w>
Farm ers</w>
Hit ler</w>
NI A</w>
datab ase</w>
shir t</w>
explan ation</w>
&restrict_sr =on
mut ual</w>
/ref= sr_1
abs ence</w>
program me</w>
Yor k</w>
Tom or
Intel ligence</w>
chl oroqu
#cit e_note
8 f
? ac
A S</w>
A char
B lu
E pis
H az
I IM
J al
M N
N ur
S and
S itu
T our</w>
T ren
T akes</w>
U ne
V as
W ire</w>
b omb</w>
d _
e ase</w>
g end
g hal</w>
n n
n am</w>
r o</w>
s at</w>
s ans
t rem
x es</w>
ं ग
न ि
प ा
ल े
in ?</w>
in spired</w>
on es
on ic</w>
re di
re sig
ti se</w>
it ed.</w>
ec e)</w>
ri gh
wh y-
lo ses</w>
ad ding</w>
the ir
ab led</w>
op t</w>
de ar</w>
de pic
un t</w>
si m
be ef</w>
ak h
pe an
ir atory</w>
ed ge</w>
pl ate</w>
im men
ain .</w>
to k</w>
et s.</w>
ut en
sc rat
comm its</w>
shi pping</w>
mar ked</w>
fac tors</w>
Po in
Pro ject</w>
dec ides</w>
plac es.</w>
boo st</w>
Ma p</w>
man 's</w>
loc ated</w>
ly rics</w>
ari ous</w>
wom en
work s.</w>
Me ghal
og y
2020 )</w>
Se x</w>
Covid 19</w>
lak h
tra um
tra dic
ers ’</w>
contro l
Jo int</w>
sum mar
Tu k
appe ar
Sour c
manag ing</w>
sk in
dar k
employ er</w>
techno logies</w>
head ed</w>
i. e</w>
photo grap
initi ally</w>
land .</w>
great est</w>
urg es</w>
exc use</w>
Kan pur</w>
public .</w>
there ’s</w>
smo o
guid ance</w>
thous and</w>
swit ched</w>
func tion</w>
Ru le</w>
coo king</w>
Pakistan 's</w>
Loc ation</w>
problem s.</w>
Bhak t</w>
affec ting</w>
foot age</w>
Cent re
fra ud</w>
conflic t</w>
deter min
advis ory</w>
Mangal uru</w>
Covid-19 :</w>
&utm_ medium
aad har</w>
Ann oun
One Plus</w>
bac hel
Gho sh</w>
territ ory</w>
Apr il
Commission er</w>
Dav inder</w>
Chha pa
andro id</w>
Owa isi</w>
pd f</w>
Subram anian</w>
Corrup tion</w>
JNUS U</w>
mobile .
# COVID19</w>
( F
/ ](https://www.
1 f
3 4</w>
5 5</w>
6 V
7 00
B R
B y
B him</w>
C a
C up</w>
L ow</w>
M yan
R .</w>
S pic
[ Read</w>
b c
b ic</w>
b ollywood</w>
i e</w>
k y
k ick</w>
l un
m r
n 't.</w>
r ational</w>
s si
u ri
v es
x x
ক া
in qu
ti sh
en ge
ha bad</w>
li ver</w>
no ted</w>
ur ine</w>
am ble</w>
ab or
ic s.</w>
ag i
tr i</w>
ch e</w>
ch y</w>
su peri
go ?</w>
pe ak</w>
mo re-
for d</w>
sp are</w>
ain t</w>
"" We</w>
tic .</w>
av an</w>
ow s</w>
.. ...
ra di
Ch op
sel ect</w>
str y</w>
str ange</w>
St ri
bo ther
pri de</w>
cont ains</w>
Mo s
ment ality</w>
sid ers</w>
her o</w>
nation al-
dit ure</w>
VI DE
sy llab
bl ue</w>
On ly
des ire</w>
Ex ec
ful l-
wan t.</w>
Be tter</w>
Do ing</w>
Wor k
trav elled</w>
vers y</w>
ref l
ref lec
grou p.</w>
Qu otes</w>
Modi :</w>
Le ts</w>
war ri
colle agues</w>
fli pkart</w>
Im ple
igh t.</w>
pass word</w>
mor tality</w>
appro ached</w>
suppor ter</w>
sugges tions?</w>
I’ ll</w>
IS IS</w>
nor th</w>
Bo ss</w>
Jan u
Her e’s</w>
search =true
appe aring</w>
arr ang
Har v
deb t</w>
reco ver</w>
cli ents</w>
Mu ghal
Coronavirus .</w>
Or g
mom ent.</w>
wel fare</w>
IA M
photo graphy</w>
Ji o
win dow</w>
mod els</w>
spir itual</w>
expres sion</w>
Fac ial</w>
organi zed</w>
Parliam entary</w>
able ?</w>
Tur key</w>
ignor ing</w>
Pers on
bag s</w>
Commun ic
Reg arding</w>
2019/ 11/
IL L</w>
revol ution</w>
revol ution
wast ing</w>
Leg al</w>
swee t</w>
rea u</w>
descri p
Trump 's</w>
=1& from_
Jud ge</w>
Malay al
DN A</w>
Smar t</w>
compens ation</w>
propos al</w>
policem en</w>
rank =
](https://www.indiatoday.in/ india/story/
podcast s</w>
Judi ciary</w>
schol ar
accom mod
everyone !</w>
criteri a</w>
Environ ment</w>
adequ ate</w>
COR ON
nb sp;</w>
Whe ther</w>
Durg a</w>
?ac =1&from_
mobile. twitter.com/
search=true &qid=
?ac=1&from_ search=true&qid=
& rank=
& nbsp;</w>
3 8</w>
4 f
A x
B .</w>
B er
B raz
D ate</w>
E LI
G ST
N early</w>
R ab
S A
S atish</w>
U t
U )</w>
W ay</w>
[ here
a hmed
b angal
c al</w>
i _
i ght
k in</w>
o vern
p m.</w>
s "".</w>
t ant</w>
t ful</w>
u al
y ar</w>
z aff
त े</w>
न ी</w>
് ക
in conveni
re forms</w>
re placed</w>
it :</w>
at ra</w>
as ser
ec o
In do-
no ise</w>
le m
le ?</w>
vi si
ab usive</w>
com pu
po lit
po or.</w>
un -
un ited</w>
se :</w>
se as
se tup</w>
ex posure</w>
wor se.</w>
and ra</w>
ear th</w>
gr at
ind ul
et ary</w>
fi ghts</w>
any way.</w>
St ories</w>
-1 )</w>
ve getables</w>
can cer
cre ation</w>
cre te</w>
loo se</w>
ass emb
Pro -
mis s
sha re.</w>
Su pp
politic s-and-
des i</w>
Ex pres
.in )</w>
inv o
Me it
Gu id
lic en
2020 /03/
air ports</w>
hop es</w>
stor y.</w>
uni on</w>
sen si
what -
sl um</w>
hom e-
Ad voc
Bi o
interest ing.</w>
25 0</w>
avail ability</w>
es- to-
Amaz ing</w>
ma har
Sec tor</w>
thre ats</w>
appreci ated
Can ad
Wom en's</w>
rep air</w>
inde x</w>
Kashmir :</w>
foo t</w>
main ten
mob il
https://www. youtube.com/watch?v=
Tri ed</w>
Tri pura</w>
mer ce</w>
people -
Fin al</w>
90 %</w>
abad -
applic able</w>
Si x</w>
Gen er
AI IMS</w>
accep table</w>
diffic ul
threat ens</w>
hor ror</w>
typ es</w>
apo log
judg es</w>
Mis sion</w>
qui red</w>
conv in
repe at
piec es</w>
mad hya-
Hu ge</w>
IIT s</w>
asp ect</w>
tuk de</w>
objec tive</w>
Deep ak</w>
utt ar-
TL ;
volunte er</w>
thought s.</w>
DR :</w>
fresh er</w>
Chandr ashe
pel ting</w>
Anal y
&qid= 158
Independ ence</w>
ski p</w>
regre t</w>
statis tics</w>
Savar kar</w>
magaz ine
Alla habad</w>
instit utes</w>
scroll .in/
compul sory</w>
Recomm end
pse u
Ghaz i
Shim la</w>
Prag ya</w>
More over</w>
excell ent</w>
Jyo ti
politics-and- nation/
" A</w>
( no</w>
( especially</w>
* “
/ s</w>
/ -</w>
4 G</w>
5 /
5 b
C ir
D y
D ad</w>
G ad
H as
H ous
J i</w>
L in
M M
M US
O la</w>
T ir
a pe
c enter
d l
e i</w>
g d
g aller
h ul
j ab
l oud
p lo
u j
u v
w est</w>
w hats</w>
क ्या</w>
म ु
श ्
” *</w>
🙏 🏻</w>
th en
in /
in ste
ti ed</w>
ti es/
ar rog
el ed</w>
as sistance</w>
In tro
ur b
lo d
Th us</w>
Th ought</w>
de vices</w>
de adly</w>
un ning</w>
si ve.</w>
be ats</w>
pro ves</w>
ay i</w>
20 %</w>
20 21</w>
ir rit
mo on</w>
ex ic
ci es.</w>
qu al
gr ound.</w>
ai pur</w>
don ations</w>
ra 's</w>
201 3</w>
ser vice
cont acting</w>
fir st-
ment -
ack nowledge</w>
stat e
la b</w>
you 'd</w>
low -
s- of-
boo k.</w>
19 .</w>
ph r
gen e
fic ations</w>
ach .</w>
As king</w>
reg im
En d</w>
pic s</w>
etc .)</w>
bro ad</w>
bro ther
movi es.</w>
bor ing</w>
mark ar</w>
hospit al
Im am</w>
tra dition</w>
cou ples</w>
cast es</w>
IS Ps</w>
ers '</w>
So on</w>
isi on</w>
mid -
def ense</w>
sk ill</w>
Vir at</w>
ER E</w>
open s</w>
.html ](https://www.
hr s</w>
less ly</w>
larg ely</w>
fo rec
YO UR</w>
transp ort
4- 5</w>
provi der</w>
TR AI</w>
tel angan
Sat y
/03 /2020|
affor dable</w>
schem es</w>
Lead ers</w>
servic es.</w>
house hold</w>
helpl ess</w>
Mil itary</w>
vali dity</w>
unemploy ed</w>
Ob viously</w>
Wel fare</w>
tin y</w>
See ing</w>
Chandr ay
speech es</w>
sanitiz er</w>
isc al</w>
broad band</w>
grocer ies</w>
night m
freel ance</w>
push ing</w>
kit ch
displ ay</w>
Mani pur</w>
below .</w>
CT C</w>
Health care</w>
resc ue</w>
though .</w>
ridicul ous</w>
Han uman</w>
premis es</w>
Watch :</w>
quer ies</w>
Fem ale</w>
Electron ics</w>
luck y</w>
electoral- bond
Fren ch</w>
Oly mp
Ini ti
Wedn esday</w>
#cite_note -
* ""
3 3</w>
8 /
B P
B E</w>
B ach
C I
C N
C ow</w>
C ard
C hak
C lick</w>
D C</w>
D aw
E ach</w>
F lo
H ai</w>
K e
L .</w>
L angu
M ata</w>
O k</w>
O disha
S he's</w>
T ig
V ice</w>
Z o
] ](https://en.wikipedia.org/wiki/
a str
a than</w>
c able</w>
e x</w>
e ye
f ers</w>
f ool
g and
k ya</w>
p it
p an</w>
p ly</w>
s nee
t ut
t ely</w>
u als</w>
w ai
भ ार
ै से</w>
in strum
en i
ha Gand
ha i.
at er</w>
li es.</w>
el in
il y.</w>
In do
ab used</w>
op tions?</w>
com prehensive</w>
un a</w>
un constitutional</w>
ag it
ne arest</w>
ak i/
tr ained</w>
ch in
ch ina</w>
se eds</w>
ing ’</w>
hi l</w>
pl ane</w>
pl enty</w>
ev acu
por tion</w>
tic k</w>
Wh enever</w>
aw ard</w>
he at</w>
so le</w>
-1 0</w>
form al</w>
Ar ti
bu tt
ack nowled
No tice</w>
pos it</w>
wat er.</w>
nation alist</w>
ide al</w>
ide a.</w>
oc ks</w>
Ma x</w>
10 .
r/ India
cha n</w>
politic ally</w>
rel ation</w>
15 00</w>
Me :</w>
day s?</w>
pur i</w>
2020 /0
IN C</w>
sol o</w>
int oler
Be autiful</w>
does nt</w>
trav ell
clo thing</w>
pan ic
Vi ve
Vi jay</w>
Ra p</w>
hom e?</w>
Le h</w>
Le tter</w>
comment s)</w>
Pl aces</w>
del ayed</w>
16 0
prom p
prom inent</w>
mess aging</w>
ris ks</w>
tific ial</w>
inst all</w>
arr ange</w>
they ’re</w>
suc ks</w>
jus tified</w>
Wi Fi</w>
sk ep
oper ative</w>
Pu ja</w>
Sab ha
Mu zaff
hind ut
Sc oop</w>
today !
necess arily</w>
figh ter</w>
recommend ation</w>
mem ory</w>
expen ses</w>
gar bage</w>
mone y?</w>
Lat er</w>
INDI A
Gre en</w>
tren ds</w>
Stat us</w>
arri ve</w>
feed ing</w>
fem al
brut al</w>
bb c
influ enced</w>
idi ty</w>
news 18
Tal k</w>
face book</w>
Fr ance</w>
throw ing</w>
Rel ation
announc ement</w>
equi pped</w>
nur ses</w>
sleep ing</w>
Smar t
Afri ca</w>
rou ter</w>
neighbor hood</w>
Rag hur
Set u</w>
ventilat ors</w>
dict ator
Exclusi ve:</w>
count less</w>
facebook.com/ Saj
tomorrow .</w>
NrcProtest /status/123
expi red</w>
assaul ted</w>
circumst ances</w>
patter n</w>
Consi dering</w>
knowled ge
Eff ec
hindustan times.com/
Kashy ap</w>
Festiv al</w>
Epis ode</w>
Only Scoop</w>
Org ani
haGand aki/
facebook.com/Saj haGandaki/
facebook.com/SajhaGandaki/ videos/
- 2
3 :</w>
4 c
5 0000</w>
6 e
: 00
A IM
B ho
B ob
B ail</w>
B igg
B CC
C ast
D D</w>
D hon
D augh
G ita</w>
K ota</w>
L al</w>
M en
M au
P etro
P UB
S cre
U I</w>
V ad
b f
c au
c elebrities</w>
d b
j ee
j ee</w>
l ar</w>
m asked</w>
n ic</w>
n uclear</w>
s no
t ude</w>
w edd
y a-
z a</w>
| 1
र ी</w>
th ri
er t</w>
re )</w>
ti l
st ation.</w>
al t
il -
In sur
ad ed</w>
is e.</w>
ab et
tr a.</w>
gh o
se g
20 000</w>
con sent</w>
mo hf
ul ate</w>
od d</w>
im pose</w>
and er</w>
ev en
to ys</w>
An g
An sw
me tro
ist er</w>
ow ing</w>
par ano
](https:// imgur.com/
fe asi
co s</w>
up load</w>
bo red</w>
fac e-
ser ver.</w>
aj a</w>
app a</w>
dec line</w>
dec lar
dr one</w>
her self</w>
cri p
emp ire</w>
ll a</w>
ques tioned</w>
Com ing</w>
dis aster</w>
cer em
Pr in
Pr akash</w>
sub missions.</w>
cha o
gre g
work ing.</w>
Pe ace
posi tions</w>
posi tive-
acc us
det ain
air y</w>
air craft</w>
wal ks</w>
wal ked</w>
14 th</w>
Ad vis
men .</w>
direc tions</w>
Res p
dre ams</w>
Protest ing</w>
anti- national</w>
deli ber
50 -
poll uted</w>
appro xim
mess ed</w>
toge ther
ush ed</w>
expl ore</w>
defin ed</w>
Or ders</w>
To ge
Pol l</w>
ret ail</w>
sug ar</w>
Kar markar</w>
death .</w>
crow d
plat form
gl asses</w>
Cont ent</w>
Ur ban</w>
public ly</w>
ton ight</w>
smo ke</w>
word s.</w>
fem in
000 -
super power</w>
believ ing</w>
believ es</w>
idi ot</w>
bank .</w>
categ ori
refuge e</w>
VE :</w>
slog an</w>
bott om</w>
Hon est
teac her
stic ki
strong er</w>
affec ts</w>
parti tion</w>
covid19 _
kan th</w>
extre mis
spread s</w>
quali fied</w>
Keral a.</w>
Keral a:</w>
World 's</w>
04 /04/2020|-|-|-|-|Hospitalized|Details</w>
argu ing</w>
mumb ai
surg ical</w>
Rav i</w>
skill s.</w>
Electri c</w>
depart ments</w>
libr ary</w>
temper ature</w>
rom an
Bet ween</w>
deploy ed</w>
Foo t
Psy cho
lifest yle</w>
Champi on
droxy chloroqu
' S</w>
( D
( even</w>
1 1.</w>
8 th</w>
? *</w>
A jay</w>
B is
C aste</w>
C inem
F W
F B</w>
F UC
G ames</w>
H ome
K CR</w>
L iter
M i</w>
M ain</w>
M exic
P od
R ana</w>
S even</w>
S ign
S ign</w>
T it
T 20</w>
V C</w>
V and
X ia
[ Discor
_ and_
a '</w>
d up
e at
e ot
e fully</w>
f ty</w>
g ent</w>
h ill</w>
i )</w>
k )</w>
m m</w>
o g</w>
p ages</w>
s m</w>
s ati
s ne
s ation</w>
s ay.</w>
t es</w>
x -
® ️</w>
ल ी</w>
“ I</w>
in j
an :</w>
an g</w>
an and</w>
an ’s</w>
er r
er ly</w>
re pres
re new
re charge</w>
ar ound.</w>
ou ts</w>
it em
it arian
ro b
es sible</w>
li tion</w>
In cre
vi sion
ur s</w>
ad ul
is o
po ol</w>
de posit</w>
pro sp
su ck
con crete</w>
ter ing</w>
mo le
ent 's</w>
sp ite</w>
od es</w>
to :
gr ati
ind ing</w>
et ings</w>
(https:// old.reddit.com/r/india/comments/
](https:// m.
](https:// timesofindia.indiatimes.com/city/
](https:// discord.gg/
ce -
poli cy
cl ap</w>
gu j
co ordin
so ap</w>
any one.</w>
all ?</w>
201 0
sti ll
St anding</w>
thin k.</w>
Pro pag
Ma hind
Sha k
De part
Pr atish</w>
sub sequ
mil d</w>
rem ained</w>
des c
anc es.</w>
mat ches</w>
reg ards</w>
cu ri
viol ate</w>
bre ach</w>
hand ed</w>
Be ach</w>
det ail</w>
who -
clo sely</w>
Inter esting</w>
Raj an</w>
Ra pe
stric tly</w>
trans lation</w>
25 0
stre t
40 32
amm ed</w>
poll ution
tech nic
Ro y</w>
bri be</w>
Rec ip
60 8
was n’t</w>
health -
Hi !</w>
lab or</w>
Har yan
visit s</w>
reco vered</w>
langu age.</w>
protec ted</w>
fav or</w>
bar s</w>
App lic
alleg es</w>
Bu reau</w>
ret ali
ance ?</w>
Kar an</w>
J& K
implement ing</w>
gl ad</w>
Govern ment.</w>
Pat na</w>
Ko hli</w>
altern atives</w>
Per haps</w>
conv inc
hus band
Islam opho
repe ated</w>
]( mail
Seri ous</w>
categ or
decl are</w>
bott le</w>
HE L
41.png?width= 1024&format=png&auto=webp&s=
harass ed</w>
Ear lier</w>
opinion /
Opini on:</w>
Ambed kar
Pho to</w>
wast ed</w>
withdraw al</w>
adop t</w>
neutr ality</w>
industri es</w>
bod y.</w>
intel lig
Prof ession
shif ted</w>
surg ery</w>
nar row</w>
she er</w>
electron ics</w>
Isra el
1.htm l)</w>
Ow n</w>
accountab ility</w>
prohi b
dele ted</w>
omet ric</w>
outr age</w>
legisl ative</w>
Suic ide</w>
newspap ers</w>
Marri age</w>
egg s</w>
postpon ed</w>
dies el</w>
Maid an</w>
Sach in</w>
Benef its</w>
Poin ts</w>
repeat edly</w>
Raghur am</w>
[Discor d
](mail to:
" Is</w>
# India
+ thread
1 1.
4 000</w>
5 d
5 1</w>
6 /
6 00</w>
9 1
9 9</w>
9 00
? keywords=
A ward</w>
B G
B us</w>
C B
C ut</w>
D re
F )</w>
H undreds</w>
K i
L al
M oun
N u
N one</w>
N GO</w>
O P
P al</w>
P ut</w>
Q U
R A
S ale</w>
S ab</w>
S wiggy</w>
W in</w>
a x
b ang
c =
d ad
d are</w>
e z
e ).</w>
f ashi
f asci
i est</w>
m illenni
r and
s ak
t u</w>
u -
v s.</w>
ह ो
‍ ♂
‘ I</w>
in y</w>
in ev
an ?</w>
re vo
re sign</w>
ti s</w>
en counter
st ays</w>
st ake
ha ting</w>
al read
at e?</w>
at ely.</w>
ro s
ro ck</w>
es pread</w>
ac id</w>
In ju
ur s
lo ading</w>
ab using</w>
ag ger
ch ed
pro ven</w>
su n</w>
20 )</w>
ter -
for gotten</w>
sp y
ff ic</w>
per -
por t.</w>
id ly</w>
"" *</w>
ai red</w>
et -
sc ams</w>
aw k
hel l
Ch o
any time</w>
all y-
sel fi
Re acts</w>
tri ck
pu pp
fac e.</w>
fac ulty</w>
rec ently.</w>
Ar un</w>
Hind us
sec retary</w>
Mo ve</w>
ass ess
eng lish</w>
protest s-
lin es.</w>
sha w</w>
issu e?</w>
De al</w>
De aths</w>
12 .</w>
tal k
cor ner</w>
publi sh
call .</w>
rel ess</w>
rem inder</w>
poin t
aff air
differ ent.</w>
day -
day 's</w>
It ali
sol ution
hu b</w>
pic king</w>
air lines</w>
show .</w>
entr ance</w>
ref er</w>
wal let</w>
Delhi -
sen se.</w>
what ?</w>
pan ts</w>
my st
Dec ember.</w>
war .</w>
war m</w>
movi e.</w>
hospit al.</w>
Ho tel</w>
Res ults</w>
incre ases</w>
ace u
Rec ord</w>
37 0
inst all
pi zz
-b ill-
Har sh</w>
mid d
Tri p</w>
ity :</w>
NO T
La un
long .</w>
fal sely</w>
crow ded</w>
land l
ji o</w>
mast er</w>
choo sing</w>
document ary</w>
way s.</w>
altern ate</w>
Boo k
Sy st
Ye ah</w>
Tur n</w>
behavi or</w>
Him alay
LE AS
Ja ish
store /
Kore an</w>
bill .</w>
soli d</w>
Bra hmin</w>
eli min
Bl ack
Corona Virus</w>
compani es.</w>
clas s.</w>
LP G</w>
figu red</w>
sanitiz ers</w>
Bengaluru :</w>
live li
bigo try</w>
Cy ber</w>
Tra ffic</w>
critici ze</w>
gang -
wil d
Camp aig
—— ——
shu tting</w>
Chow k</w>
incredi bly</w>
NCR B</w>
conclusi on</w>
hygien e</w>
Oni on</w>
print .in/
geno cide</w>
implic ations</w>
Orig inal</w>
Lit tle</w>
Simil arly</w>
UA E</w>
emi gr
Micro soft</w>
Huss ain</w>
Jawa har
Calcu tta</w>
Vaj pay
convin ced</w>
galler y/
Mau j
mohf w.
" My</w>
' I</w>
- a-
- i-
2 b
5 f
7 /
9 e
9 )</w>
A am
A void</w>
B attle</w>
C GP
D al</w>
E ss
F u
H P</w>
H T</w>
I w
I B</w>
I F</w>
L ine</w>
L earning</w>
M emb
M ental</w>
V ER
W edding</w>
X 7f
Y am
b har
b id</w>
c ms</w>
d c
d ude</w>
f its</w>
f law
f ar.</w>
g )</w>
h ra</w>
i v</w>
k u
z one</w>
ड ़
্ য
th usi
an them</w>
on ing</w>
re wards</w>
re marks</w>
ar shan</w>
en a</w>
or g</w>
di verse</w>
es sive</w>
el ements</w>
ac le</w>
us er
ri ers</w>
Indi Go</w>
ur am</w>
ad a
is s
de fault</w>
un aware</w>
ag o
be auty</w>
ol es</w>
ak a</w>
tr ail
tr ucks</w>
ch equ
pro vo
pe d.</w>
ex ternal</w>
oo d.</w>
ge ar</w>
sp am</w>
qu ery</w>
are :</w>
An d
An ci
ang a</w>
India ""</w>
don ated</w>
cl arity</w>
ra ditya</w>
res ort</w>
201 4
St atis
tim eline</w>
enti ve</w>
Con vic
ass y</w>
stat ement
No te:</w>
eng ine</w>
low est</w>
every where.</w>
her o
out -
VI R
Sh ankar</w>
Poli c
sub reddi
elec tion
bl ames</w>
mp tom
Co p</w>
Co st</w>
happen ing.</w>
15 -
this :</w>
En try</w>
posi tion.</w>
ani a</w>
Dis crimin
sol ar</w>
int ended</w>
acc essible</w>
ami a-
Chin may
air tel</w>
educ ation.</w>
What ever</w>
Qu e
Raj ini
Raj iv</w>
tow n
US A.</w>
ran t.</w>
fli ght
He ar</w>
Pre mi
del ay</w>
job ?</w>
13 th</w>
Ab du
17 th</w>
world wide</w>
Au g</w>
answ er.</w>
answ ered</w>
exam s.</w>
Rec ei
sum mary</w>
rele ases</w>
cus es</w>
29 X7f
thread s</w>
health .</w>
bir d</w>
Nor th-
PM 's</w>
NRC :</w>
deb ates</w>
Ri ot
cli ent</w>
Econom ics</w>
ER IO
incid ent.</w>
Mu ghal</w>
90 s</w>
IF S</w>
vari ety</w>
ough ly</w>
Gi ft</w>
Pol ls</w>
sist ing</w>
bha i</w>
fiel d.</w>
expen diture</w>
suic ide
prep are
reason ing</w>
gni z
.gov /
draw ing</w>
Fil m
neighb our</w>
ND TV
AC T</w>
Sal es</w>
depend ing</w>
Sw amy</w>
deal er</w>
mm ad</w>
hous ing</w>
provi sion</w>
Ahmed abad
grand parents</w>
5- 6</w>
Bhag wat</w>
reve al</w>
clu b</w>
rout ine</w>
bott les</w>
estab lish</w>
sto ck
Direc tor</w>
Jav ade
mechan ism</w>
rid or</w>
motiv ation</w>
lyn ching</w>
circul ated</w>
satis fied</w>
Nar ay
scoo ter</w>
Isra el</w>
Rash tra</w>
indianexpress.com/article/ india/
period .</w>
assum ing</w>
four th</w>
Ple a</w>
contri bution</w>
Canc er</w>
legi timate</w>
Mess age</w>
hash tag
Comple te</w>
attend ance</w>
leng th</w>
economictimes.indiatimes.com/news/ politics-and-nation/
Tomor row</w>
6V 29X7f
Jyoti raditya</w>
Honest ly</w>
sticki ed?</w>
Abdu l</w>
6V29X7f )</w>
! ""</w>
( T
( with</w>
( I'm</w>
( including</w>
/ ](https://
2 c
8 %</w>
B hat
B rit
C are</w>
C aught</w>
E P
E li
E ver</w>
F it
F ellow</w>
L E</w>
L ev
L ow
M T
M ac
P -
P on
R S</w>
R ow</w>
S HO
T MC</w>
U FO</w>
W W
W ILL</w>
Y a
Y O</w>
Z ind
b acked</w>
d 3
d p
e ffici
f ever</w>
g -
g ori
l uck</w>
n l
p _
r anks</w>
s -1
s ought</w>
t f
t ari
u g</w>
u tter</w>
w ash
z o
े ं
in spec
er ror</w>
on d-
re mark</w>
ha in</w>
al ist
ro gation</w>
es war</w>
ac t-
le :</w>
am ended</w>
lo ads</w>
ad es</w>
ab s</w>
ic i
sh ock</w>
un educated</w>
be di
tr ash</w>
pro v
em e</w>
20 s</w>
con clud
mo ds</w>
for th</w>
pl an.</w>
ud es</w>
ind uc
der s.</w>
indi rec
co m</w>
ra .</w>
Ch urch</w>
ho le</w>
ho arding</w>
tri ps</w>
pu ted</w>
app lies</w>
cur ve</w>
s- to-
Ma ha</w>
CO N
man y.</w>
thr ashed</w>
fic it</w>
Pr at
loc ality</w>
As ks</w>
alis ing</w>
rel ate</w>
Mar ka
down -
Gu ha</w>
Pe gas
fr ame</w>
IN D
18 th</w>
Inter net
produc tive</w>
ber g</w>
part n
IT Y</w>
aim s</w>
writ er</w>
Protest ors</w>
tra it
cast e
prof ess
view :</w>
lik e.</w>
mit ting</w>
sus pen
28 th</w>
arr ass
Hospit als</w>
cy ber
und red</w>
reco ver
sever ely</w>
Cl aim</w>
Bri tish
shar p</w>
IM F</w>
NO W</w>
laun dr
To k
&s= books
figh ters</w>
immigr ant</w>
Bhar ati
PS A</w>
offici ally</w>
AM A</w>
Rem ar
document ed</w>
realis tic</w>
Br ut
sof tw
hindu -
agre es</w>
arri val</w>
roll ing</w>
hun gry</w>
depend ent</w>
dise ases</w>
brut ally</w>
speak ers</w>
coo ked</w>
Chan nel</w>
addres sed</w>
ved a</w>
With in</w>
acqu aint
IG NO
foreign er</w>
arch itec
sent ence</w>
princi ple</w>
belong s</w>
lef ti
where in</w>
clari fy</w>
veget able</w>
fund rais
charac ter</w>
mumb ai</w>
commis sion
Sel f-
a. n</w>
Lawy er</w>
Jay anti</w>
Twee t</w>
Auth ority</w>
Camp us</w>
privac y
diagno sed</w>
demone tisation</w>
children .</w>
anonym ous</w>
**** ****
Sud hir</w>
Peti tion</w>
Alleg edly</w>
content /
distur bing</w>
Lank an</w>
bes ides</w>
Val ent
Buddh ist</w>
Bh ut
Exper ts</w>
Too k</w>
/view?usp=shar ing))</w>
Amit abh</w>
Kish or</w>
Paduk one</w>
Sabar im
Experi ence</w>
ecli pse</w>
wire .in/
Situ ation</w>
Tuk de</w>
Sourc es:</w>
Mos que</w>
&rank= 1)</w>
Xia omi</w>
](https://discord.gg/ 6V29X7f)</w>
[Discord ](https://discord.gg/6V29X7f)</w>
Jawahar lal</w>
gori th
" [
& h
( R
( 19
. asp
1 b
1 20</w>
4 80
5 c
6 f
6 5</w>
7 2</w>
A po
C off
D ha
D ang
F D
F E
F L
F AS
G A</w>
H and</w>
H at
K ir
K ani
L u
M illion</w>
M akes</w>
N H
N L
N Y
N ations</w>
P ap
P lat
S ir</w>
T y
W hats</w>
a !</w>
b ak
b ound</w>
b eng
c abinet</w>
e uro
f low</w>
f ish</w>
f iscal</w>
h ang
i v
k ni
k ms</w>
m ate</w>
m any
m aid</w>
n ine</w>
o cr
p en</w>
p ays</w>
r ak
s wi
s tick
v .</w>
w s
द ा
म ्
स ु
ह ा</w>
ന ്
in ate</w>
on ai
on .org/
re tired</w>
re sistance</w>
ti f
ti le</w>
en cryp
st on</w>
st amp</w>
ha ve
it iner
om ing</w>
ro o
ro ot</w>
as sh
ac ed</w>
us e?</w>
Th ird</w>
ab sur
ab les</w>
ver dic
un limited</w>
be gg
tr y
tr apped</w>
ay e</w>
ed ""</w>
ci vic</w>
ge t-
wor th
pre t
im pres
gi l</w>
id ?</w>
An gry</w>
me als</w>
gr amm
av an
.com )</w>
har ma</w>
St or
St aff</w>
Re al
shi el
pri ce.</w>
-1 2
fac t-
year s?</w>
fir st.</w>
tim ately</w>
Hind us.</w>
Mo m</w>
mis er
mis sion.</w>
dis appointed</w>
sub s</w>
loc ations</w>
gre gation</w>
publi sh</w>
elec om
Ex am
anc ell
inv ites</w>
aff air</w>
cu z</w>
resp iratory</w>
Par t
Ci vili
int ent</w>
too ?</w>
dem anded</w>
who .in
Di vid
Cour ts</w>
Qu ora</w>
mark et.</w>
Se el
Ho li
direc tor</w>
Res our
Res olution</w>
tra p</w>
well ?</w>
IS P</w>
recei ves</w>
You 're</w>
concer n
den ying</w>
spo tted</w>
cust ody</w>
chi at
requi red.</w>
Mon ths</w>
engine ers</w>
bul let</w>
decisi on.</w>
70 %</w>
lap tops</w>
tran si
gradu ates</w>
abad /
mind ed</w>
RT C</w>
win ner</w>
tit le.</w>
Mal vi
invest ors</w>
great .</w>
collec ting</w>
collec tive</w>
exc ited</w>
Ko chi</w>
cen ters</w>
Chil dren
Mas sive</w>
increas ingly</w>
oni ons</w>
manufac tur
reduc ing</w>
Ear th</w>
Cap ital</w>
dur ation</w>
proce ed
meth ods</w>
Gir ls</w>
Pi y
lef t.</w>
psycho logical</w>
Link ed
Sum mit</w>
Tele graph</w>
thro at</w>
mechan ical</w>
Bengaluru .</w>
degre e.</w>
charac ter
progres sive</w>
Dri ve</w>
cryp to
Muk esh</w>
ern ity</w>
Blo od</w>
np .
cher ry</w>
delet e</w>
Sadh guru</w>
lau gh</w>
laz y</w>
Did n't</w>
prote in</w>
perpe tr
Achar ya</w>
Harv ard</w>
Chandrashe khar</w>
hai. n</w>
Chinmay anand</w>
Marka z</w>
( at</w>
( The</w>
- 2019
- coronavirus-
0 8
3 9</w>
7 %</w>
9 th</w>
B 2
B es
B ose</w>
B onds</w>
C ali
C lear
D in
D il
E R</w>
E astern</w>
F und
I IM</w>
L on
M ed
M uch</w>
N E</w>
O il</w>
T -
T .</w>
T H</w>
T on
T IM
U K
V in
W ent</w>
W ants</w>
a e
a ver
b is
b id
b y.</w>
b ond</w>
c af
c up</w>
d enti
e ’</w>
f low
j unior</w>
n )</w>
o ved</w>
p in
p ter</w>
p lot</w>
p raising</w>
r ank</w>
s adly</w>
t .com/
t umb
w /
w ing
w ill-
क ैसे</w>
ग ा
च ्या</w>
त ो</w>
म ि
स ं
ക ്ക
് ട
an j
re present</w>
ti e</w>
ti sing</w>
st )</w>
di wali</w>
al 's</w>
al ot</w>
it )</w>
ro aming</w>
ac tions.</w>
ec e</w>
ri ck
ad ults</w>
is a</w>
ab laze</w>
op pres
po ore
de port
de struction</w>
ch ill</w>
su itable</w>
go ti
em ail
ed er
hi er
tion )</w>
qu int
to h</w>
"" "</w>
gr and</w>
av a</w>
don ating</w>
indi ank
gu ard</w>
co ol
fi ed.</w>
201 6
Re presentation</w>
ard .</w>
jo in
mar gin
again ?</w>
ve t</w>
rec all</w>
form ing</w>
ni a</w>
Mo del</w>
Con ference</w>
happ iness</w>
ye h</w>
Al ways</w>
dat es</w>
lin e:</w>
200 3</w>
200 8</w>
Tr ack
sur ren
bas is.</w>
Poli tici
Pr ac
ari ans</w>
doc /
bl ess</w>
disc re
poin ting</w>
mat ure</w>
pow der</w>
Ci tizen</w>
ob s
lat e.</w>
hand s.</w>
Do g</w>
ki a</w>
sen tim
respon se.</w>
countri es?</w>
Ad d</w>
Dec emb
Le ave</w>
colle ague</w>
conf isc
Pl ans</w>
Se dition</w>
25 th</w>
Pre p
Ap pe
CAA ?</w>
lim its</w>
anti- Muslim</w>
dam aged</w>
exam ple
remo tely</w>
list ing</w>
thou ght.</w>
cho sen</w>
lu gg
quarant ine.</w>
tab le
rit i</w>
Sur vi
hur ts</w>
La unch</w>
Tha il
Ni tin</w>
articl es/
from ?</w>
Des i</w>
canc ell
threat en</w>
gl ori
has ab
trib ute</w>
neighb ors</w>
hai .</w>
Fun ny</w>
ke en</w>
speak er</w>
Fore st</w>
pot entially</w>
societ y
loy ment</w>
grand father</w>
reser v
That ’s</w>
represent atives</w>
news .in/
Shah ’s</w>
bett er?</w>
addres sing</w>
Bal ak
warn ed</w>
mask s.</w>
epis odes</w>
Cam era</w>
Adityan ath
Ver dict</w>
deep er</w>
Emp lo
Cal cul
Jag an</w>
monit oring</w>
pil gri
Pur i</w>
thro ws</w>
establish ment</w>
dev ast
industri al</w>
Under standing</w>
freel anc
sust ain
blog /
Rele ase</w>
attrac tive</w>
competi tive</w>
Khan 's</w>
safegu ards</w>
&t= all)</w>
sat ell
Bangladesh .</w>
carto on</w>
NEE T</w>
Dead line:</w>
divor ce</w>
blat ant</w>
Reser ve</w>
.nic .in/
gith ub
Abdul lah</w>
Budd hi
Hello !</w>
vig il
Birth day</w>
threads.](https://www.reddit.com/r/india/search ?q=Weekly+
regard less</w>
hes it
Srin agar</w>
moratori um</w>
&sort=new &t=all)</w>
Moder n</w>
&restrict_sr=on &sort=new&t=all)</w>
syllab us</w>
Mughal s</w>
Dhon i</w>
approxim ately</w>
mohfw. gov.in/
who.in t/
indiank ano
# CAA</w>
# Save
% ;</w>
) |</w>
1 )
1 a
2 %</w>
2 26
3 7</w>
3 %</w>
4 6</w>
5 :</w>
5 4</w>
5 7</w>
8 00</w>
A j
C -
C lu
D at
D as</w>
D han
E cli
F light</w>
F resh</w>
H ind</w>
J et</w>
J ama</w>
M A
M el
M ang
N on</w>
O K</w>
P in
P ack
P ari
P ort
S on</w>
S le
T ow
U .</w>
[ *
b are</w>
b read</w>
c lim
c rap</w>
d 7
e ?
e fficient</w>
f ath
f aster</w>
i or
j k
j ack
k k
k y</w>
l am
l unch</w>
n c
r ated</w>
r ash
r ating</w>
s ent.</w>
t ed?</w>
u tra</w>
u ries</w>
क र</w>
त ी</w>
श ा
ব ি
ம ்</w>
് പ
in cl
in tim
on )</w>
re :</w>
re ate</w>
re placement</w>
en force</w>
at mo
el ders</w>
ri ding</w>
wh ol
ad -
ab rogation</w>
ag es
ag ent</w>
si mul
be t</w>
ne ed.</w>
ch urch</w>
pro ving</w>
em ails</w>
ap ps/
ed _
wor rying</w>
im bat
ear ned</w>
gr ave</w>
ind s</w>
Wh er
he /
comm and</w>
gu ess
ra -
fi f
any more
res or
201 0</w>
Ne ither</w>
St art</w>
pri ority</w>
mar ch
ve dic</w>
au n</w>
star t.</w>
Mo tiv
Con tro
Pro bab
No kia</w>
la h
comp on
dr ink
mis use</w>
Al ready</w>
Sh ouldn't</w>
e- to-
Ac ross</w>
sub si
spec ul
wom en's</w>
cour t-
elec tion.</w>
Li fe
Un til</w>
Dis claim
that s</w>
vo y</w>
hand -
hand ful</w>
help /
grou ps.</w>
14 -
respon ded</w>
what so
need y</w>
produc ts.</w>
Uni versities</w>
war s</w>
Gov t.
care er.</w>
part ners</w>
Any ways</w>
AN Y</w>
Protest s:</w>
40 %</w>
ht a</w>
Sec ular
sci ence
dro pping</w>
bri ck</w>
contro versy</w>
Rec ruit
auth or</w>
Cha ud
dist anc
cro re.</w>
Whats App
For m</w>
appe ared</w>
inst ant</w>
resul ts.</w>
lab s</w>
UP :</w>
def ending</w>
one ’s</w>
hot spots</w>
Ram ach
oper ate</w>
protec ting</w>
norm ally</w>
Artic les</w>
play er</w>
your self.</w>
sex u
today ?</w>
mee ts</w>
Oc t</w>
sist ant</w>
mind set</w>
Bhar at
foc using</w>
.... ....
Hot els</w>
adi um</w>
MB BS</w>
cm s)</w>
ME A</w>
Out break</w>
Sw ami</w>
Ve dic</w>
[P ]
ke ys</w>
NS O</w>
reser ved</w>
(https://www.reddit.com/r/india/comments/ 5
gri ev
ug ly</w>
Na x
how -
few er</w>
ster eot
Popul ar</w>
prepar ation</w>
pul led</w>
Sus pend
Pi xel</w>
See king</w>
targe ting</w>
cros sed</w>
hypo crisy</w>
sin gh
crack ers</w>
Prof essor</w>
mic ro
weap on</w>
weap ons</w>
bra ve</w>
Peti tion
enem y</w>
hope fully</w>
Proble ms</w>
precau tions</w>
Cul ture</w>
hec k
source= share
ativ ity</w>
record ed</w>
tradi tions</w>
scare d.</w>
epide mic</w>
kum ar</w>
num erous</w>
declin ed</w>
advance !</w>
wonder ful</w>
Foreign ers</w>
prospec ts</w>
warrant y</w>
Vol un
Raw at</w>
Heav y</w>
[p ]</w>
Arun achal</w>
lux ury</w>
right- wing</w>
chay at</w>
[OLD ]</w>
Crimin al</w>
/03/2020|-|-|-|-|Hospitalized| Details</w>
otherwis e.</w>
foun der</w>
foli o</w>
Myan mar</w>
Chop ra</w>
alt news.in/
Mahind ra</w>
rand om
Campaig n</w>
Bharati ya</w>
Piy ush</w>
indiankano on.org/
( *
( from</w>
( Source</w>
/ her</w>
4 3</w>
5 pm</w>
6 b
6 %</w>
8 5</w>
: ***</w>
? id=
B M
B it
B UT</w>
D ab
D ON
E g
G .</w>
G or
G am
J af
L GB
M R
M ist
N T</w>
N ath
R BI
S wit
S uc
T M</w>
T or
T am
b low</w>
d al</w>
e astern</w>
f ate</w>
g ul
g ates</w>
i al-
l ag
p ad
p age.</w>
r age</w>
s ons</w>
s ys</w>
s killed</w>
t one</w>
t ""</w>
t ell
v ague</w>
w are
ए क</w>
द ी</w>
न ही
া র</w>
🇮 🇳</w>
in ation.</w>
an niversary</w>
re plac
ti re</w>
ar o</w>
en able</w>
en light
or al</w>
di ya</w>
at o
as w
as se
us e-
lo l</w>
Th urs
ab ilities</w>
de fam
un fortunate</w>
ag e:</w>
be ar
be hind
be st.</w>
be half</w>
tr a-
tr ading</w>
pe .</w>
em br
oun ce</w>
20 24</w>
con tradic
hi li
hi ma</w>
od h
ps -
ps :</w>
pl s</w>
pl ying</w>
pre scri
im ported</w>
to tal
our ing</w>
id a</w>
An them</w>
av ati</w>
-- --</w>
don ates</w>
](https:// docs.google.com/
tu res
har v
har a</w>
har der</w>
gu est</w>
fi ght
sit e.</w>
some one's</w>
St ore</w>
Re as
jo y</w>
pu rely</w>
Go es</w>
Go yal</w>
au gur
br and
ren tal</w>
sec tors</w>
aren t</w>
now !</w>
mi x</w>
dec can
col or</w>
sha me
Ma th
Ma hasab
under -
De hr
Ac t.</w>
man ual</w>
fic ial</w>
spec ies</w>
new ly</w>
ru ined</w>
politic s/
econom ically</w>
Ex am</w>
Co aching</w>
Co imbat
posi tive.</w>
pur .</w>
pur poses</w>
ob serve</w>
acc ess
lat ely</w>
Be li
Be aten</w>
pic k
vers al</w>
who 've</w>
etc ).</w>
Vi har</w>
Ra o</w>
US D</w>
migr ant
aliz ing</w>
He ad</w>
them atics</w>
ask .</w>
Fir stly</w>
dre w</w>
Fe ar</w>
bur n
prom is
hal t</w>
dro ps</w>
sing ly</w>
sum mer</w>
isi tion</w>
tou gh
gur u
For ces</w>
Mon th</w>
Bha i</w>
Ay ush
oper ating</w>
pas sion</w>
Mumbai 's</w>
scen es</w>
techno log
head phones</w>
sist ers</w>
ance -
blo g</w>
Ni th
cir cle</w>
resid ing</w>
Chec k
gl ass</w>
flo od</w>
phys ics</w>
student s-
ka ha
TI ON</w>
ार ्
bann ing</w>
Fun dam
Gandhi ’s</w>
rac ial</w>
sett led</w>
shoo ter</w>
continu ing</w>
convers ations</w>
Sin ha</w>
Sin hal
Vo ter</w>
Trans lation</w>
perform ing</w>
perform ed</w>
NE WS</w>
counter -
throw away</w>
Hyderabad :</w>
AK E</w>
Anur ad
Mat ch</w>
thought s?</w>
Sm all</w>
psycho logy</w>
degre es</w>
Malay sia</w>
rid es</w>
Je ws</w>
Sel f</w>
fb cli
Cle an</w>
Kejriwal 's</w>
Gop al</w>
Baj aj</w>
wil d</w>
privac y.</w>
chem ical</w>
sust ain</w>
audi ence</w>
lett ers</w>
Soci ety</w>
laugh ing</w>
EM I</w>
would 've</w>
Proble m</w>
Government 's</w>
Savar kar
instruc tions</w>
Chall enge</w>
origin ally</w>
intellec tu
Amb ani</w>
second ary</w>
Mee ting</w>
Deli very</w>
meet ings</w>
HD FC</w>
Provid e</w>
Thought s?</w>
Hindu- Muslim</w>
entertain ment</w>
Vehic les</w>
Retur n</w>
kic ked</w>
Song s</w>
curricul um</w>
](https://internetfreedom.in/donate /)</w>
Cla ims</w>
Mach ine</w>
Does n't</w>
Teac her</w>
Lap top</w>
Sak et</w>
Sex ual</w>
arbitr ary</w>
abroad ?</w>
refl ect</w>
Advoc ate</w>
mahar ash
Intro duc
hindut va</w>
bbc .com/news/
Coff ee</w>
Emplo ye
indiankanoon.org/ doc/
# WATCH</w>
( H
( my</w>
( Article</w>
- ></w>
/ story-
0 9</w>
4 7</w>
4 000
6 4</w>
? ?
? p
A W
A K</w>
C ame</w>
C row
D J
D ra
E ither</w>
F lag</w>
G ol
G ame</w>
G aur
H ollywood</w>
J ab
K it
K at
M ass</w>
M asks</w>
M aster</w>
N ic
N AT
O x
O liver</w>
R ural</w>
S I
S pan
T ex
T ali
T CS</w>
W F
b ands</w>
b ound
b onds</w>
c /
d row
e ties</w>
f ool</w>
h it
k ur
l ay</w>
m att
r ush</w>
r arely</w>
s y</w>
s sible</w>
t '</w>
t emp
u me</w>
य ा
th qu
in e?</w>
er ""</w>
re public</w>
re form</w>
ou red</w>
en thusi
ha ted</w>
ha bit</w>
al u
it ).</w>
es to</w>
li ve.</w>
el ev
as si
as sured</w>
no w.
Th ane</w>
ad ju
ab duc
op o
po g
po ck
de em
be at
ne goti
pro fil
pro poses</w>
su e</w>
pe tty</w>
se ized</w>
mo bili
ed .
ed ;</w>
ex agger
ent re
od us</w>
im pe
https:// i.imgur.com/
est ate</w>
per cei
por ary</w>
ud d
ear phones</w>
ang le</w>
don e?</w>
.com/ amp/
indi as
indi as-
** What</w>
hel met</w>
Ch em
Ch ron
min ori
some one.</w>
Re ality</w>
tri ple</w>
pri mar
ard en</w>
ve ter
fac tor</w>
fac tory</w>
rec or
read .</w>
emb arrass
cre dit
cre ep
Po ssible</w>
loo p</w>
ment /
stat s</w>
sup posed
every day.</w>
dat a-
her i</w>
her ald
lin king</w>
soci ally</w>
ide as.</w>
sha h</w>
out side.</w>
bas k
Com mon</w>
dis agree</w>
Su g
Pr ad
cha ir</w>
stri kes</w>
des h
work place</w>
Li ving</w>
aff id
Mar ch
Mar ch.</w>
Mar athi</w>
cle .</w>
day )</w>
.in/ )</w>
experi ence
Dis aster</w>
Ci ties</w>
sol ving</w>
sol ved</w>
situ ation
air -
air line</w>
rap id</w>
1. 3</w>
Cour t.</w>
chil d.</w>
over come</w>
Inter n
law s.</w>
Pri ze</w>
Ra ut</w>
hom o
Dec l
hum ili
Bi pin</w>
discus sion.</w>
fl av
25 000</w>
Im age</w>
Man ish</w>
anti- national
yp es</w>
remo ving</w>
Cha ir
AT M</w>
BJP -
sus pects</w>
cro p</w>
dig it
foo d
main taining</w>
mob s</w>
wid espread</w>
Gr and
proper ly.</w>
pen al
cop ies</w>
terror ist
Rajas th
Bu ying</w>
connec tivity</w>
ten sions</w>
Kar tar
rest ored</w>
tit le
stup idity</w>
resid ential</w>
industr y.</w>
from .</w>
disp ute</w>
video /
Regi stration</w>
Bab a</w>
refer r
Fil ms</w>
scrip t</w>
Nav ratri</w>
feat ure
ner ship</w>
insur ance.</w>
enjo ying</w>
NS A</w>
news laundr
Docum entary</w>
Seri ously</w>
institu tion</w>
Thacker ay
request ing</w>
pain ting</w>
sn acks</w>
Nation alism</w>
problem ?</w>
Ge or
Tal ks</w>
m. wikipedia.org/wiki/
harass ing</w>
anxi ous</w>
parti al</w>
([** click</w>
spread .</w>
conver ted</w>
autom atically</w>
parliam entary</w>
valu able</w>
far m</w>
projec t.</w>
brain washed</w>
privile ge</w>
Jud g
Journ alist</w>
Journ alists</w>
cous ins</w>
toil ets</w>
ideo logies</w>
English .</w>
Brah mins</w>
classi c</w>
electron ic</w>
DM K</w>
reti rement</w>
vend ors</w>
Hop efully</w>
advoc ate</w>
दे श</w>
Av ail
&sr =1
gujar at
Sard ar</w>
yog a</w>
perfec tly</w>
ny times.com/
Surve ill
Jad av
/ref=sr_1 _1
Malayal am</w>
Toge ther</w>
droxychloroqu ine</w>
Recip e</w>
Mauj pur</w>
Aam ir</w>
Anci ent</w>
Ramach andra</w>
! !!!</w>
% )</w>
( just</w>
) *</w>
- up</w>
1 30
2 e
2 1.</w>
5 6</w>
6 d
9 b
A l</w>
A le
A am</w>
B C
B L
B A</w>
B ann
B ollyw
C lin
C enter</w>
D ut
F A
G olden</w>
H ard
J ail</w>
L ack</w>
L og
O mar</w>
R ob
S P</w>
S qu
S end</w>
S iso
V ote</w>
a c</w>
a ther
b right</w>
c .
c ited</w>
e ful</w>
e dit</w>
f ly
f ish
h h
i es.</w>
j o</w>
l ur
m el
n ast
n Co
p ?</w>
p acked</w>
p raise</w>
s mil
t ing.</w>
v as
w ari
| |
त र</w>
য ়
া র
ல ்</w>
’ d</w>
re ?</w>
ar 's</w>
or ous</w>
st ay
st ocks</w>
ha ll
ha bit
ha cking</w>
di g</w>
ro se</w>
as ?</w>
ac ies</w>
no vel
no tified</w>
am pur</w>
Th inking</w>
ic y
com modi
com edi
com edy</w>
po p</w>
po lar
de ?</w>
un likely</w>
un fair</w>
si on-
be st
be ds</w>
be gun</w>
ol l</w>
ch ur
ch illing</w>
su res</w>
do es.</w>
se p
mo ck</w>
for wards</w>
ff s</w>
id k</w>
ut i</w>
sc rut
tu m</w>
he ’s</w>
he ight</w>
so ?</w>
res ent
we ’re</w>
ho sting</w>
Ne t</w>
Ne igh
Ne eds</w>
bo x
Re fer
jo ins</w>
Ar ch
ast ing</w>
star t-
off -
enti t
Mo ving</w>
stud ent.</w>
medi a/
happ y.</w>
s/ )</w>
her itage</w>
soci al-
10 k</w>
lif ted</w>
ph one
Tr acking</w>
Sh ut</w>
Sh ort</w>
De ath
Com ment
spec tr
mat ters.</w>
fa ther.</w>
down load
paren t</w>
cul tures</w>
enc y.</w>
2020 ?</w>
fre e-
acc uses</w>
[https:// youtu.be/
clo sing</w>
over seas</w>
sm ell</w>
produc ed</w>
30 th</w>
tow n.</w>
Ad dress</w>
back ground
ran g</w>
Hy po
conf used.</w>
bor row
Se p</w>
struc k</w>
Pre tty</w>
16 th</w>
tru th
tru sted</w>
bel oved</w>
import ant.</w>
Hel pline</w>
hal f
suppor tive</w>
world /
world ?</w>
I’ d</w>
adu n</w>
[https://www. indiatoday.in/
den i
Karnatak a.</w>
For ced</w>
che ating</w>
requi re
memb er
cy ber</w>
Kashmir 's</w>
PM -
sk y</w>
reco very</w>
Sur pri
your self
Gi ving</w>
announ ce</w>
en. m.wikipedia.org/wiki/
mem or
mur dered</w>
Ni tish</w>
land ing</w>
symp ath
commit ment</w>
resour ce</w>
less on</w>
AB VP
flo od
Br ing</w>
refer ring</w>
report edly</w>
Ter rit
hun t</w>
detail s?
dep end</w>
particip ated</w>
super sti
insi ghts</w>
TR AI
ism ?</w>
psy chiat
bank rup
oni on</w>
Bus iness
Str ateg
sto len</w>
OC I</w>
mach in
Banerj ee
Kann an</w>
Cap it
isl am
impro ving</w>
Ver ma</w>
gam e.</w>
197 1</w>
Emp ire</w>
reci pe</w>
eth nic</w>
pil ot</w>
pro- CAA</w>
Yad av
about ?</w>
understand .</w>
track er</w>
8. 30
thes e.</w>
upload ed</w>
Lab our</w>
amp/ s/
Tou rism</w>
poor ly</w>
selec tion</w>
neighbour ing</w>
Inf ec
surr ounding</w>
immun ity</w>
tun e</w>
cigarett es</w>
Thre at
therap y</w>
anno ying</w>
Fai z</w>
bjp -
exha u
sacrific e</w>
discour se</w>
Industri al</w>
dp/B 07
NAS A</w>
ambul ance</w>
cyl inder</w>
Info sys</w>
suicid al</w>
tivel y.</w>
illiter ate</w>
Parti tion</w>
Une mp
Chhapa ak</w>
Exec utive</w>
mainten ance</w>
Muzaff arn
Petro l</w>
Insur ance</w>
Bhat t</w>
Cali for
Thail and</w>
Ecli pse</w>
Suspend ed</w>
Volun te
Mahasab ha</w>
Coimbat ore</w>
Nith yan
entre prene
# Citizenship
( who</w>
) .
/ S
/ news/
0 b
1 13
9 f
A ?</w>
B RE
C r</w>
C oo
D esh</w>
E C
F al
G R
G au
H ol
H em
H av
J .</w>
K ang
K ot
K eep
K ING</w>
L ake</w>
M I
M Y</w>
N ay
N ai
R CE
S A</w>
S cr
S aid</w>
S ports</w>
T ec
T old</w>
T ells</w>
U -
W o
W ishes</w>
Z ak
b by</w>
b uck
d un
d ar</w>
e ;</w>
e ](https://www.
e ...</w>
f at</w>
f ancy</w>
g f</w>
n ab
n az
n agar</w>
r ad
r ing
s ad.</w>
t ed-
u ed</w>
u ters</w>
v ind
y r</w>
y ;</w>
z er
म े
ल ्
ছ ে</w>
প ্র
் க
പ ്പ
🇮 🇳
in e's</w>
er !</w>
on a</w>
re form
en h
en ly</w>
st ation
ha -
al +
al um
al id
it ted</w>
it ra</w>
it y/
es timate</w>
le ment</w>
ati vely</w>
am eric
de vo
de d-
un its</w>
un certain
un cles</w>
ag ram
si bl
tr ap
tr action</w>
ch ill
go ds</w>
se l</w>
20 k</w>
con version</w>
ing ton
hi j
hi d</w>
for um
pl ed</w>
ev alu
An s.</w>
av i</w>
ut e.</w>
aw ei</w>
vir uses</w>
he y</w>
Ch ur
any thing
min or
we ed</w>
St ate
tri c
-1 8</w>
Ar med</w>
ast ly</w>
Am idst</w>
cont ent.</w>
eng ers</w>
protest s?</w>
bi as
oc king</w>
10 1</w>
lif ting</w>
bas ics</w>
Com merce</w>
dis count</w>
sub .</w>
sub mission</w>
tec hie</w>
ari ties</w>
des i
des h</w>
fa ther
IN D</w>
fre aking</w>
hu ff
lat ter</w>
ext ends</w>
det en
hear ts</w>
air .</w>
Cour t's</w>
18 -
vis as</w>
saf er</w>
gener ate</w>
gener al.</w>
Ad ani</w>
Le ague</w>
fli pkar
govern or</w>
Se ems</w>
s. ""</w>
Pre vention</w>
cap tured</w>
writ ers</w>
50 k</w>
prom ising</w>
ht ar</w>
cast e-
Ro yal</w>
ers !</w>
remo val</w>
identi fying</w>
Her o</w>
60 -
Karnatak a:</w>
cho ices</w>
lab el</w>
cy cl
top -
-b jp
fron t
Sen sex</w>
NRC -
mer cy</w>
Ri ght
wid ely</w>
hot spo
Cl ass
trac ing</w>
trac ks</w>
ligh ted</w>
70 s</w>
Vir us
[O c
[O ld
App s</w>
mom ent
mom ents</w>
play .google.com/
ten sion</w>
present ed</w>
emer ged</w>
him ?</w>
pdf /
36 0</w>
Let ’s</w>
leav e.</w>
wher ever</w>
canc el
canc els</w>
immedi ately.</w>
less ons</w>
rail ways</w>
aut onom
ND A</w>
apo logy</w>
cit y?</w>
bann er</w>
Hum an
dep uty</w>
deal t</w>
inno vation</w>
](https://www.reddit.com/r/india/comments/ f
transp or
Pakistan is</w>
insi de.</w>
scienti st</w>
Hou se
Hou ston</w>
intern ships</w>
judi ci
prefer red</w>
clu eless</w>
addres ses</w>
vac u
High est</w>
Dem and</w>
sou l</w>
home town</w>
Bir th</w>
covid19 india
convic t</w>
impro vement</w>
apar t
bloc ks</w>
je ans</w>
streng th
amend ment
found ation</w>
compar ing</w>
mann er.</w>
push ed</w>
Issu es</w>
achiev ed</w>
crack down</w>
check out</w>
past .</w>
quar ter</w>
Celebr ate</w>
stal gi
Brah min
Independ ent</w>
thank ful</w>
Sangh i</w>
fing ers</w>
dol lar
dol lar</w>
Ly rics</w>
AY US
distrib uting</w>
innov ative</w>
Pic ture</w>
stres sed</w>
atten tion.</w>
build ings</w>
Collec tion</w>
repl y
Moha mmad</w>
flag s</w>
aza ar</w>
seat s.</w>
AAP 's</w>
Ramay ana</w>
Warn s</w>
choic e.</w>
pregn ant</w>
Vik ram</w>
Big g</w>
luc know
WT F</w>
balcon y</w>
atro cities</w>
](https://1drv.ms/u/s!AoYOmN7lWek1 g
KY C</w>
dialo gue</w>
Amrit sar</w>
IFF ’s</w>
rati o</w>
afterno on</w>
Blu etooth</w>
uten sil
traum a</w>
grat ul
pseu do-
Ghazi abad</w>
phr ase</w>
Bob de</w>
HEL P</w>
intellig ent</w>
Inju red</w>
midd le-
store/ apps/
Javade kar</w>
Bes ides</w>
github .com/
atmo sphere</w>
random ly</w>
Suc c
supposed ly</w>
Kartar pur</w>
&sr=1 -1)</w>
Jadav pur</w>
details? id=
play.google.com/ store/apps/
play.google.com/store/apps/ details?id=
% 5
' '
' T</w>
( @
( to</w>
( 1)</w>
( a)</w>
. uk
0 5</w>
1 12
1 16
4 %</w>
A ut
A ge</w>
B T
D esh
E s
E :</w>
E le
F le
F ra
F ort
F RE
G un
H ell</w>
H earing</w>
I :</w>
I ron
J P</w>
K ur
L arg
L inks</w>
M ass
M NC
M aster
M etro
N ad
N IFS</w>
P ython</w>
R J
R s
S war
S IM</w>
T :</w>
T own</w>
U k
U su
W ell
b i</w>
b f</w>
d ancing</w>
e **</w>
e vic
f et
h :</w>
h umble</w>
j er
j ana</w>
j amia-
m um</w>
n r
n ity</w>
o logical</w>
p c</w>
p at</w>
p ir
s in</w>
s lot</w>
s ick
w ha
w arding</w>
w alls</w>
y ).</w>
आ ह
च ा
भ ा
स ी</w>
த ்த
in put</w>
in sane</w>
er .
re mind</w>
re puted</w>
ar am</w>
ar pur</w>
ou rish
en qu
en ters</w>
st s.</w>
di re</w>
di yas</w>
om s</w>
ro ck
ro ots</w>
es ’</w>
es hi
es **</w>
In cid
no tific
wh ist
is ha
op tions.</w>
de vi
de d?</w>
un preced
be tr
be auti
ak .</w>
go als</w>
20 .</w>
ex pose</w>
for um</w>
for ums</w>
pl ing</w>
pl ant
ation ""</w>
me )</w>
me :</w>
me tal</w>
ow ns</w>
.com ](https://
par t.</w>
](https:// indiankanoon.org/doc/
** Re
hel me
comm ute</w>
co in</w>
up set</w>
ho ly</w>
201 4.</w>
Ne ther
some thing?</w>
St age</w>
jo kes</w>
Go kha
fac ts.</w>
ast -
ast ed</w>
ell a</w>
ser ves</w>
year ?</w>
cont aining</w>
bu m</w>
off line</w>
te ams</w>
Po sts</w>
medi a
Mod s</w>
now ad
la dies</w>
Musli m.</w>
every one's</w>
nation ality</w>
sha pe</w>
10 80
Ac t:</w>
gov t's</w>
sub scrip
ful fill</w>
happen ?</w>
Li br
Mar ath
Gu y</w>
Gu il
hu m</w>
Do ord
rap ist</w>
chil d
Raj nath</w>
high lights</w>
gener ations</w>
sig ning</w>
watch .</w>
priv ati
ine quality</w>
Uni form</w>
person ality</w>
my th
sion ate</w>
men tioning</w>
ey es.</w>
Man ali</w>
contin ent</w>
cast ing</w>
Sec ular</w>
char t</w>
answ ers.</w>
pay tm</w>
Jo ker</w>
Stud ent
illi ant</w>
TH AT</w>
amoun t.</w>
inst agram</w>
foo ds</w>
main tained</w>
PM O</w>
tro ops</w>
... ""</w>
own ership</w>
Shahe en
emo tionally</w>
cli ck
cli ps</w>
ush es</w>
Ram a</w>
Bri ef</w>
App ly</w>
Coun tr
Dev i</w>
Gi ves</w>
ON LY</w>
today ’s</w>
Spe aks</w>
confir ms</w>
updat es-
regul ations</w>
mem ories</w>
haven ’t</w>
PS A:</w>
tit les</w>
Jus tic
here !</w>
slow ing</w>
mov ements</w>
treat ment.</w>
asi a-
video -
document s.</w>
business -
distric t.</w>
Muslim s?</w>
God i</w>
Ko vind</w>
purcha sing</w>
Ter ror</w>
Pay Pal</w>
symptom s.</w>
influ ential</w>
rio ters</w>
minim al</w>
Law s</w>
resol ve</w>
rupe e</w>
rupe es.</w>
practic ing</w>
Hu awei</w>
TE R</w>
ens uring</w>
pain t</w>
vac ate</w>
High er</w>
Lak sh
Opini on
foot ball</w>
2019/ 12/
impro ved</w>
Congres s-
TO I</w>
Jav a</w>
jun g</w>
tele vision</w>
illeg ally</w>
stom ach</w>
veget arian</w>
िय ा
pis sed</w>
Fol low</w>
194 7</w>
spr ay</w>
Sr ini
trigg ered</w>
PI L</w>
indo re-
gif ts</w>
major ity.</w>
Ly n
](https://www.hotstar.com/12600 18
[https://www.hotstar.com/12600 18
Vic tim
lon ely</w>
d= Iw
Modi- Shah</w>
assum ed</w>
suspici on</w>
%3A %2F
Activi sts</w>
gujar at-
Tran sport</w>
31. png?width=
blat antly</w>
pharm aceu
Va ish
aggres sive</w>
cough ing</w>
Mahabhar ata</w>
Bhu ban
Figh ting</w>
disci pline</w>
Bi- Weekly</w>
philosop h
brea thing</w>
overn ight</w>
appreciated !</w>
madhya- pradesh-
Bach chan</w>
Langu age</w>
Vive kan
Peace ful</w>
4032 x
convinc ing</w>
LEAS E</w>
Pegas us</w>
Real me</w>
obs essed</w>
Probab ly</w>
Recruit ment</w>
Chaud har
kaha a.n</w>
Sinhal ese</w>
fbcli d=Iw
Surveill ance</w>
RCE P</w>
ington post
AYUS H</w>
fbclid=Iw AR
$ 5</w>
' The</w>
( they</w>
* The</w>
. jpg)</w>
/ coronavirus-
1 F
4 2</w>
4 9</w>
5 k</w>
7 e
8 e
A ri
A gre
A ur</w>
B ala</w>
C alled</w>
D h
F -
G l
G ran
H A</w>
K r
K ail
K hur
N om
O DI</w>
Q L
R )</w>
R ant</w>
S eng
S tru
U sed</w>
[ this
a 5
a a</w>
b ation</w>
b um
b alls</w>
d ing
e ight</w>
e ."</w>
g b</w>
g ained</w>
h indi
h undred</w>
i us</w>
j am</w>
j ama
k ne
m ad</w>
n es</w>
r s.</w>
r ough</w>
r allies</w>
t ap
t um
t ail
t enn
v p
w ish
म ं
ष ्
ह ो</w>
ক র
ন ি
া ন
th in</w>
th el
in ity</w>
in clu
re ach
ti que</w>
ar cha
ar y-
st ack</w>
di so
di vision</w>
al s?</w>
at ed?</w>
li d</w>
el abor
ec do
In clud
le aning</w>
Indi go</w>
lo op
Th an
ad ds</w>
ad mits</w>
the ories</w>
un it</w>
be er</w>
pro of
pro voc
su ff
con sen
ing redi
ul timate</w>
ex tra
ci ties/
for _
wor sen
pl ants</w>
tion /
qu otes</w>
ain 't</w>
and al</w>
ee m</w>
per ception</w>
por ters</w>
ear n
gr an
coun ters</w>
ce :</w>
cl ause</w>
cl ash</w>
gu ards</w>
co ins</w>
Ch icken</w>
all !</w>
all y)</w>
inter s</w>
inter nation
201 7.</w>
St an
bo di
bo ts</w>
hat es</w>
Re ad
Re ading</w>
mar rying</w>
Go Air</w>
Ar rest</w>
ig ning</w>
ser ial</w>
can -
bu ried</w>
bu tton</w>
red ?</w>
cr af
stud y.</w>
s/ d/
ass ad
pos al</w>
dec iding</w>
sup pose</w>
eng ag
mis leading</w>
Al co
soci alist</w>
ste al</w>
Ma ths</w>
out lets</w>
VI D
Sh ort
Poli ce.</w>
Ac count</w>
sub missions</w>
loc king</w>
ath o
mil e
cour t.</w>
bl ind
rel uc
rel ations</w>
mat ri
exp on
inv asi
cu rio
En ter
En ough</w>
Par v
enc ing</w>
pur pos
ani me</w>
ef -
air port
ki m</w>
Wor th</w>
trav els</w>
hop e.</w>
etc .
sl apped</w>
high light</w>
car ing</w>
produc ing</w>
24 th</w>
dri ver
dri ves</w>
hom eless</w>
Bi j
back ward</w>
Hy und
migr ate</w>
Pl ace</w>
develop ments</w>
struc ture.</w>
Ap pro
AN T</w>
17 0
du ties</w>
Au to</w>
ca p</w>
sing ing</w>
bri d
rul es.</w>
identi fication</w>
tou ched</w>
Gujar ati</w>
Gujar at:</w>
mul ti-
chan ting</w>
Mon day.</w>
top ic
scre aming</w>
Doc tor
good ?</w>
emo tions</w>
rit uals</w>
constitu tion.</w>
dom inated</w>
Pan dits</w>
Det ained</w>
connec tion.</w>
ten ed</w>
Ta x
dest ination</w>
Cor rec
prev enting</w>
mem ori
lish ed</w>
Tha par</w>
Yog endra</w>
pun ish</w>
pun jab
mov ement
INDI AN</w>
Att acks</w>
expres sing</w>
Aad mi</w>
Gre etings</w>
WH ERE</w>
attemp ted</w>
tax pay
dang er
Bab y</w>
isol ate</w>
wrong ?</w>
Nav i</w>
cen sus</w>
Saf dar
gather ings</w>
peace fully</w>
.co /
dep lo
construc ted</w>
ward s.</w>
recogni ze</w>
communic ate</w>
victim 's</w>
Sol di
Sol ution</w>
Vo ting</w>
practic ally</w>
Trans l
categ ories</w>
sem i-
bett er
sli ps</w>
CAB /
Bas ic</w>
sou thern</w>
parti ally</w>
Mag az
Corpor ation
Mil k</w>
Id k</w>
Sm riti</w>
SC /
Rev e
Ben ch</w>
Acc ess</w>
She khar</w>
Back ground</w>
Explain ed</w>
Trump ’s</w>
else where</w>
Maj ority</w>
riot s.</w>
Win dows</w>
predic ted</w>
Mic ha
Dar k</w>
Fol lowing</w>
Produc t</w>
Indu stry</w>
01 /04/2020|-|-|-|-|Hospitalized|Details</w>
है ं</w>
OT P</w>
dead line</w>
tex ts</w>
hack ers</w>
consci ous</w>
toler ate</w>
vend or</w>
ING :</w>
his /her</w>
%2C +
EN T</w>
Dou b
incredi ble</w>
avi t</w>
Rak esh</w>
Stand ard</w>
sector .</w>
Tej as</w>
fak e-
Imp act</w>
cinem a</w>
whil e.</w>
nai ve</w>
/status/1 18
Scienti sts</w>
gath read
Differ ent</w>
Fron t</w>
facilit ate</w>
nutri tion</w>
Lt d</w>
colum n
Rohing ya</w>
Offici als</w>
Meghal aya</w>
Imple ment
Ax is</w>
Recommend ations</w>
transport ation</w>
news18 .com/news/india/
Relation ship</w>
Bigg est</w>
BCC I</w>
grati tude</w>
Depart ment:</w>
Jaish ankar</w>
Memb ers</w>
And heri</w>
dp /0
Sabarim ala</w>
Kani ka</w>
नही ं</w>
Stru gg
# Me
' ?</w>
' s.</w>
( i</w>
( 2)</w>
( b)</w>
- M
2 d
2 G</w>
3 b
3 c
5 2</w>
8 b
9 c
9 15
= https
@ gov
A aj</w>
C D
C at
E )</w>
E arly</w>
F O
F oc
G M
G as</w>
G ra
G ave</w>
G amb
H I</w>
K ol
K od
K AR
K illing</w>
L ess</w>
M ember</w>
N -
O YO</w>
P v
T B</w>
T us
T un
T est
T ER
Y .</w>
a o
a ).</w>
b ow</w>
b lah</w>
b ility.</w>
f ro
g al
g au
j amm
n u</w>
p ay.</w>
r ude</w>
s and
s nat
t l
t ary</w>
u x</w>
u ts</w>
v /
v as</w>
च े</w>
द ्
ক ে</w>
th or
th en?</w>
on _
on y
on ly
re in
re mark
ti k
ti vis
ar ts</w>
ar ound
ar ayi</w>
en opho
st ag
ha sh</w>
di ary</w>
al a-
al so.</w>
at ures</w>
es (
es ).</w>
as ph
as sho
ac t:</w>
am ar
lo t
lo ving</w>
Th om
is nt</w>
the +
com ic</w>
sh ot
un ve
un ite</w>
un rest</w>
si ve
ne t-
pe ts</w>
do l</w>
do s</w>
se t.</w>
se e-
con sume</w>
ing ton</w>
hi stori
sp aces</w>
wor d.</w>
wor ries</w>
som ed
ation **</w>
qu ot
pre paid</w>
pre vention</w>
im posing</w>
ev es</w>
ev ent.</w>
gi ve
"" *
ist ry</w>
et or
](https:// np.
gu ardi
ra ha</w>
inter action</w>
wi reless</w>
00 -
ill ness
sti mul
bo s
pri son</w>
fac ili
fac ial-
rec rack
read ing.</w>
Po int</w>
Mo vement</w>
pres sing</w>
cr ash</w>
Pro tect</w>
tw o.</w>
la thi</w>
you -
mis ogy
every time</w>
](https://www. ndtv.com/india-news/
sha h
bi -
cri me.</w>
log s</w>
ach ment</w>
Pr ay
As ad
amp ;</w>
sy mb
Ex t
Ex cept</w>
citizen .</w>
religi ons.</w>
differ ently</w>
Me er
Mar uti</w>
Gu ess</w>
paren ts'</w>
pow ered</w>
ef .</w>
[https:// imgur.com/a/
vo te
Be ware</w>
Chin a’s</w>
accoun t
tak e
18 6
tor tured</w>
Vi et
law ful</w>
high .</w>
men tions</w>
conf using</w>
develop ment.</w>
Se en</w>
wa ited</w>
struc tures</w>
16 00</w>
eas ily.</w>
es- in-
sour ced</w>
net fli
prof ession</w>
self ish</w>
tech ni
contro l.</w>
den ial</w>
60 %</w>
memb ership</w>
nat ure.</w>
cris is:</w>
NRC /
Ri ver</w>
milli on
sor ts</w>
oper ational</w>
week 's</w>
Pan el</w>
sil ly</w>
play list</w>
exist ed</w>
mun ic
employe es.</w>
Ta g</w>
emer ging</w>
Net work</w>
pdf )</w>
chann el.</w>
respec ting</w>
http:// www.
here **](https://
OR E</w>
invol ving</w>
commit ting</w>
video s.</w>
has n’t</w>
veri fic
question :</w>
tren d
urg ently</w>
organ ise</w>
FI Rs</w>
draw s</w>
graph ics</w>
1- 2</w>
Cr ack
Stat ement</w>
Sal ary</w>
Fun ds</w>
ner v
crimin als</w>
bb ing</w>
ED IT</w>
swit ching</w>
loy al</w>
Trav elled</w>
represent ative</w>
environ mental</w>
Inv ited</w>
LE D</w>
bag g
deser ves</w>
Nation wide</w>
comb ined</w>
consum ing</w>
reduc tion</w>
Fr anc
dur ing-
edi ted</w>
quali fy</w>
techn ically</w>
riot s:</w>
=1& sort=new
Mand i</w>
Mand er</w>
Mor ning</w>
Mangal ore</w>
e. g.</w>
Help !</w>
lyn ch
2019- 20</w>
screen shot</w>
non sense</w>
Bill .</w>
Anim al</w>
policem an</w>
Hear t</w>
hec k</w>
Nadu :</w>
apur am</w>
Apr il.</w>
obli gation</w>
Buil ding</w>
&restrict_sr =1&sort=new
Hack ers</w>
Var un</w>
overwhel med</w>
tac tics</w>
intellec tual</w>
#CAA Protests</w>
BH U</w>
affili ated</w>
Shoo t</w>
observ ation</w>
studi es.</w>
Universit y.</w>
massac re</w>
Slow down</w>
inclusi ve</w>
first post
licit or</w>
legis lat
legis lation</w>
Pil ot</w>
Complain t</w>
reput ation</w>
offen sive</w>
Rang oli</w>
world- asia-
Rupe e</w>
campaign =
Equ ip
Shut down</w>
meaning ful</w>
save our
IIM s</w>
pean ut</w>
descrip tion</w>
Braz il</w>
forec ast</w>
Tig er</w>
Smart phone</w>
Mexic o</w>
Propag anda</w>
Vajpay ee</w>
VIR US</w>
Rajini kanth</w>
Pon di
elecom munic
Seel ampur</w>
incl ined</w>
deccan herald
thqu ake</w>
Siso dia</w>
Muzaffarn agar</w>
%3A%2F %2F
Hyund ai</w>
facial- recogni
&restrict_sr=1&sort=new )</w>
" This</w>
# coronavirus</w>
& amp;</w>
( 30
( MH
( India)</w>
/ u/
/ articleshow/
0 f
1 10
1 15
2 15
3 13
3 45
3 000
3 0000</w>
4 1</w>
6 2</w>
7 7</w>
7 00</w>
9 pm</w>
A /
A is
B )</w>
B ol
B anks</w>
C K
C ity
E di
F uc
G y
H M</w>
J antar</w>
K ing
K ill</w>
K ey
L ar
M o</w>
M oo
M echan
N ice</w>
O D
O S
O pp
P G
P )</w>
P er</w>
P ast</w>
P aper</w>
P referred</w>
P LEASE</w>
R ad
S D
S mo
S adly</w>
T ai
T ests</w>
U ID
V .</w>
W all</w>
X -
Y our
[ Aug</w>
a q
b ent</w>
b ers</w>
b ow
b it.</w>
b arg
b ye</w>
c -
c ing</w>
c ad
c tion</w>
c enti
e ps</w>
e ..</w>
h man</w>
h is-
h itting</w>
k l
k al
l ash</w>
m l</w>
o x
o very</w>
p ak
p light</w>
r oughly</w>
s wiggy</w>
t ons</w>
u .</w>
v y</w>
w ire</w>
w adi</w>
ज ि
प ु
श ि
ত ে</w>
র া
… …
in ser
in augur
an th
re fun
re ward</w>
en rolled</w>
st /
ha cked</w>
di vert</w>
al gorith
ro les</w>
ur a</w>
am :</w>
am ond</w>
the me</w>
op ted</w>
op athy</w>
sh id
ver sion
si r</w>
si zed</w>
be ings</w>
ak shi</w>
tr e</w>
ch op
ch es.</w>
tt er
do om
ing ).</w>
mo de
mo ther's</w>
ed ’</w>
ge sted</w>
sp ace.</w>
tion s
tion ary</w>
ev ed</w>
gi ven
por k</w>
An dam
gr ants</w>
end ers</w>
coun sel
vir tual</w>
he 'll</w>
gu ess.</w>
co ach
co incid
test ing.</w>
fi re.</w>
Ch ang
min e.</w>
all er</w>
inter medi
Ne p
wi fi</w>
St al
bo arding</w>
umb led</w>
rec ru
Ar und
cont ex
ren ted</w>
bu l</w>
off ended</w>
cre w</w>
Po co</w>
enti c</w>
Con fir
loo sing</w>
pr e</w>
pr on
ans -
Pro per
of ?</w>
dec re
dec reas
comp as
dr as
mis ses</w>
Al tern
sha ped</w>
cas e-
cas ual
Ma h
under grad</w>
De v</w>
Ac tor</w>
Com par
dis infec
dis appoin
tal ent</w>
r/ india.</w>
new s:</w>
cha m
cha mpi
Min or</w>
cour tes
bl ast</w>
mp -
ful ly.</w>
15 000</w>
viol ations</w>
cul t</w>
fr ag
hand les</w>
inform al</w>
ven ue</w>
rap idly</w>
Cour se</w>
Qu ick</w>
tor ture</w>
sen sible</w>
respon ds</w>
gener ated</w>
person 's</w>
tow ns</w>
my ths</w>
US -
mak e
back ?</w>
Se c</w>
Im ages</w>
s. **</w>
cap ture</w>
demo lition</w>
mor n
13 .</w>
13 0</w>
40 -
import ant
RS S.</w>
marri ages</w>
recomm ends</w>
net works</w>
IS T</w>
val ley</w>
view ed</w>
grap hic
bri de</w>
hy ant</w>
rul es-
appreci ation</w>
80 s</w>
dist res
BJP /
pati ence</w>
26 /
23 rd</w>
UP A</w>
kid n
book s.</w>
fur nit
mid st</w>
Gr adu
35 0</w>
sor row</w>
ush ing</w>
ligh t.</w>
proper ties</w>
Dr one</w>
Mumbai ?</w>
Sa hi
Pan dit</w>
inc enti
avo iding</w>
find ings</w>
updat es
recommend ?</w>
regul atory</w>
Cri tic
invest ed</w>
initi ated</w>
2. 0</w>
google.com/ amp/s/
suic ides</w>
pun ished</w>
mov ement.</w>
Att ack
from =
Govern ments</w>
Ayod hy
business /
Sik h
polic y.</w>
delhi /
histor ic</w>
Ak htar</w>
depend s</w>
Gandhi .</w>
particip ation</w>
mal ware</w>
func tions</w>
able )</w>
Tur ns</w>
insi ght</w>
2018 ]</w>
certific ates</w>
mad e.</w>
PP E
Jai pur
TV s</w>
scenari o.</w>
VP N
fundam ent
Commun al</w>
gott a</w>
Na id
Son y</w>
HE LP
violence -
bull ying</w>
kee per</w>
mach ines</w>
IG I</w>
ture r</w>
They 've</w>
t. me/
promo ted</w>
Bur ning</w>
holi days</w>
author itarian</w>
Naz is</w>
Hindi .</w>
Numb ers</w>
IR CTC</w>
inten tions</w>
descri be</w>
See ks</w>
Pati ents</w>
review ed</w>
charac ters</w>
Tre at
motiv ated</w>
civili ans</w>
frustr ating</w>
bigo ted</w>
Super power</w>
brow sing</w>
rum ours</w>
kashm ir</w>
tox ic
indo ors</w>
muslim s.</w>
witness ing</w>
witness ed</w>
Sangh is</w>
fing er</w>
hope ful</w>
could n’t</w>
would n’t</w>
lon el
draf t-
cases- in-
Exclusi ve</w>
yet ?</w>
immun e</w>
kashmir -
Demone tisation</w>
लि ए</w>
Arab ia</w>
authori zed</w>
IE LT
Oper ation</w>
engineer ing.</w>
future ?</w>
petition ers</w>
behaviour al</w>
purifi er</w>
divi sive</w>
cheap est</w>
incompet ent</w>
Block chain</w>
:-| :-|
Gopin athan</w>
resig nation</w>
immen se</w>
&utm_medium =
electoral-bond s-
skep tical</w>
fashi on</w>
indirec tly</w>
architec ture</w>
Bhut an</w>
Malvi ya</w>
proceed ings</w>
Calcul ator</w>
Pin arayi</w>
simul tane
he/ she</w>
Dehr adun</w>
Span ish</w>
primar ily</w>
Neigh b
BRE AK
Keep ing</w>
=https %3A%2F%2F
Arund hati</w>
( this</w>
( but</w>
( This</w>
+ 9
/ /</w>
/ 2019
/ r/India</w>
0 4</w>
2 f
3 24
5 e
5 3</w>
6 46
B ar</w>
B row
C li
C ong</w>
D U</w>
D ow
D eep</w>
E k
E mail</w>
F I</w>
F 1</w>
F L</w>
F all</w>
F av
F aw
F ru
F AQ
G rap
H U
H ur
H air</w>
J as
J EE
K is
K id
L en
L and
L au
M ari
M ight</w>
M ys
N M
N aw
O ther
P ass</w>
R &
R -
S ac
S pre
S ind
S co
S log
S earch</w>
U j
V ist
W IT
Y e</w>
Z ero</w>
[ All</w>
[ Covid-19</w>
_ conflic
a head.</w>
b at</w>
b ite</w>
b ells</w>
d ness</w>
e -</w>
e er</w>
e go</w>
e ats</w>
f y
g ay</w>
g add
g one.</w>
g oli</w>
i el
j et</w>
k ann
k arna</w>
l der</w>
l pa</w>
m s
m at</w>
m ath
m aths</w>
n .
o b</w>
o ath</w>
p aste</w>
p essi
r uck
s )
t ally</w>
t y-
t ears</w>
t ender</w>
t amil
u res
w ear
w ind</w>
x /
z u
z ones</w>
उ त्
क ु
क ्र
च ा</w>
व र</w>
ক ্
দ ে
স ্
in sec
an _
an )</w>
er up
ti a</w>
en ue</w>
st ake</w>
al s-
al %20
at tit
ro of</w>
us :</w>
ri val</w>
In tegr
vi ous
ur ged</w>
lo ve
lo ve.</w>
lo vely</w>
lo l.</w>
ad .nic
com ics</w>
com promise</w>
po cket</w>
de y</w>
de ficit</w>
be ing.</w>
ak sh
tr uck</w>
pro to
su ffic
pe l</w>
con c
con ut</w>
ing ...</w>
mo od</w>
ul ated</w>
ul timately</w>
sp in
sp lit</w>
pre tend</w>
pre scription</w>
https:// m.
ee k</w>
per mit</w>
"" What</w>
me !</w>
me ga</w>
ind a</w>
et ?</w>
India ’</w>
sc am.</w>
par ties.</w>
](https:// forms.gle/
** Why</w>
mon etary</w>
ce ?</w>
ce an</w>
har ge</w>
har d.</w>
har ass</w>
fi able</w>
fi res</w>
ck ey</w>
inter act</w>
inter im</w>
inter vention</w>
00 .</w>
ple -
ill a</w>
Re views</w>
Re ply</w>
tri ck</w>
ve g</w>
ni e</w>
Mo on</w>
sid ed</w>
ass ur
sup press</w>
protest :</w>
low ers</w>
plac ements</w>
wat er
ide als</w>
india .com/
Ma o
ph on
emp ha
out si
dis missed</w>
dis proportion
cer pt</w>
new s.com/
amp ed</w>
post paid</w>
econom y/
work ers.</w>
curren t
Li f
spe eds</w>
Me dia
commun ity-
Un less</w>
lic op
og y</w>
bre ath</w>
lead ers.</w>
fre ely</w>
ob session</w>
hu a</w>
Be yond</w>
nex t?</w>
who ever</w>
Di lip</w>
ref rain</w>
kill ings</w>
clo sed.</w>
18 00</w>
respon ding</w>
Vi vo</w>
sl augh
sl ums</w>
high way</w>
24 -
hom es.</w>
sa v</w>
sa id
regi on.</w>
care fully</w>
Maharash tra.</w>
fl ed</w>
fl att
Pre amble</w>
tru st
direc ts</w>
Ran a
Res ear
demo graphic</w>
poll ing</w>
kar ma</w>
## ##</w>
Au to
arre sts</w>
Twit ter.</w>
tou cha
spo kes
Ti er</w>
Ti bet
they 'd</w>
PM ’s</w>
mid night</w>
Tri b
Tri bun
Gr and</w>
Cl oud</w>
Shar ma
hur ting</w>
employ ers</w>
pat ri
Coronavirus ?</w>
open ?id=
Sc am</w>
today :</w>
connec ting</w>
logi sts</w>
stit utes</w>
Fi x
ty r
Again st
PS U</w>
LI C</w>
LI VE:</w>
.... ..</w>
invol ves</w>
invol vement</w>
expres sed</w>
Des ign</w>
disp er
Ther e’s</w>
Rem emb
song .</w>
bit es</w>
document ation</w>
strugg les</w>
Hindut v
Ur -
Ur gent</w>
Sy ri
Out side</w>
Sw ach
prin ted</w>
hard ware</w>
fru its</w>
hus han</w>
daugh ter
daugh ters</w>
Ru kh</w>
refu ge</w>
continu ously</w>
insi ght
Dist ancing</w>
2018 .</w>
certific ate.</w>
Trans fer</w>
volun tary</w>
trou bled</w>
san gh
Cu rious</w>
human itarian</w>
vac ation</w>
how .</w>
Jhark hand
Tal king</w>
Lak hs</w>
perspec tive.</w>
decad es.</w>
Vie w
Stre aming</w>
spor t.</w>
drive.google.com/ open?id=
How 's</w>
Direc tor
que ue</w>
should n’t</w>
clari fication</w>
Gang a</w>
deter mine</w>
deter ior
cros s-
announc ing</w>
Win ter</w>
track er
grad es</w>
Singh 's</w>
thehindu .com/
exclud ing</w>
sac red</w>
Twee ts</w>
trigg ers</w>
shif ting</w>
controll ing</w>
क् ष
Rest ric
Rest aur
Grow ing</w>
neighbour hood</w>
02 /04/2020|-|-|-|-|Hospitalized|Details</w>
AQ I</w>
Cer tific
pakist an</w>
milit ants</w>
Dom in
serious ly.</w>
overwhel ming</w>
Chall eng
#CAA _
Activi st</w>
Rajasthan :</w>
Rat an</w>
supre me-
JM I</w>
detec ted</w>
patrio tism</w>
Fai z
collap se</w>
substan tial</w>
Kolkat a.</w>
Broad band</w>
gith ub</w>
advertis ement</w>
rejec tion</w>
radic al</w>
occur red</w>
Dus hyant</w>
bene ficial</w>
Da vid</w>
Guru gram</w>
resourc es.</w>
++++++++ ++++++++
bath room</w>
fat ality</w>
livemint .com/news/india/
score s</w>
era dic
sans ad.nic
Centre 's</w>
bangal ore</w>
scroll.in/ article/
PUB G</w>
abet es</w>
Incre ase</w>
Israel i</w>
dad 's</w>
Itali an</w>
Syst em
CGP A</w>
Yam una</w>
Polic em
Lev el</w>
IGNO U</w>
Linked In</w>
Politici ans</w>
cancell ation</w>
Govt. :</w>
Secular ism</w>
Tali ban</w>
Strateg y</w>
[Oc t</w>
Usu ally</w>
Seng ar</w>
Safdar jung</w>
Micha el</w>
asph em
Asad uddin</w>
Confir med</w>
IELT S</w>
Faw ad</w>
% 26
' t
' We</w>
( M
( **
) ;</w>
- g
. ph
0 6</w>
2 10
2 23
2 1)</w>
3 d
3 f
3 12
4 0000</w>
7 d
7 000</w>
8 c
8 d
9 r
9 78
A the
B ran
B illion</w>
C hat
E f
E v
F T
F .</w>
G ate
H C
H I
H Y
H ard</w>
H amp
I 's</w>
J es
J aze
K S
K e</w>
K ath
M asked</w>
O m
O yo</w>
P oo
P harm
R /
R ai</w>
S hel
S SC</w>
S anta</w>
S affron</w>
T N
T oll</w>
U V
V S</w>
W ing</w>
[ Delhi</w>
[ Nov</w>
b one</w>
b hop
b ollyw
b ucks</w>
c ared</w>
d rain</w>
e ga
e ga</w>
h em
i P
i k</w>
i z</w>
i ve</w>
i ans</w>
i a.</w>
j ail
j umping</w>
k am
k ing.</w>
l ingu
n as
p y
r n</w>
r as
s inc
s **.</w>
s affron</w>
t ance</w>
t elec
t ak</w>
t s)</w>
y **</w>
| Hospitalized|
क े
ब ी
ब े
ത ്
in jec
in put
an ecdo
er '</w>
on ce.</w>
re v
re ver
re stor
ou tri
or ph
di e.</w>
di gi
al lo
al arm
it e
it am
at tract</w>
ro hing
es sions</w>
as sign
In spir
vi able</w>
lo ver</w>
lo go</w>
lo st.</w>
ad min</w>
is ms</w>
is tics</w>
com .
sh ell</w>
sh ocking</w>
ver b
ver e
un s</w>
un sure</w>
be y</w>
be g</w>
be dro
ch ri
su m</w>
go -
do ing.</w>
se al
20 24
con science</w>
ed ).</w>
ge -
for t</w>
um utra</w>
qu ality.</w>
im prison
are e</w>
"" )</w>
An na</w>
ist rate</w>
gr ading</w>
India '</w>
sc ar</w>
par king</w>
par t-
par tici
](https:// mobile.twitter.com/
](https:// economictimes.indiatimes.com/news/politics-and-nation/
vir tu
mon g
tu i
he 'd</w>
cl er
cl ou
test .</w>
so vere
Ch ancell
any one's</w>
inter -
inter actions</w>
ho on</w>
ess ay</w>
wi de.</w>
Re ady</w>
tri p.</w>
-1 1-
read s</w>
cont am
cre am</w>
sec ond-
pres su
ass ass
fri ght
app le</w>
dec ide
eng lish
eng aged</w>
protest ed</w>
leg acy</w>
col our
s- for-
bi k
bi tion</w>
Ma ul
lif y</w>
Sha m
Sha res</w>
e- in-
Com es</w>
dis like</w>
dis ast
fic tion</w>
cha l
cha ins</w>
inf l
work -
15 .</w>
exp and</w>
org /
cle ar.</w>
En tre
En ergy</w>
lic ate</w>
2020 ]</w>
Dis ney</w>
Lo an</w>
arg ah</w>
pic ture
Di plom
kill er</w>
stor age</w>
uni form</w>
saf et
Delhi /
sen a</w>
sm ile</w>
high lighted</w>
popul ated</w>
24 /
Ass emb
Ad ministr
men u</w>
chec ks</w>
bor ne</w>
Pl s</w>
He g
eas ed</w>
AN T
dre am
bur ned</w>
Sing apo
sal t</w>
cou p
nor theast</w>
view s.</w>
answ ering</w>
ca a</w>
remo ves</w>
sing er</w>
So licitor</w>
Her itage</w>
opp on
ship ?</w>
sus pec
Gujar at.</w>
hon ey
For get</w>
pati ents.</w>
RE D</w>
Hi .</w>
fail ure.</w>
... "":</w>
png )</w>
visit .</w>
Ay y
-in- law</w>
-in- india-
dom s</w>
oper ations</w>
New s:</w>
mus ic.</w>
norm al
vill agers</w>
sil ver</w>
Sc ore</w>
Det ail
complain ed</w>
ret ari
ST E
immigr ant
prev ented</w>
updat e:</w>
regul ar
regul ate</w>
PS Us</w>
tit led</w>
AL LY</w>
celebr ated</w>
Nag ar
wher e?</w>
neg ligence</w>
Constitu tion
Constitu tion.</w>
journ alism</w>
Regi str
draw n</w>
Sik kim</w>
ure s.</w>
exc essive</w>
surpri singly</w>
95 %</w>
judg ing</w>
judg ment</w>
bat ter
citizenship ?</w>
say s.</w>
ator .</w>
mm mm
fru it</w>
func tional</w>
investig ate</w>
dish es</w>
dish ear
resol ved</w>
Pers on</w>
Pers ons</w>
electri cal</w>
indian _
4. 5</w>
Australi an</w>
harm ful</w>
pm -
hab its</w>
High lights</w>
manufac ture</w>
Hon est</w>
OC )</w>
helpl ess.</w>
bud get.</w>
Bir yani</w>
tv -
Star ting</w>
Engine er</w>
whats app
process ing</w>
Congres s
Sus p
promo tion</w>
Hindi /
encour aging</w>
autom ated</w>
World ’s</w>
stop .</w>
fle e</w>
found ed</w>
que tte</w>
pel ted</w>
else ?</w>
Mish ra
fast est</w>
pod cast</w>
Cy ber
EV ER
transparen t</w>
Sil k</w>
integr ity</w>
desper ately</w>
__ __
Emer gen
witness es</w>
shu ts</w>
PD F</w>
Hit l
Hal f</w>
-10 -
bili ties</w>
Hear d</w>
Mul ti
strang ers</w>
surr ounded</w>
diplom a</w>
atten de
Cro res</w>
Tamil s</w>
ing_ the_
bomb s</w>
experienc ing</w>
much ?</w>
Pand ya</w>
त्र ी</w>
concentr ate</w>
:- |</w>
forward .</w>
natur ally</w>
remind ed</w>
gent le
along side</w>
manif est
possible ?</w>
secur ity.</w>
Less ons</w>
ancest ors</w>
Bor n</w>
Tak en</w>
trag edy</w>
earli er.</w>
naren dra
Lockdown :</w>
Dru g</w>
transl ated</w>
Phon e
Stri ke</w>
accommod ation</w>
CORON A
ahmed abad/
cancer -
Meit Y</w>
Daw ood</w>
Daugh ter</w>
declar ation</w>
Prin ci
Applic ation</w>
Ess ential</w>
trail er</w>
ERIO US
bedi ence</w>
Remar k</w>
Valent ine's</w>
.asp x
transi tion</w>
bis cu
lugg age</w>
bbc.com/news/ world-asia-
matt ress</w>
spectr um</w>
machin ery</w>
Nithyan anda</w>
huff ingtonpost
Larg est</w>
Magaz ine</w>
Gamb hir</w>
Mys ore</w>
huffingtonpost .in/
! ?</w>
( A
( N
( W
( Indian</w>
+ NRC</w>
- not-
. n</w>
. pdf</w>
. gujarat
0 1</w>
2 )
3 e
6 a
6 c
6 8</w>
8 &
9 a
? '</w>
? ”</w>
? fbclid=IwAR
@ sansad.nic
A lo
A way</w>
A hm
B id
B order</w>
B him
C ause</w>
D ur
D IS
E d
E sc
E vid
E asy</w>
F W</w>
G oli</w>
I R</w>
I CA
I Am
I ll
J -
J it
J ul
J our
J odh
K a</w>
K E</w>
K apo
L astly</w>
M U
M ali
M ask</w>
M AS
N ames</w>
N uclear</w>
O M
O ri
O FF
P age</w>
P rec
R ac
R out
R oom</w>
S ad</w>
S wee
S ani
S AA
S ister</w>
T op
T um
T end
T inder</w>
V ac
W it
Y )</w>
Y ash
[ A</w>
[ Dec</w>
[ Feb</w>
] [
^ ^
_ dur
b er.</w>
c il
e ]</w>
f ou
f lower</w>
f lowing</w>
g le</w>
g um
g az
g ins</w>
h lot</w>
h anged</w>
h etor
i y
j am
k ee</w>
l acks</w>
m ap
m aps</w>
n k
n an</w>
n agar
o di
p p</w>
p ad</w>
p aw
r av
t ank</w>
u gs</w>
v ar</w>
त ु
स म
ி ர
െ ട
“ We</w>
th ly</w>
th ick</w>
in justice</w>
an e
re /
re jo
re side</w>
ti ps.</w>
or ange</w>
st ages</w>
st ability</w>
st amps</w>
st adium</w>
ha v
ha pat
al y
at ?</w>
om en
es ](https://www.
as s.</w>
as e.</w>
il ity
ac y.</w>
In t
no d</w>
no tion</w>
ur appa</w>
ab ility.</w>
op ing</w>
ic k.</w>
po is
de par
sh out</w>
un le
ag e)</w>
ch ?</w>
ch odi</w>
do zen</w>
em ade</w>
se e.</w>
20 22</w>
con soli
ing s?</w>
mo du
ent :</w>
sp ice</w>
wor e</w>
wor n</w>
od .</w>
pl as
pl es.</w>
ation !</w>
qu anti
im porting</w>
https:// the
and i</w>
per ate</w>
ud a</w>
are ?</w>
are as.</w>
"" No</w>
An ti
end s.</w>
coun ting</w>
ut -
sc av
](https:// guj
** I</w>
har i</w>
har sh</w>
gu es</w>
CA G</w>
ra ids</w>
Ch ou
Ch et
min .</w>
res emb
res ist</w>
we t</w>
up vote</w>
ho sti
Re fu
pri est</w>
-1 5
-1 66
Go a.</w>
form at</w>
Ar tificial</w>
br illiant</w>
off s</w>
Mo h
cr acked</w>
stud y
ant a
sid es.</w>
ass ure</w>
mi li
la th
protest -
col ours</w>
col oni
dr ug
mis cre
plac e?</w>
Al ong</w>
her oes</w>
lin e
ste aling</w>
19 0
oc cu
cri pt</w>
ph en
ph ant</w>
emp athy</w>
out come</w>
Sh r
e- commerce</w>
dis sent
dis charged</w>
new .</w>
loc ation.</w>
ly ).</w>
doc s</w>
ank ly</w>
inf ect</w>
des k
Ex it</w>
exp licit
Li ves</w>
this !</w>
cle ars</w>
En d
En sure</w>
lic on</w>
cul pr
Lo k
Af z
ob tain</w>
inform ing</w>
show -
entr y/
educ ation
ref us
18 0</w>
stor y
uni ons</w>
saf ety.</w>
sen s
high lighting</w>
need s.</w>
gener ous</w>
popul arity</w>
car avan
person ?</w>
tow er</w>
tow ard</w>
back up</w>
trans fers</w>
fli ght.</w>
bor der
Pl ac
govern ing</w>
lim it
appro v
/0 9/
ris dic
sugges tion
ing- the-
IS I</w>
nor ms</w>
repor ters</w>
dro p
identi ty.</w>
retur n
AT A</w>
Bengal :</w>
girl s.</w>
BJP ?</w>
29 th</w>
Op port
was .</w>
bir yani</w>
inst inc
resul ting</w>
26 th</w>
hol der</w>
lab elled</w>
covid 19</w>
jus tification</w>
Offic ers</w>
scre wed</w>
def ine</w>
NRC +
Tel tumb
sk ir
Wat ching</w>
Shahe ed</w>
tar get
Goog le
Hindu .</w>
protec tion
peti tions</w>
New sp
na h
open -
-year -
La x
Or der
75 %</w>
necess ity</w>
progr ams</w>
IA L</w>
San deep</w>
Ta hir</w>
Fi re
Vis iting</w>
mur ders</w>
imgur.com/ gallery/
DE L
LI G
initi atives</w>
Sun ni</w>
activi ties.</w>
pun c
accep ts</w>
Tech n
sugge sting</w>
Fri end</w>
class mates</w>
survi ve.</w>
document /
phys ic
anal ys
pack ages</w>
ME NT
discrimin ate</w>
campaig ns</w>
freedom .</w>
surpri sing</w>
mean while</w>
critic ise</w>
Mis sing</w>
Ye diy
corpor ation</w>
Out break
activ ated</w>
Ve get
](https://www.reddit.com/r/india/comments/ e
ward ed</w>
Ru n</w>
Cre ating</w>
dra g</w>
reser ve</w>
idi o
represent ed</w>
RO M</w>
Fli pkar
plan et</w>
gri d</w>
scenari os</w>
prefer ence</w>
alle l</w>
begin ner</w>
challeng ed</w>
Techno logies</w>
teach es</w>
decl ares</w>
Mur alid
Ge hlot</w>
comb ination</w>
exec ution</w>
opinion s.</w>
academ ics</w>
capit a</w>
process ?</w>
.cm s?
TL DR:</w>
belong ed</w>
terri bly</w>
BB A</w>
THE Y</w>
THE SE</w>
indic ate</w>
credi ted</w>
Che ers</w>
had i</w>
reven ge</w>
cros sing</w>
ko i</w>
rum ors</w>
EV M</w>
xy gen</w>
Cle ar</w>
Rus sian</w>
Covid-19 .</w>
Sil ent</w>
critici zing</w>
Produc tion</w>
Dhar ma</w>
clin ic</w>
Hus band</w>
Gan esh</w>
Muk her
Afri can</w>
Sto ck</w>
aun ties</w>
nom inated</w>
black out</w>
stori es.</w>
scamm ed</w>
neighbor ing</w>
exemp ted</w>
Alleg ed</w>
Indians ?</w>
bac ter
Ref uses</w>
([**link**](https:// drive.google.com/file/d/1
revi ve</w>
sar cas
2020-0 3-
suspici ous</w>
Are a</w>
Photo s</w>
&sr =
Wr ong</w>
glob ally</w>
common ly</w>
contain ment</w>
Document :</w>
Mc Don
releas ing</w>
?utm_ source=share
substan ti
Deb ate</w>
fant asy</w>
deposit s</w>
amp_ articleshow/7
Vehic le</w>
wheel er</w>
wife 's</w>
spar ks</w>
worri ed.</w>
DG CA</w>
Thir u
Us ers</w>
propagand a.</w>
livemint .com/
Aay og</w>
Kul deep</w>
naren dram
so- called</w>
#### #
EEEE EEEE
Dest ro
Ayur veda</w>
strate gic</w>
colon ial</w>
Resid ents</w>
MN C</w>
trem end
superi or</w>
VIDE O</w>
arrang ements</w>
Person ally</w>
uttar- pradesh
TL; DR</w>
magazine .in/
Has an</w>
Hous ing</w>
kitch en</w>
Psycho logy</w>
Tit le</w>
repres ents</w>
itarian ism</w>
spy ware</w>
selfi e</w>
wild life</w>
chequ e</w>
Statis tics</w>
subreddi ts</w>
Balak ot</w>
Buddhi sts</w>
Thurs day</w>
prescri bed</w>
WF H</w>
newslaundr y.com/
nast y</w>
Kang ana</w>
Aut om
Doord arshan</w>
business- standard
Thom as</w>
Meer ut</w>
Ais he</w>
decre ase</w>
dras tically</w>
_conflic t
Entre prene
huffingtonpost.in/ entry/
.gujarat .gov.in/
caravan magazine.in/
' '</w>
( we</w>
( 201
* )</w>
- says-
- yr-old</w>
. 5</w>
/ ))</w>
/ edit
3 a
4 :</w>
6 3</w>
6 18
7 20
8 4</w>
A me
A ap</w>
A PP
B od
B are
B ond
C ouldn't</w>
D )</w>
D un
D uty</w>
E V</w>
E x</w>
F ans</w>
F ami
F ears</w>
G S
G ab
G ATE</w>
H 1
H ot</w>
H DI
J aw
K G
K s
K 20</w>
N a</w>
O C</w>
O ur
P ain
P refer
R I
R P
S it
S ir
S ul
S elling</w>
T at
U se
W S
W ash
Y E
Y ?</w>
[ (
[ this</w>
[ Link
a u</w>
a ud
a ...</w>
b ast
e k
e tic</w>
e dition</w>
i um</w>
j ailed</w>
j umps</w>
k en
k im
k /monthly_happiness_thread_randians_please_share_a/)</w>
l ing
l ane</w>
p ts</w>
p ace</w>
p ills</w>
q z
r r
s now</w>
s ist</w>
s :**</w>
t w</w>
t our
u tions.</w>
w f
w ished</w>
y al
y a's</w>
च ्
न े
ம ோ
് ഞ
‘ The</w>
th al</w>
in n
in ating</w>
in cu
in correct</w>
an a
an y.</w>
er s)</w>
re ck
ti ven
ar y?</w>
ou ri
ou se</w>
st af
ha s-
di s</w>
di an</w>
di tionally</w>
al right</w>
al bum</w>
es sion.</w>
li gen
el der</w>
il ation</w>
ac y
ac ha
us u
ri ya</w>
ri chest</w>
le aked</w>
le ast.</w>
ur l
Th row
ab uses</w>
op ath
po gr
po ly
de pri
de al.</w>
sh y</w>
un certain</w>
ag i</w>
ag a</w>
ag ents</w>
si z
be having</w>
be gging</w>
ne phe
tr ump</w>
ch est
ch ants</w>
pro files</w>
su its</w>
ay od
pe dd
pe ace.</w>
do c</w>
do ing?</w>
se ven
ir on</w>
ap athy</w>
ed u/
oo oo
hi es</w>
for give</w>
sp ices</w>
um b</w>
um er
um es</w>
pl ur
ation _
qu ota</w>
pre h
pre serve</w>
pre dict</w>
https:// en.wikipedia.org/wiki/
per mitted</w>
gi ant</w>
por n
por a</w>
por no
por ter</w>
tic es</w>
me gathread
gr ant</w>
gr ab</w>
coun ted</w>
India ;</w>
he m</w>
har mony</w>
gu ide
gu ided</w>
gu essing</w>
co stly</w>
co st.</w>
co vers</w>
co st?</w>
bec a
pp ers</w>
we ir
we 'd</w>
ess ly</w>
Ne g
Ne eded</w>
some thing
sel ls</w>
bo t
bo i</w>
hat e.</w>
hat eful</w>
Re ach</w>
Re qui
shi pped</w>
pri ori
-1 2-
fin ish
Ar my
Ar yan</w>
au l</w>
year 's</w>
br anded</w>
cont ained</w>
bu y?</w>
bu zz
emb assy</w>
Po ster</w>
enti ty</w>
Mo stly</w>
s/ articleshow/7
pr aying</w>
fri ger
mi ri
protest er</w>
low n</w>
dr ac
Al ert</w>
](https://www. who.int/
lock -
bi e</w>
cri ed</w>
Ma a</w>
Ma thematics</w>
ore .</w>
emp has
VI P</w>
Sh op
sur ge</w>
sur face</w>
under lying</w>
12 4
Com edy</w>
ous ness</w>
tur n
cer tification</w>
ach ers</w>
Pr ince</w>
ly /
stri k
Min ute</w>
bl amed</w>
inf eri
rel ated
Ex ams</w>
.in ](mailto:
chang ed.</w>
Li k
differ enti
cle aring</w>
viol ated</w>
Par ties</w>
paren ts?</w>
cul tur
Minist er's</w>
pur am</w>
Dis sent</w>
that -
Af for
acc o</w>
dem and
Be gin
Chin a-
know ?</w>
pic ture.</w>
accoun t?</w>
nex t.</w>
inform ative</w>
Delhi )</w>
Raj deep</w>
law -
Beng al.</w>
Ra dio</w>
car ries</w>
car riers</w>
produc t.</w>
Ass a
sion al</w>
US ?</w>
Modi ji
ran king</w>
ran dia</w>
Hy d</w>
conf identi
Don t</w>
25 /
Res ist
add y</w>
medic in
AN Y
Ab sol
ju risdic
tra it</w>
sal ary.</w>
marri ed.</w>
Amaz on.</w>
ris k.</w>
ing- to-
self ?</w>
nor th-
Ro le</w>
ers **</w>
answ er
exam ple.</w>
rul ers</w>
thre w</w>
We ar</w>
list ened</w>
Cha li
tou ri
Wom en
BJP )</w>
non- Muslims</w>
27 th</w>
hol es</w>
23 5
UP .</w>
PM C
Har id
def en
def ends</w>
deb ating</w>
Air craft</w>
Isl and</w>
esh war</w>
Col leg
ML A
NO TE
of- the-
week ?</w>
norm al.</w>
](https://twitter.com/ NrcProtest/status/123
mom 's</w>
gradu ally</w>
techno logy.</w>
exist .</w>
politici ans.</w>
Spe ech
prev entive</w>
updat es:</w>
Kar gil</w>
win dows</w>
stup id.</w>
Sch ool
foc us
celebr ation</w>
land ed</w>
Att ended</w>
Fac ulty</w>
depres sion.</w>
link :</w>
imag ined</w>
adi ly</w>
question s:</w>
Sci ences</w>
song s.</w>
survi val</w>
flo ods</w>
Regi onal</w>
surve y.</w>
Inst ant</w>
120 0</w>
Sp ace</w>
scrip ts</w>
bat ch</w>
AC K</w>
ton nes</w>
feat uring</w>
guid elin
May aw
signific ance</w>
fru stration</w>
Mi z
?s= 19)</w>
repe ating</w>
ministr y-
(https://www.reddit.com/r/india/comments/ 6
Loc als</w>
Ja is
Fre el
sli p</w>
VE R</w>
attack .</w>
NE W</w>
Bl ue</w>
U. P.</w>
Mag gi</w>
Keral a's</w>
susp end</w>
princi pal</w>
Secon dly</w>
autom ob
amil itary</w>
streng then</w>
pleas e?</w>
amend ments</w>
virus ?</w>
reci pes</w>
withdraw n</w>
eth ical</w>
adop ting</w>
edit or</w>
valu e.</w>
Back ground
doctor .</w>
Chann els</w>
jour ne
Quarant ined</w>
Dri ver</w>
alli an
reddi t.</w>
timesofindia.indiatimes.com/ india/
quar ters</w>
Far oo
ker ala-
trigg er</w>
Baj rang</w>
Dhar avi</w>
&utm_ campaign=
board .</w>
diagno sis</w>
advice ?</w>
Mir ror</w>
JNU .</w>
disgu sting</w>
channel s.</w>
1.htm l
glo ves</w>
consci ously</w>
his he
chron ology</w>
safegu ard</w>
cigarett e</w>
Bel ow</w>
legi tim
sla p</w>
sell ers</w>
Custom er</w>
Rom an</w>
experim ent</w>
optim istic</w>
Nat ural</w>
stro ke</w>
mosqu es</w>
compli ance</w>
recruit ment</w>
young sters</w>
Contin ue</w>
Lim ited</w>
Pad ma</w>
aband oned</w>
Kerala ’s</w>
Investig ation</w>
amp;amp; amp;amp;
Nik on</w>
archi ve
Ze aland</w>
10-1 5</w>
fab ric</w>
agri cultural</w>
Secre t</w>
succe ed</w>
revolution ary</w>
ELI 5</w>
SA RS
inconveni ence</w>
Supp ly</w>
Chandray a
today! ](https://internetfreedom.in/donate/)</w>
Vad od
parano id</w>
feasi ble</w>
roman tic</w>
subsequ ent</w>
curi ous.</w>
Rape _dur
BG M</w>
alread y.</w>
awk ward</w>
print.in/ india/
Premi um</w>
Dang erous</w>
fath ers</w>
compon ents</w>
Gor akh
Nath uram</w>
Fundam ental</w>
Geor ge</w>
/ref=sr_1_1 ?keywords=
Califor nia</w>
#Citizenship Amendment
Gau hati</w>
-bjp -
covid19india .org
wha t.</w>
unpreced ented</w>
assad or</w>
](https://np. reddit.com/r/india/comments/
saveour privacy
Dow ry</w>
Jes us</w>
Jaze era</w>
outri ght</w>
ing_the_ Kashmir
modu le</w>
Refu ge
business-standard .com/
Rape_dur ing_the_Kashmir
' India</w>
( ""
( because</w>
( read</w>
( 200
- modi
. '</w>
. ](https://twitter.com/
. me/
. nl
/ fe
/ story/
0 3</w>
1 d
3 14
3 37
4 a
4 k</w>
6 78
7 4</w>
9 d
9 6</w>
9 2</w>
9 00</w>
@ nic
B on
B ee
B ask
C D</w>
C oron
C ell
D as
F air</w>
G T</w>
G it
G en</w>
G angu
G wali
H .
H ey
I I
I Z
I Q</w>
I NR
I sol
I IS
J ains</w>
K ak
L ong
L IT
M -
M b
N are
O m</w>
P N
P e</w>
R og
S li
S ain
S her
S AP</w>
T 20
T ak</w>
T elecommunic
U ses</w>
V R</w>
V entilat
W ise</w>
W ish</w>
W OR
[ What</w>
[ Sep</w>
a x</w>
a q</w>
a uc
a politic
b d
b m
c g
c .</w>
c auti
d ung</w>
e en</w>
f d
f is
g an</w>
g ains</w>
g aining</w>
h r</w>
i zing</w>
j u</w>
k at
k as
k uch</w>
l ma
n er.</w>
o /
o dic
p v
p .com/
p up
r ors</w>
r ains</w>
r anged</w>
r hetor
s lo
s enti
s ing.</w>
t ’</w>
t asks</w>
t ink
u ter
v v
v ary</w>
v ital</w>
w ind
z ar
अ प
क हा
ग रि
प र
प ू
य ह</w>
स र
स ि
th o</w>
in tr
in secure</w>
in stig
an gr
an s/
an ticip
an other.</w>
re iter
re verse</w>
ti p</w>
ti ght</w>
ti sed</w>
ar h</w>
ar un-
al s/
al Advice
it le
ro t</w>
li king</w>
el er
el ement
ac re</w>
us eless.</w>
In spired</w>
no ti
le ague</w>
am id-
is had</w>
ic mr
com e
com pri
de :</w>
de struc
de ad.</w>
un related</w>
un comfortable</w>
ag es?</w>
ag az</w>
si ght
si bling</w>
ne ver
tr ace</w>
ch r
ch it</w>
pro vide
gh ting</w>
go ing.</w>
se t
se y</w>
se al</w>
con str
mo ther.</w>
ed eral</w>
ex ports</w>
ex odus</w>
ge on</w>
ge t?</w>
ps !</w>
ation s/
qu es</w>
pre judi
im pressed</w>
per centi
gi bility</w>
ud ed</w>
"" If</w>
An i
me ter</w>
gr ab
av ail</w>
ut or</w>
sc ann
par ked</w>
mon ial</w>
mon key</w>
dow ry</w>
co l</w>
test -
fi ve-
fi recrack
any thing?</w>
we i
all i</w>
ho sted</w>
ho bb
ash .</w>
sti r</w>
Re ason</w>
tri cks</w>
shi v
ard s.</w>
jo bless</w>
ser y</w>
ser vers</w>
year s:</w>
br u
cont ents</w>
ther more</w>
bu ff
bu tter</w>
off er
off er.</w>
te am
tim ely</w>
tim ings</w>
Po sting</w>
Po em</w>
aj ee
cr ush</w>
s/ status/
pr one</w>
pr oud
Pro gram</w>
leg ality</w>
you ths</w>
Al li
Al l-
Al lah</w>
nation -
sha ke</w>
bi kes</w>
ph y
VI L</w>
Sh ops</w>
issu ing</w>
12 5</w>
man ?</w>
dis regard</w>
loc ate</w>
loc ally</w>
stri p</w>
bl ess
inf o.</w>
numb er?</w>
Co VID
15 k</w>
Me hta</w>
Mar k</w>
ep ic</w>
Par si</w>
Un able</w>
pur -
fr at
Dis p
bre ath
lead er.</w>
ori an</w>
pic ally</w>
educ ation/
lec ture</w>
comple tion</w>
uni versi
Delhi Police</w>
14 .</w>
Inter est
car .</w>
car rier</w>
Le ading</w>
chec k.</w>
Gov t's</w>
trans lat
Se a</w>
buil ds</w>
fl ation</w>
them sel
25 -
Im medi
Man u</w>
Man ufac
stre et
cap s</w>
Ran i</w>
aim ed</w>
AN T]</w>
Fe eling</w>
.org .in/
Ab use</w>
ju n</w>
poll ution.</w>
kar un
ik i</w>
du es</w>
mess age.</w>
sugges tions/
Au dio</w>
view .</w>
dro ve</w>
ers +
ca us
exam .</w>
remo ved.</w>
Cha ut
tou ch
den ies</w>
may -
other -
other ?</w>
coronavirus :</w>
hon our</w>
thread &restrict_sr=1&sort=new)</w>
28 8
%20 thread&restrict_sr=1&sort=new)</w>
ejri wal
appe als</w>
Red di
dig nity</w>
jp g</w>
suc k</w>
Kashmir ?</w>
foo d?</w>
cris is
sk y
mer it</w>
Mad ur
bul lets</w>
Sur g
Sur ya</w>
NO W
[O ld</w>
ER S</w>
custom ers.</w>
abo ve.</w>
Sub reddit</w>
hind us</w>
sil ently</w>
play list
Ph ones</w>
succ ess.</w>
Oc cup
tig er</w>
tem ple.</w>
ance /
expen se</w>
expen sive.</w>
Sch eme</w>
death -
here ’s</w>
ok ay
crow ds</w>
Nag aland</w>
Constitu tional</w>
invol ve</w>
reason ably</w>
depres sing</w>
coronavirus- lockdown-
Des ign
disp uted</w>
imag in
ond a</w>
Kam l
Bab ar</w>
time !</w>
trib al</w>
Cr yp
forc e.</w>
critic ising</w>
qui z</w>
ator y.</w>
dep th</w>
regist ering</w>
able :</w>
rio ting</w>
Vo ice</w>
zz le</w>
SE O</w>
alle ge</w>
addres s.</w>
research .</w>
hour .</w>
Ide as</w>
Luc know
stic ks</w>
exerc is
communi ties.</w>
kha y
utt erly</w>
Cam bridge</w>
Democr atic</w>
fla ir</w>
Leg alAdvice
timesofindia .com/
contrib uting</w>
nee ded
cru el</w>
Rev ol
Rev enue</w>
Direc t</w>
Gur ud
Jav ed</w>
agend a.</w>
ना गरि
fle xi
Won der</w>
Won ’t</w>
Kal am</w>
Thak ur
frequ ent</w>
Tre es</w>
Lab or
mir ac
ideo logical</w>
proced ures</w>
Rus si
Wa q
Manag er</w>
quar ter
DO W
clin ical</w>
clin ics</w>
shop .</w>
Sou thern</w>
classi fied</w>
Bro ther</w>
enem ies</w>
fing er
laugh ed</w>
deliver ing</w>
insul t</w>
distrib ute</w>
pal m</w>
vent ure</w>
Dom estic</w>
cand le</w>
gun s</w>
obli g
tes ti
wo ke</w>
Ris k</w>
justic e.</w>
DS P</w>
occasi on</w>
Chennai .</w>
Identi ty</w>
sourc es.</w>
Hun ger</w>
Kab ir</w>
occup ation</w>
concentr ation</w>
patrio tic</w>
pandemic ?</w>
dres sed</w>
factor ies</w>
karnatak a
whil st</w>
Hyderabad| Hyderabad|
infiltr ators</w>
Bat tery</w>
Sn ap
stig ma</w>
Adv ani</w>
distinc tion</w>
======== ========
symbo l</w>
DC P</w>
asy mptom
All +
purpo se.</w>
Iran i</w>
PT I</w>
apologi ze</w>
Carto on</w>
I- T</w>
agri culture</w>
appli can
Organ isation</w>
Janu ary.</w>
IAM AI</w>
Communic ation</w>
Gad kari</w>
MUS T</w>
lod ged</w>
Initi ally</w>
AIM IM</w>
|1 |</w>
extremis t</w>
FUC KING</w>
Pod cast
sne ak
desc end
assess ment</w>
Riot s:</w>
profess ors</w>
&s=books &sr=1-1)</w>
Resour ces</w>
rick shaw</w>
hier archy</w>
reserv ations</w>
satell ite</w>
DON 'T</w>
Eg yp
LGB T
Jab al
Kit ch
deem ed</w>
recor ding</w>
Prad han</w>
affid avit</w>
Ale x
entit led</w>
Threat ens</w>
dollar s</w>
%5 E
Libr ary</w>
tenn is</w>
Alco hol</w>
assho le</w>
deccanherald .com/
(MH )</w>
Sahi b</w>
=https%3A%2F%2F www.
pessi mis
Rememb ering</w>
supreme- court-
Maul ana</w>
Susp ected</w>
IAm Fawad</w>
Fami lies</w>
drac oni
Rape_during_the_Kashmir _conflict
Gangu ly</w>
" In</w>
" Can</w>
( more</w>
( CAA
. (
. ](https://
. 12.
/ )
0 d
0 e
0 o
1 19
2 30
3 27
4 d
4 e
4 K</w>
5 a
5 27
6 6</w>
6 000</w>
8 8</w>
9 %</w>
: --
? .</w>
? ’</w>
? t=
@ g
A a
A th
A ti
A vi
A IN
A sus</w>
B ay</w>
B hil
B hushan</w>
C I</w>
C SE</w>
C ows</w>
C atho
D -
D ic
D AA
D ARE</w>
E p
E T</w>
E mb
F D</w>
F el
F ail
F ast
F lying</w>
F inding</w>
G T
G E</w>
H .</w>
H ec
H all</w>
H id
I g
I y
J I
J O
J )</w>
J ack
J US
K -
K om
K af
K arn
L ies</w>
M r
M A</w>
M et
M ut
M AN
M ains</w>
N el
N ut
O P.</w>
P m</w>
P rem
P reg
P ani
P ink</w>
Q )</w>
R .
R E</w>
R ich
S -
S om
S ear
S ure</w>
S ite</w>
S ush
V acc
W ays</w>
W ins</w>
[ May</w>
[ becoming</w>
[ Last</w>
[ Jan</w>
[ July</w>
a ar
b aj
b ell</w>
c am</w>
d ash
d well
d ges</w>
e es</w>
e um</w>
f /
f on
f us
h ir
j r
k g
k olk
l on</w>
l ens</w>
m a.</w>
o x</w>
p c
p f
r ounds</w>
s f
s le</w>
s now
s kar
s ?"</w>
t an</w>
t am
t y?</w>
u ally.</w>
w ag
w ester
x enopho
y ar
y am
y a.</w>
y elling</w>
y ada</w>
z ens</w>
च ी</w>
त ्या
ो र
❤ ️</w>
😂 😂
th :</w>
th oles</w>
on /
on ist</w>
re actions</w>
re ality.</w>
re friger
ti k</w>
ti tu
ti es:</w>
ar y:</w>
st un
st airs</w>
ha ll</w>
di verted</w>
it ."</w>
ro am</w>
li on</w>
li e.</w>
li sm</w>
as pec
as vi</w>
ac comp
us !</w>
ri f
In qu
le t’s</w>
ati ves.</w>
ad her
ad a/
ad option</w>
un usual</w>
ag e/
ol ds</w>
tr aj
ch uti
pro pose</w>
tt ery</w>
se /
con gres
ing e</w>
mo thers</w>
mo ve.</w>
sp re
sp an</w>
sp ac
ation ;</w>
qu ora</w>
pre text</w>
pre valent</w>
im ports</w>
our selves.</w>
"" **
"" You</w>
ear ns</w>
An xi
An kit</w>
end a</w>
ai ah</w>
der i
vir gin</w>
mon um
cl ashes</w>
har sh
fe at</w>
ra he</w>
Ch and</w>
min ing</w>
res ?</w>
res ses</w>
we igh
inter n</w>
ess es</w>
ple dge</w>
ill u
str anger</w>
St one</w>
bo xing</w>
umb ling</w>
pri t</w>
form s/d/
br e</w>
Po t
Po st-
medi a-
happ ily</w>
now )</w>
Pro of</w>
Pro ve</w>
Pro jec
tw ist
of ten
eng er</w>
protest or
leg s</w>
comp ati
ali ve.</w>
ble eding</w>
](https://www. mohfw.gov.in/
200 1</w>
200 9</w>
sha k
10 4
ot i</w>
out !</w>
out put</w>
Sha me</w>
under go</w>
dis order</w>
dis respec
dis astr
tal k.</w>
tal aq</w>
econom y:</w>
Co gniz
happen ing?</w>
exp anding</w>
aff r
aff ir
differ ence.</w>
fun n
fun .</w>
viol ates</w>
day :</w>
commun ity
Af ter
hop eless</w>
18 .</w>
Inter views</w>
Raj a</w>
need ing</w>
popul ar
Ra ther</w>
Ra ises</w>
fore ver.</w>
30 /
Ad ver
Bi ometric</w>
fuc ks</w>
trans gender</w>
interest .</w>
Ho st
del aying</w>
direc tion.</w>
Pun e.</w>
IT S</w>
status .</w>
Fe e</w>
Fe els</w>
deli cious</w>
poll s:</w>
appro ve</w>
ma x</w>
ris king</w>
speci fied</w>
Rec over
Rec ords</w>
eri ous</w>
[https://www. facebook.com/SajhaGandaki/videos/
Ag ri
cent ric</w>
cent uries</w>
Can not</w>
Can ’t</w>
AT ION</w>
dist ress</w>
BJP s</w>
sus pension</w>
Ti wari
cro ps</w>
hol i</w>
cy cles</w>
inde fin
Kashmir ’s</w>
imp ly</w>
manag ers</w>
Tri ple</w>
The People
Ri o
[** here
Cl asses</w>
Ram dev</w>
trac ked</w>
Fin anci
ER T</w>
Happ iness</w>
proper ty.</w>
pas s.</w>
Dr .
Sub hash</w>
BS F</w>
enter pri
ric al</w>
liter ate</w>
liter ature</w>
ST AY</w>
ten se</w>
bha g
Spe aking</w>
break down</w>
emer ge</w>
Cor ridor</w>
Every day</w>
RT Is</w>
him self.</w>
rest ore</w>
DE VIL</w>
Te a</w>
Te en</w>
AI p
Viol ence:</w>
diffic ulty</w>
Fac tory</w>
shut down
Ques tion
WH AT</w>
yester day's</w>
600 0
famili es.</w>
twee ting</w>
Br and</w>
Rap es</w>
typ ing</w>
Sp ain</w>
Stat es.</w>
anim ation</w>
cen sored</w>
mean ?</w>
Mus ic
Ban king</w>
ement ?</w>
TI ON
Pay TM</w>
Sw ed
boy cott
prin ting</w>
hard core</w>
societ y?</w>
Cre ate</w>
cat ching</w>
Pakistan :</w>
Pakistan ’s</w>
insi sted</w>
condi tion
condi tion.</w>
Trav elling</w>
represent ing</w>
Shah .</w>
Bhag av
My so
gro ws</w>
fundam entally</w>
.gov.in/ sites/default/files/
san itation</w>
sn ap
cow -
Na hi</w>
house holds</w>
card ?</w>
design s</w>
mask .</w>
Star ted</w>
exclusi ve</w>
convic ted</w>
hen ge
impro v
Yo jana</w>
mb ps</w>
administr ative</w>
suspend s</w>
B. Tech</w>
weak er</w>
guy s?</w>
tack ling</w>
HA VE</w>
Jud ges</w>
had n't</w>
about /
shou ted</w>
civili zation</w>
lay er</w>
Fol ks</w>
sleep .</w>
Sk y</w>
lyn ched</w>
Wa it</w>
satis fy</w>
SP G</w>
Tou rist</w>
Dhar am
Ir on</w>
क् ट
defe ated</w>
guil t</w>
scoo ty</w>
Bill :</w>
Fasc ist</w>
Anim als</w>
ventilat or</w>
ze b</w>
ern al</w>
Banglades his</w>
Terror ists</w>
pric ing</w>
pric es.</w>
Mul ti-
NPR -
([**link**](https:// internetfreedom.in/
Por n</w>
cand les</w>
Buil d</w>
Kumar 's</w>
mistak e.</w>
Shoo ting</w>
Vijay an</w>
Dead line</w>
Prom o
---------------------------------------------------------------- --------------------------------
shee ts</w>
Custom s</w>
PRO TE
cash .</w>
addic ted</w>
karnatak a-
risk y</w>
Nat ur
Play ers</w>
Speak er</w>
justi fying</w>
concep ts</w>
disclo sure</w>
[S ERIOUS
tat too</w>
Guj rat</w>
Invest ments</w>
Inno vation</w>
guaran te
cring e</w>
contem pl
laptop .</w>
Phys ics</w>
Sched uled</w>
appear ance</w>
photograp hy
Announ ces</w>
bother ed</w>
Ut sav</w>
nightm are</w>
knowledge able</w>
hindustantimes.com/ india-news/
even ing.</w>
Profession als</w>
‍♂ ️</w>
inev itable</w>
stake holders</w>
pizz a</w>
liveli hoo
gang- raped</w>
Tok yo</w>
itiner ary</w>
impres sion
Children 's</w>
manufactur ers</w>
anj ali</w>
Adityanath 's</w>
sustain able</w>
fif th</w>
Disclaim er:</w>
embr ace</w>
Anurad ha</w>
Avail able</w>
PM- CARES</w>
Zak ir</w>
uncertain ty</w>
trap ati</w>
[Old ]</w>
Laksh mi</w>
pharmaceu tical</w>
Bhuban eswar</w>
Vivekan anda</w>
diso bedience</w>
Foc us</w>
Equip ment</w>
Pondi cherry</w>
contex t.</w>
Rana ut</w>
Tibet an</w>
Swach h</w>
#CAA_ NRC
retari at</w>
explicit ly</w>
Muralid har</w>
Mukher jee</w>
arun- ja
Rape_during_the_Kashmir_conflict #cite_note-
Preg n
ThePeople Of
# ment
# NRC</w>
# Coronavirus
$ 1</w>
& o
( A</w>
( both</w>
( mostly</w>
( c)</w>
* :</w>
+ author
+ related
+ All+
. ece)</w>
/ q
/ ).</w>
/ r/india</w>
0 2</w>
1 :
2 a
2 14
2 17
3 q
3 ]</w>
5 9</w>
6 40
6 48
7 1
7 a
9 60
? ).</w>
A d</w>
A ds</w>
A wards</w>
A div
B Y</w>
B ish
B illi
B han
B tw</w>
C .
C z
C hat</w>
C ore</w>
C au
C ash</w>
C elebrities</w>
D D
D L</w>
E k</w>
E at</w>
F ing
F ul
F ant
F ROM</w>
G aming</w>
H G
H ab
K on
K ill
K now
K ills</w>
L :</w>
L ed</w>
L ic
L od
L ady</w>
M all
M ary</w>
M ath</w>
M antar</w>
N or</w>
N and
N ature</w>
O UT</w>
P ee
R C
R um
R ate</w>
R AM</w>
R IG
S W
S t</w>
S L</w>
S ent
S und
S cot
T .
T ro
T aj
T ick
T DS</w>
U H
V eri
W ish
W ester
Y ES</w>
[ Coronavirus</w>
] (</w>
_ the_
_ to_
b icy
c hat
d aw
d airy</w>
e th</w>
e g.</w>
f old</w>
g f
g har</w>
g olden</w>
h .gov/
i 's</w>
k b
l o</w>
l ing.</w>
l acking</w>
m af
m ang
p ne
p ains</w>
p raises</w>
p ython</w>
s man</w>
s ample</w>
s '.</w>
t b
t m
t ;</w>
t ings</w>
u e.</w>
w p-
y ap
आ ध
क ि</w>
प हु
श ु
দ ি
ল া
ഞ ്ഞ
ണ ്ട
ര ്
െ ര
in com
in come.</w>
in assh
er ers.</w>
on wards</w>
re si
re signs</w>
ar y)</w>
ar ises</w>
en de
st :</w>
st age.</w>
ha ve?</w>
di tion
al o</w>
al ’</w>
at ing-
om .</w>
es /</w>
es ...</w>
el y?</w>
as ia</w>
ac ros
ri .</w>
am ent</w>
lo dge</w>
lo ss
Th reads](https://www.
ad m
ad missions</w>
is land</w>
the e</w>
op tion
ver ge</w>
ver sus</w>
un it
un believ
un constitution
ag r
ag itation</w>
si x
be y
ne sty</w>
ak e.</w>
ak hapat
ch ers</w>
ch ick
pro fici
pe d
pe ers</w>
se )</w>
se en.</w>
se at.</w>
oun ced</w>
mo st.</w>
mo cking</w>
ex ception</w>
ex cuses</w>
ci de
ge st
pre dat
im pression</w>
ev a</w>
ev al</w>
per ed</w>
per sist
to ol
ud o</w>
"" A
tic ul
An il</w>
gr ace</w>
end ra
av ed</w>
av inassh
ind ra</w>
par amilitary</w>
** )</w>
aw ards</w>
tu k</w>
tu ition</w>
poli cies.</w>
test s-
Ch anging</w>
any where.</w>
min i</w>
ho p</w>
Ne ha</w>
str a</w>
St ones</w>
Re pe
Re public
-1 -
-1 15
jo ke.</w>
pu b
rec ur
au k
star ing</w>
ren ting</w>
bu ys</w>
off ence</w>
tim ing</w>
ni h.gov/
Con struction</w>
fri dge</w>
Pro be</w>
of +
pos s
pos session</w>
dec or
tizen s</w>
la -
dr inks</w>
dr unk</w>
](https://www. newslaundry.com/
boo t</w>
lin ess</w>
lin k.</w>
ste pping</w>
200 2.</w>
19 47
sha he
bi ases</w>
bi .nl
cas e?</w>
cri cke
10 2</w>
ph ones.</w>
emp i
Sh re
Sh opping</w>
log in</w>
Ac cid
Ac tually</w>
12 8
12 9
Com petition</w>
r/ LegalAdvice
sub tle</w>
sub continent</w>
cha i
cha se</w>
cha pter</w>
ru le.</w>
ru ining</w>
As sum
mil k
stri pped</w>
Min i</w>
month ?</w>
bl am
disc over</w>
inf lic
post s.</w>
econom ist</w>
econom y-
Ex change</w>
Co de
Me ga</w>
friend ship</w>
cu it</w>
commun alism</w>
Un like</w>
ef f</w>
sol ely</w>
int ense</w>
acc ent</w>
ori als</w>
tak e?</w>
det ect</w>
air port.</w>
Di amond</w>
wal k
saf ely</w>
saf e?</w>
14 4
t- and-
sm ugg
Pri ces</w>
produc ts:</w>
24 )</w>
30 s</w>
Dec ade</w>
stu b
conf usion</w>
Pl an
Ho ly</w>
25 %</w>
Im migration</w>
s. ”</w>
Man n</w>
medic ation</w>
Fir ing</w>
lim pse</w>
AN I
deli vers</w>
bel t</w>
Ab hishe
bur y</w>
bur st</w>
bur sting</w>
appro aching</w>
/0 1/
hal f-
marri age
led -
net /
yp ass</w>
prof its</w>
## #
Bo x</w>
recei pt</w>
sci ence.</w>
Shi va</w>
ers %2C+
adv anc
nam ely</w>
Rec ent</w>
sum mit</w>
auth entic</w>
We ap
mit t
Ag ar
Can on</w>
ship s.</w>
was -
che er</w>
che ated</w>
government ?</w>
resul ted</w>
Mon it
covid -
charg es.</w>
Up on</w>
Tri bal</w>
one )</w>
The ory</w>
Air tel
hot a</w>
constitu ted</w>
Col on
pap er.</w>
bul lied</w>
Ram an
expl oring</w>
oper ators</w>
sav es</w>
Econom ist</w>
IM D
e/ 1F
na h</w>
sho t.</w>
Mu f
Mu staf
Sa har
gradu ating</w>
BS P</w>
Coun ter</w>
cop ing</w>
head lines</w>
Anti- Muslim</w>
avo ided</w>
mun icipal</w>
ret a</w>
=web 2
liber ty</w>
ance :</w>
updat ing</w>
recommend ations?</w>
Ser ver</w>
pag e
Fi ber</w>
ty po
ty pe
activi st
celebr ates</w>
Viol ent</w>
invol ved.</w>
sun set</w>
effor t.</w>
farm ing</w>
Ger many
Nov ember.</w>
Tech +related
infec tions</w>
YouTu be.</w>
notic e.</w>
relation ship.</w>
Fri end
Pat rio
Febr u
Chri st</w>
MB A.</w>
pa is
Parliam ent.</w>
serv ants</w>
gan grap
Ko z
country ’s</w>
mean s.</w>
famil y?</w>
Mis s</w>
Boo ked</w>
doub tful</w>
onlin e
ton gue</w>
Hum ans</w>
feed s</w>
system ?</w>
road s.</w>
mag ic</w>
hous es.</w>
Fam ous</w>
reser ves</w>
condi tions.</w>
Sat ya</w>
environ ment.</w>
ing/ helping</w>
plan ?</w>
mand ate</w>
inju ries</w>
store .</w>
Cu st
expec ts</w>
rout es</w>
human ity.</w>
research ing</w>
research ed</w>
old est</w>
Kore gaon</w>
Mur shid
how ?</w>
CAB ?</w>
m. nih.gov/
distri buted</w>
decad e.</w>
bud get
198 4</w>
acqu iring</w>
acqu isition</w>
sani tis
exclusi on</w>
infra structure.</w>
covid19 .gujarat.gov.in/
ID =
Corona .</w>
vacc ines</w>
vacc ination</w>
secular ism.</w>
t= all)</w>
Punjab :</w>
CM s</w>
Hindi )</w>
encour aged</w>
terri fied</w>
craz y.</w>
CP I</w>
descri bed</w>
enough ?</w>
Ind us</w>
tho do
near by.</w>
broad cast</w>
Journ alism</w>
cros ses</w>
about -
predic tions</w>
consequ ence</w>
BI G</w>
sin cer
Mem e</w>
condem ning</w>
cryp to</w>
Kejriwal ’s</w>
smart phones</w>
critici zed</w>
Twee t
consider ation</w>
reddit.com/r/india/search ?q=Weekly+
Auth or
sort=new &amp;
restrict_sr =on
Gan g</w>
Bihar :</w>
demone tization</w>
Ah ma
tempor arily</w>
Ku ri
PD P</w>
scamm er</w>
distr action</w>
1.htm l</w>
company 's</w>
theat re</w>
shir ts</w>
draf ted</w>
emergen cy.</w>
toler ant</w>
HR D</w>
kil ome
pakist an-
Kash miri
heart break</w>
Hack ers+
instit ut
Regul ation</w>
med als</w>
&amp; sort=new&amp;
&amp; restrict_sr=on
%3A avinassh
|0 |0|</w>
को ण
Band ra</w>
dhar ma</w>
interpre tation</w>
Cas e:</w>
supre m
[R ANT]</w>
Presid ent's</w>
fit ness</w>
buy ers</w>
Sard es
rack et</w>
teen age</w>
blu etooth</w>
Tan ha
deduc ted</w>
portr ay</w>
Proc ess</w>
citizenship- amendment
Break ing:</w>
manif esto</w>
Cod ers</w>
Cod ers%2C+
curfew .</w>
diseas e.</w>
NIT I</w>
ses sions</w>
geo graph
Diwali .</w>
folk s.</w>
Indones ia</w>
Report :</w>
drag ged</w>
#### ##</w>
confirm ation</w>
Aurang abad</w>
recogn ised</w>
Scen ari
nrc -
pill ar</w>
confron ted</w>
motor cycle</w>
spic y</w>
lakh s.</w>
smoo th</w>
determin ed</w>
bachel ors</w>
Ber nie</w>
polit ely</w>
Guid elines</w>
uttar- pradesh-
uj ala
2020/0 1/
Effec ts</w>
seg ment</w>
cerem ony</w>
chao s.</w>
Liter ally</w>
prohib ited</w>
+thread +author
bang l
Recei ved</w>
Brit ain</w>
Fit ness</w>
prov ince</w>
Prat eek</w>
onai res</w>
absur d</w>
Divid e</w>
Tow ards</w>
nc bi.nl
help/ guide</w>
Reas ons</w>
Beli eve</w>
intellectu als</w>
Ox ford</w>
pock ets</w>
feature =
commodi ties</w>
Hypo crisy</w>
8.30 PM.</w>
exhau sted</w>
Unemp loyment</w>
Hem ant</w>
alum ni</w>
sibl ings</w>
reply ing/helping</w>
utensil s</w>
FRE E</w>
आह े
Victim s</w>
amar ujala
misogy n
Viet nam</w>
Crack down</w>
nerv ous</w>
[...]
