{"<unk>":0,"\u0005":1,"!":2,"\"":3,"#":4,"$":5,"%":6,"&":7,"'":8,"(":9,")":10,"*":11,"+":12,"-":13,".":14,"/":15,"0":16,"1":17,"2":18,"3":19,"4":20,"5":21,"6":22,"7":23,"8":24,"9":25,":":26,";":27,"<":28,"=":29,">":30,"?":31,"@":32,"A":33,"B":34,"C":35,"D":36,"E":37,"F":38,"G":39,"H":40,"I":41,"J":42,"K":43,"L":44,"M":45,"N":46,"O":47,"P":48,"Q":49,"R":50,"S":51,"T":52,"U":53,"V":54,"W":55,"X":56,"Y":57,"Z":58,"[":59,"]":60,"^":61,"_":62,"`":63,"a":64,"b":65,"c":66,"d":67,"e":68,"f":69,"g":70,"h":71,"i":72,"j":73,"k":74,"l":75,"m":76,"n":77,"o":78,"p":79,"q":80,"r":81,"s":82,"t":83,"u":84,"v":85,"w":86,"x":87,"y":88,"z":89,"{":90,"|":91,"}":92,"~":93,"":94,"":95,"":96,"":97,"":98,"":99,"£":100,"¦":101,"©":102,"­":103,"®":104,"¯":105,"°":106,"´":107,"·":108,"º":109,"»":110,"½":111,"¿":112,"Â":113,"Ê":114,"Ì":115,"Ñ":116,"×":117,"ß":118,"à":119,"á":120,"â":121,"ã":122,"å":123,"è":124,"é":125,"ì":126,"í":127,"ï":128,"ð":129,"ñ":130,"ó":131,"ô":132,"ö":133,"ú":134,"ü":135,"ā":136,"ē":137,"ğ":138,"ī":139,"İ":140,"Ś":141,"ś":142,"ũ":143,"ū":144,"Ǥ":145,"ț":146,"ʖ":147,"̲":148,"̶":149,"͜":150,"͡":151,"ή":152,"β":153,"λ":154,"ο":155,"π":156,"ς":157,"υ":158,"Т":159,"в":160,"е":161,"и":162,"р":163,"с":164,"т":165,"،":166,"؟":167,"آ":168,"ئ":169,"ا":170,"ب":171,"ت":172,"ث":173,"ج":174,"خ":175,"د":176,"ذ":177,"ر":178,"ز":179,"س":180,"ش":181,"ص":182,"ض":183,"ط":184,"ظ":185,"ع":186,"غ":187,"ف":188,"ق":189,"ك":190,"ل":191,"م":192,"ن":193,"و":194,"ي":195,"ً":196,"ُ":197,"ِ":198,"ٓ":199,"ٹ":200,"پ":201,"چ":202,"ڈ":203,"ڑ":204,"ک":205,"گ":206,"ں":207,"ھ":208,"ہ":209,"ی":210,"ے":211,"۔":212,"ँ":213,"ं":214,"ः":215,"अ":216,"आ":217,"इ":218,"ई":219,"उ":220,"ऊ":221,"ऋ":222,"ए":223,"ऐ":224,"ऑ":225,"ओ":226,"औ":227,"क":228,"ख":229,"ग":230,"घ":231,"च":232,"छ":233,"ज":234,"झ":235,"ञ":236,"ट":237,"ठ":238,"ड":239,"ढ":240,"ण":241,"त":242,"थ":243,"द":244,"ध":245,"न":246,"प":247,"फ":248,"ब":249,"भ":250,"म":251,"य":252,"र":253,"ऱ":254,"ल":255,"ळ":256,"व":257,"श":258,"ष":259,"स":260,"ह":261,"़":262,"ा":263,"ि":264,"ी":265,"ु":266,"ू":267,"ृ":268,"ॅ":269,"े":270,"ै":271,"ॉ":272,"ो":273,"ौ":274,"्":275,"ॐ":276,"क़":277,"ख़":278,"ग़":279,"ज़":280,"ड़":281,"ढ़":282,"फ़":283,"।":284,"॥":285,"०":286,"१":287,"२":288,"३":289,"४":290,"५":291,"६":292,"७":293,"८":294,"९":295,"ঁ":296,"ং":297,"ঃ":298,"অ":299,"আ":300,"ই":301,"উ":302,"এ":303,"ও":304,"ক":305,"খ":306,"গ":307,"ঘ":308,"ঙ":309,"চ":310,"ছ":311,"জ":312,"ঝ":313,"ঞ":314,"ট":315,"ঠ":316,"ড":317,"ঢ":318,"ণ":319,"ত":320,"থ":321,"দ":322,"ধ":323,"ন":324,"প":325,"ফ":326,"ব":327,"ভ":328,"ম":329,"য":330,"র":331,"ল":332,"শ":333,"ষ":334,"স":335,"হ":336,"়":337,"া":338,"ি":339,"ী":340,"ু":341,"ূ":342,"ৃ":343,"ে":344,"ৈ":345,"ো":346,"ৌ":347,"্":348,"ৎ":349,"ড়":350,"য়":351,"০":352,"১":353,"২":354,"৩":355,"৪":356,"৫":357,"৬":358,"৯":359,"ਂ":360,"ਆ":361,"ਈ":362,"ਕ":363,"ਚ":364,"ਜ":365,"ਠ":366,"ਡ":367,"ਤ":368,"ਦ":369,"ਨ":370,"ਪ":371,"ਬ":372,"ਭ":373,"ਰ":374,"ਲ":375,"ਵ":376,"ਸ਼":377,"ਸ":378,"ਾ":379,"ਿ":380,"ੀ":381,"ੁ":382,"ੂ":383,"ੇ":384,"ੋ":385,"ਖ਼":386,"ੰ":387,"ੱ":388,"ં":389,"આ":390,"ઈ":391,"એ":392,"ક":393,"ખ":394,"ગ":395,"ચ":396,"છ":397,"જ":398,"ટ":399,"ઠ":400,"ઢ":401,"ણ":402,"ત":403,"દ":404,"ધ":405,"ન":406,"પ":407,"ફ":408,"બ":409,"મ":410,"ય":411,"ર":412,"લ":413,"ળ":414,"વ":415,"શ":416,"સ":417,"હ":418,"ા":419,"િ":420,"ી":421,"ુ":422,"ૂ":423,"ે":424,"ો":425,"્":426,"ଁ":427,"ଆ":428,"ଇ":429,"କ":430,"ଛ":431,"ନ":432,"ପ":433,"ର":434,"ଷ":435,"ସ":436,"ା":437,"ି":438,"ୁ":439,"େ":440,"அ":441,"ஆ":442,"இ":443,"ஈ":444,"உ":445,"எ":446,"ஐ":447,"க":448,"ங":449,"ச":450,"ஜ":451,"ஞ":452,"ட":453,"ண":454,"த":455,"ந":456,"ன":457,"ப":458,"ம":459,"ய":460,"ர":461,"ற":462,"ல":463,"ள":464,"ழ":465,"வ":466,"ஷ":467,"ஸ":468,"ா":469,"ி":470,"ீ":471,"ு":472,"ூ":473,"ெ":474,"ே":475,"ை":476,"ொ":477,"ோ":478,"்":479,"ం":480,"అ":481,"ఆ":482,"ఇ":483,"ఈ":484,"ఉ":485,"ఊ":486,"ఎ":487,"ఏ":488,"ఐ":489,"క":490,"ఖ":491,"గ":492,"చ":493,"జ":494,"ట":495,"డ":496,"ణ":497,"త":498,"థ":499,"ద":500,"ధ":501,"న":502,"ప":503,"ఫ":504,"బ":505,"భ":506,"మ":507,"య":508,"ర":509,"ల":510,"ళ":511,"వ":512,"శ":513,"ష":514,"స":515,"హ":516,"ా":517,"ి":518,"ీ":519,"ు":520,"ూ":521,"ృ":522,"ె":523,"ే":524,"ై":525,"ొ":526,"ో":527,"ౌ":528,"్":529,"ಂ":530,"ಎ":531,"ಒ":532,"ಕ":533,"ಗ":534,"ಟ":535,"ಠ":536,"ಡ":537,"ಢ":538,"ಣ":539,"ಥ":540,"ದ":541,"ನ":542,"ಭ":543,"ಮ":544,"ರ":545,"ಲ":546,"ಳ":547,"ವ":548,"ಷ":549,"ಸ":550,"ಹ":551,"ಾ":552,"ಿ":553,"ು":554,"ೂ":555,"ೆ":556,"ೇ":557,"ೋ":558,"್":559,"ം":560,"അ":561,"ആ":562,"ഇ":563,"ഉ":564,"എ":565,"ഏ":566,"ഐ":567,"ഒ":568,"ഓ":569,"ക":570,"ഖ":571,"ഗ":572,"ഘ":573,"ങ":574,"ച":575,"ജ":576,"ഞ":577,"ട":578,"ഡ":579,"ണ":580,"ത":581,"ദ":582,"ധ":583,"ന":584,"പ":585,"ഫ":586,"ബ":587,"ഭ":588,"മ":589,"യ":590,"ര":591,"റ":592,"ല":593,"ള":594,"ഴ":595,"വ":596,"ശ":597,"ഷ":598,"സ":599,"ഹ":600,"ാ":601,"ി":602,"ീ":603,"ു":604,"ൂ":605,"െ":606,"േ":607,"ൈ":608,"ൊ":609,"ോ":610,"്":611,"ൻ":612,"ർ":613,"ൽ":614,"ൾ":615,"ආ":616,"ඔ":617,"ක":618,"ග":619,"ඞ":620,"ච":621,"ඩ":622,"ණ":623,"ත":624,"ථ":625,"ද":626,"ධ":627,"න":628,"ප":629,"බ":630,"ම":631,"ය":632,"ර":633,"ල":634,"ව":635,"ශ":636,"ෂ":637,"ස":638,"හ":639,"ළ":640,"්":641,"ා":642,"ි":643,"ී":644,"ු":645,"ූ":646,"ෙ":647,"ේ":648,"ෝ":649,"គ":650,"ង":651,"ណ":652,"ទ":653,"ន":654,"ភ":655,"ស":656,"ា":657,"ី":658,"៣":659,"ḍ":660,"ḗ":661,"ḥ":662,"ṃ":663,"ṇ":664,"ṣ":665,"ṭ":666,"​":667,"‌":668,"‍":669,"‎":670,"‐":671,"–":672,"—":673,"―":674,"‘":675,"’":676,"“":677,"”":678,"„":679,"†":680,"•":681,"…":682,"‪":683,"‬":684,"‹":685,"›":686,"‽":687,"‿":688,"⁉":689,"⁠":690,"⁣":691,"⁦":692,"⁩":693,"⁴":694,"€":695,"₭":696,"₹":697,"⃣":698,"™":699,"√":700,"∞":701,"∩":702,"①":703,"②":704,"╭":705,"╮":706,"▪":707,"►":708,"○":709,"●":710,"☀":711,"☎":712,"☕":713,"☠":714,"☢":715,"☮":716,"☺":717,"♀":718,"♂":719,"♡":720,"♥":721,"⚕":722,"⚖":723,"⚠":724,"⚡":725,"⚽":726,"⛔":727,"⛰":728,"✅":729,"✊":730,"✌":731,"✍":732,"✔":733,"✝":734,"✨":735,"❄":736,"❗":737,"❣":738,"❤":739,"➡":740,"⭕":741,"ツ":742,"ナ":743,"ノ":744,"マ":745,"ヤ":746,"ラ":747,"ー":748,"伝":749,"免":750,"力":751,"可":752,"增":753,"子":754,"核":755,"王":756,"疫":757,"益":758,"苷":759,"術":760,"説":761,"酸":762,"馬":763,"":764,"ﬁ":765,"️":766,"︵":767,"︶":768,"︿":769,"﻿":770,"－":771,"：":772,"？":773,"￼":774,"𝙏":775,"𝙖":776,"𝙗":777,"𝙘":778,"𝙙":779,"𝙚":780,"𝙛":781,"𝙜":782,"𝙝":783,"𝙞":784,"𝙡":785,"𝙣":786,"𝙤":787,"𝙧":788,"𝙨":789,"𝙩":790,"𝙫":791,"𝙮":792,"𝙰":793,"𝙳":794,"𝙴":795,"𝙸":796,"𝙼":797,"𝙽":798,"𝚁":799,"𝚂":800,"🅱":801,"🅿":802,"🇦":803,"🇨":804,"🇩":805,"🇪":806,"🇭":807,"🇮":808,"🇰":809,"🇲":810,"🇳":811,"🇵":812,"🇸":813,"🇺":814,"🌄":815,"🌉":816,"🌊":817,"🌍":818,"🌒":819,"🌕":820,"🌠":821,"🌡":822,"🌶":823,"🌷":824,"🌹":825,"🌺":826,"🌼":827,"🍇":828,"🍋":829,"🍠":830,"🍳":831,"🍺":832,"🍻":833,"🎁":834,"🎄":835,"🎅":836,"🎉":837,"🎊":838,"🎗":839,"🎥":840,"🎨":841,"🎬":842,"🎵":843,"🎶":844,"🏆":845,"🏔":846,"🏛":847,"🏠":848,"🏻":849,"🏼":850,"🏽":851,"🏾":852,"🏿":853,"🐕":854,"🐘":855,"🐣":856,"🐪":857,"🐫":858,"🐮":859,"👀":860,"👁":861,"👆":862,"👇":863,"👉":864,"👊":865,"👋":866,"👌":867,"👍":868,"👏":869,"👨":870,"👩":871,"👮":872,"👳":873,"👽":874,"💀":875,"💁":876,"💃":877,"💓":878,"💕":879,"💖":880,"💗":881,"💙":882,"💚":883,"💝":884,"💡":885,"💣":886,"💥":887,"💦":888,"💨":889,"💩":890,"💪":891,"💯":892,"💰":893,"💼":894,"📈":895,"📌":896,"📍":897,"📖":898,"📜":899,"📝":900,"📰":901,"📱":902,"📲":903,"📷":904,"📸":905,"🔔":906,"🔗":907,"🔥":908,"🔬":909,"🔱":910,"🔴":911,"🕉":912,"🕊":913,"🕺":914,"🖤":915,"🗡":916,"😀":917,"😁":918,"😂":919,"😃":920,"😄":921,"😅":922,"😆":923,"😇":924,"😉":925,"😊":926,"😋":927,"😌":928,"😍":929,"😎":930,"😏":931,"😐":932,"😑":933,"😒":934,"😓":935,"😔":936,"😕":937,"😘":938,"😛":939,"😜":940,"😠":941,"😡":942,"😢":943,"😣":944,"😤":945,"😥":946,"😩":947,"😪":948,"😬":949,"😭":950,"😱":951,"😳":952,"😴":953,"😶":954,"😷":955,"🙂":956,"🙃":957,"🙄":958,"🙆":959,"🙈":960,"🙌":961,"🙏":962,"🚅":963,"🚇":964,"🚑":965,"🚨":966,"🚩":967,"🚫":968,"🚲":969,"🛺":970,"🤐":971,"🤒":972,"🤓":973,"🤔":974,"🤗":975,"🤞":976,"🤟":977,"🤡":978,"🤢":979,"🤣":980,"🤤":981,"🤦":982,"🤨":983,"🤪":984,"🤫":985,"🤬":986,"🤭":987,"🤷":988,"🥂":989,"🥔":990,"🥭":991,"🥰":992,"🥳":993,"🥶":994,"🥺":995,"🦆":996,"🦒":997,"🦠":998,"🧐":999,"🧘":1000,"l</w>":1001,"്</w>":1002,"e</w>":1003,")</w>":1004,"d</w>":1005,".</w>":1006,"i</w>":1007,"y</w>":1008,"p</w>":1009,"'</w>":1010,"n</w>":1011,"k</w>":1012,"s</w>":1013,":</w>":1014,"h</w>":1015,"é</w>":1016,"g</w>":1017,"म</w>":1018,"j</w>":1019,"\"</w>":1020,"?</w>":1021,"थ</w>":1022,"r</w>":1023,"🚩</w>":1024,"*</w>":1025,"5</w>":1026,"]</w>":1027,"H</w>":1028,"6</w>":1029,"b</w>":1030,"S</w>":1031,"4</w>":1032,"t</w>":1033,"a</w>":1034,";</w>":1035,"w</w>":1036,"m</w>":1037,"A</w>":1038,"3</w>":1039,"P</w>":1040,"-</w>":1041,"Y</w>":1042,"c</w>":1043,"I</w>":1044,"ে</w>":1045,"0</w>":1046,"u</w>":1047,"G</w>":1048,"C</w>":1049,"”</w>":1050,"o</w>":1051,"त</w>":1052,"स</w>":1053,"ی</w>":1054,"’</w>":1055,"=</w>":1056,"z</w>":1057,"!</w>":1058,"ा</w>":1059,"र</w>":1060,"😎</w>":1061,"़</w>":1062,"7</w>":1063,"/</w>":1064,"B</w>":1065,"ি</w>":1066,"ন</w>":1067,"J</w>":1068,"8</w>":1069,"ী</w>":1070,"(</w>":1071,"f</w>":1072,"े</w>":1073,"ी</w>":1074,"🤔</w>":1075,"🏾</w>":1076,"ि</w>":1077,"O</w>":1078,"র</w>":1079,"F</w>":1080,"😑</w>":1081,"|</w>":1082,"1</w>":1083,"V</w>":1084,"L</w>":1085,"T</w>":1086,"🙏</w>":1087,"2</w>":1088,"W</w>":1089,"N</w>":1090,"फ</w>":1091,"🇦</w>":1092,"9</w>":1093,"x</w>":1094,"य</w>":1095,"்</w>":1096,"ం</w>":1097,"🍳</w>":1098,"ध</w>":1099,"ौ</w>":1100,"E</w>":1101,"D</w>":1102,"ए</w>":1103,"ి</w>":1104,"[</w>":1105,"न</w>":1106,"R</w>":1107,"ర</w>":1108,"M</w>":1109,"ब</w>":1110,"ओ</w>":1111,"च</w>":1112,"%</w>":1113,"🤪</w>":1114,"ক</w>":1115,"️</w>":1116,"+</w>":1117,"Q</w>":1118,"U</w>":1119,"व</w>":1120,"ప</w>":1121,"ं</w>":1122,"ँ</w>":1123,"✨</w>":1124,"ુ</w>":1125,"ன</w>":1126,"_</w>":1127,"😂</w>":1128,"া</w>":1129,"q</w>":1130,"K</w>":1131,"🔥</w>":1132,"👍</w>":1133,"></w>":1134,"Z</w>":1135,"ج</w>":1136,"ো</w>":1137,"ण</w>":1138,"𝙚</w>":1139,"ే</w>":1140,"।</w>":1141,"😀</w>":1142,"𝙙</w>":1143,"🤓</w>":1144,"ट</w>":1145,"क</w>":1146,"－</w>":1147,"‍</w>":1148,"🙌</w>":1149,"ह</w>":1150,"®</w>":1151,"ল</w>":1152,"শ</w>":1153,"👌</w>":1154,"🇪</w>":1155,"`</w>":1156,"🙂</w>":1157,"😁</w>":1158,"å</w>":1159,"🙄</w>":1160,"ज</w>":1161,"ः</w>":1162,"ই</w>":1163,"ख</w>":1164,"💃</w>":1165,"ू</w>":1166,"¯</w>":1167,"#</w>":1168,"থ</w>":1169,"😍</w>":1170,"“</w>":1171,"ो</w>":1172,"—</w>":1173,"₹</w>":1174,"v</w>":1175,"ణ</w>":1176,"ా</w>":1177,"🥶</w>":1178,"জ</w>":1179,"ग</w>":1180,"द</w>":1181,"छ</w>":1182,"ং</w>":1183,"්</w>":1184,"~</w>":1185,"ு</w>":1186,"ي</w>":1187,"}</w>":1188,"प</w>":1189,"়</w>":1190,"؟</w>":1191,"►</w>":1192,"्</w>":1193,"😒</w>":1194,"🤐</w>":1195,"X</w>":1196,"ఈ</w>":1197,"ை</w>":1198,"…</w>":1199,"ස</w>":1200,"♂</w>":1201,"ड</w>":1202,"ు</w>":1203,"⃣</w>":1204,"😔</w>":1205,"😤</w>":1206,"్</w>":1207,"ે</w>":1208,"$</w>":1209,"ന</w>":1210,"&</w>":1211,"ई</w>":1212,"›</w>":1213,"ఖ</w>":1214,"🤦</w>":1215,"৩</w>":1216,"ট</w>":1217,"😅</w>":1218,"ے</w>":1219,"🇲</w>":1220,"💥</w>":1221,"​</w>":1222,"२</w>":1223,"এ</w>":1224,"ں</w>":1225,"ி</w>":1226,"🇳</w>":1227,"？</w>":1228,"پ</w>":1229,"🤣</w>":1230,"श</w>":1231,"ಣ</w>":1232,"ु</w>":1233,"ల</w>":1234,"ज़</w>":1235,"ി</w>":1236,"</w>":1237,"१</w>":1238,"ം</w>":1239,"ر</w>":1240,"📷</w>":1241,"👉</w>":1242,"😳</w>":1243,"🏼</w>":1244,"ल</w>":1245,"💰</w>":1246,"३</w>":1247,"📖</w>":1248,"২</w>":1249,"🐘</w>":1250,"ष</w>":1251,"ف</w>":1252,"𝙜</w>":1253,"🌊</w>":1254,"ষ</w>":1255,"🏻</w>":1256,"ல</w>":1257,"م</w>":1258,"भ</w>":1259,"ਈ</w>":1260,"ய</w>":1261,"ব</w>":1262,"ṃ</w>":1263,"£</w>":1264,"•</w>":1265,"आ</w>":1266,"🐕</w>":1267,"Ê</w>":1268,"€</w>":1269,"െ</w>":1270,"ণ</w>":1271,"👏</w>":1272,"झ</w>":1273,"🕉</w>":1274,"🌒</w>":1275,"😭</w>":1276,"º</w>":1277,"»</w>":1278,"ত</w>":1279,"½</w>":1280,"💨</w>":1281,"🍻</w>":1282,"১</w>":1283,"০</w>":1284,"ൽ</w>":1285,"ා</w>":1286,"説</w>":1287,"و</w>":1288,"ક</w>":1289,"<</w>":1290,"ت</w>":1291,"^</w>":1292,"📈</w>":1293,"🇭</w>":1294,"💯</w>":1295,"💝</w>":1296,"প</w>":1297,"✅</w>":1298,"🏽</w>":1299,"😷</w>":1300,"ا</w>":1301,"॥</w>":1302,"👀</w>":1303,"લ</w>":1304,"°</w>":1305,"য</w>":1306,"৪</w>":1307,"ර</w>":1308,"ஐ</w>":1309,"দ</w>":1310,"⛔</w>":1311,"ણ</w>":1312,"🌕</w>":1313,"😢</w>":1314,"﻿</w>":1315,"९</w>":1316,"த</w>":1317,"🙈</w>":1318,"👇</w>":1319,"🎉</w>":1320,"ড়</w>":1321,"ર</w>":1322,"ൻ</w>":1323,"🥔</w>":1324,"ز</w>":1325,"👨</w>":1326,"খ</w>":1327,"🦒</w>":1328,"😛</w>":1329,"৫</w>":1330,"ā</w>":1331,"😡</w>":1332,"😊</w>":1333,"க</w>":1334,"🌍</w>":1335,"ধ</w>":1336,"ൾ</w>":1337,"ও</w>":1338,"¦</w>":1339,"ل</w>":1340,"ੀ</w>":1341,"য়</w>":1342,"ர</w>":1343,"স</w>":1344,"✊</w>":1345,"💕</w>":1346,"බ</w>":1347,"🕊</w>":1348,"ో</w>":1349,"📰</w>":1350,"π</w>":1351,"ٹ</w>":1352,"হ</w>":1353,"ছ</w>":1354,"ી</w>":1355,"⚖</w>":1356,"🥺</w>":1357,"જ</w>":1358,"ു</w>":1359,"😴</w>":1360,"ن</w>":1361,"ં</w>":1362,"ూ</w>":1363,"મ</w>":1364,"अ</w>":1365,"😥</w>":1366,"०</w>":1367,"♡</w>":1368,"🤢</w>":1369,"💙</w>":1370,"Ǥ</w>":1371,"៣</w>":1372,"ہ</w>":1373,"𝙽</w>":1374,"ै</w>":1375,"🤤</w>":1376,"પ</w>":1377,"💗</w>":1378,"‘</w>":1379,"ධ</w>":1380,"😃</w>":1381,"💼</w>":1382,"ೂ</w>":1383,"ા</w>":1384,"👩</w>":1385,"ু</w>":1386,"🤨</w>":1387,"ય</w>":1388,"🌠</w>":1389,"🤗</w>":1390,"ळ</w>":1391,"🍠</w>":1392,"📸</w>":1393,"ḥ</w>":1394,"५</w>":1395,"న</w>":1396,"യ</w>":1397,"ਂ</w>":1398,"ો</w>":1399,"ఐ</w>":1400,"𝙣</w>":1401,"‬</w>":1402,"ି</w>":1403,"{</w>":1404,"د</w>":1405,"ಗ</w>":1406,"ম</w>":1407,"🙃</w>":1408,"👋</w>":1409,"✔</w>":1410,"ണ</w>":1411,"×</w>":1412,"ె</w>":1413,"🏆</w>":1414,"⁣</w>":1415,"力</w>":1416,"😘</w>":1417,"💣</w>":1418,"●</w>":1419,"🌼</w>":1420,"í</w>":1421,"😶</w>":1422,"🛺</w>":1423,"ි</w>":1424,"🐪</w>":1425,"②</w>":1426,"න</w>":1427,"ച</w>":1428,"😣</w>":1429,"ದ</w>":1430,"ς</w>":1431,"ਨ</w>":1432,"େ</w>":1433,"ਚ</w>":1434,"ா</w>":1435,"😇</w>":1436,"ʖ</w>":1437,"ص</w>":1438,"ک</w>":1439,"آ</w>":1440,"ھ</w>":1441,"❤</w>":1442,"क़</w>":1443,"–</w>":1444,"ක</w>":1445,"р</w>":1446,"🕺</w>":1447,"à</w>":1448,"🖤</w>":1449,"ీ</w>":1450,"😉</w>":1451,"·</w>":1452,"త</w>":1453,"ठ</w>":1454,"ভ</w>":1455,"💪</w>":1456,"💡</w>":1457,"ై</w>":1458,"ఏ</w>":1459,"☕</w>":1460,"ढ़</w>":1461,"🔴</w>":1462,"™</w>":1463,"६</w>":1464,"🎄</w>":1465,"ත</w>":1466,"🤞</w>":1467,"￼</w>":1468,"⁠</w>":1469,"👽</w>":1470,"ਲ</w>":1471,"⭕</w>":1472,"८</w>":1473,"🧐</w>":1474,"চ</w>":1475,"ノ</w>":1476,"∞</w>":1477,"ॐ</w>":1478,"ഞ</w>":1479,"ង</w>":1480,"🎥</w>":1481,"😆</w>":1482,"―</w>":1483,"۔</w>":1484,"👆</w>":1485,"ੇ</w>":1486,"⁩</w>":1487,"ਸ਼</w>":1488,"ञ</w>":1489,"🔗</w>":1490,"🎗</w>":1491,"🏠</w>":1492,"ී</w>":1493,"𝙧</w>":1494,"ල</w>":1495,"🌹</w>":1496,"­</w>":1497,"💀</w>":1498,"📌</w>":1499,"ණ</w>":1500,"മ</w>":1501,"📲</w>":1502,"ಢ</w>":1503,"🌄</w>":1504,"‽</w>":1505,"❗</w>":1506,"🤫</w>":1507,"🥳</w>":1508,"ع</w>":1509,"😌</w>":1510,"🦆</w>":1511,"మ</w>":1512,"🚅</w>":1513,"̲</w>":1514,"🤒</w>":1515,"😓</w>":1516,"🏔</w>":1517,"🌷</w>":1518,"ফ</w>":1519,"গ</w>":1520,"🎨</w>":1521,"🥰</w>":1522,"ව</w>":1523,"🚲</w>":1524,"@</w>":1525,"̶</w>":1526,"🔔</w>":1527,"థ</w>":1528,"á</w>":1529,"ઈ</w>":1530,"ற</w>":1531,"ೆ</w>":1532,"ಿ</w>":1533,"ේ</w>":1534,"🥂</w>":1535,"డ</w>":1536,"७</w>":1537,"ب</w>":1538,"س</w>":1539,"💓</w>":1540,"ଁ</w>":1541,"ೇ</w>":1542,"উ</w>":1543,"⁴</w>":1544,"в</w>":1545,"😕</w>":1546,"𝙨</w>":1547,"ය</w>":1548,"𝙮</w>":1549,"😐</w>":1550,"🎊</w>":1551,"ே</w>":1552,"🎵</w>":1553,"😪</w>":1554,"😱</w>":1555,"🙆</w>":1556,"╮</w>":1557,"</w>":1558,"४</w>":1559,"ق</w>":1560,"🐫</w>":1561,"</w>":1562,"🦠</w>":1563,"➡</w>":1564,"ക</w>":1565,"😄</w>":1566,"🎬</w>":1567,"🚇</w>":1568,"چ</w>":1569,"घ</w>":1570,"😜</w>":1571,"😋</w>":1572,"‹</w>":1573,"🇸</w>":1574,"🤡</w>":1575,"ല</w>":1576,"😩</w>":1577,"బ</w>":1578,"🥭</w>":1579,"ಥ</w>":1580,"🤬</w>":1581,"🔱</w>":1582,"©</w>":1583,"🚫</w>":1584,"①</w>":1585,"శ</w>":1586,"💦</w>":1587,"🎶</w>":1588,"ঠ</w>":1589,"📜</w>":1590,"th":1591,"in":1592,"an":1593,"er":1594,"on":1595,"re":1596,"ti":1597,"ar":1598,"ou":1599,"en":1600,"the</w>":1601,"ing</w>":1602,"to</w>":1603,"or":1604,"ed</w>":1605,"st":1606,"ha":1607,"di":1608,"al":1609,"and</w>":1610,"it":1611,"in</w>":1612,"is</w>":1613,"er</w>":1614,"on</w>":1615,"of</w>":1616,"at":1617,"om":1618,"ro":1619,"or</w>":1620,"es":1621,"es</w>":1622,"li":1623,"el":1624,"as":1625,"il":1626,"an</w>":1627,"ac":1628,"ec":1629,"us":1630,"at</w>":1631,"ve</w>":1632,"ri":1633,"In":1634,"no":1635,"al</w>":1636,"le":1637,"for</w>":1638,"en</w>":1639,"Indi":1640,"vi":1641,"ati":1642,"ly</w>":1643,"ur":1644,"as</w>":1645,"am":1646,"wh":1647,"lo":1648,"Th":1649,"ad":1650,"le</w>":1651,"is":1652,"the":1653,"ab":1654,"op":1655,"are</w>":1656,"it</w>":1657,"ic":1658,"com":1659,"po":1660,"de":1661,"sh":1662,"that</w>":1663,"ver":1664,"un":1665,"ag":1666,"ts</w>":1667,"ent</w>":1668,"si":1669,"ce</w>":1670,"be":1671,"ol":1672,"ne":1673,"ak":1674,"tr":1675,"ch":1676,"pro":1677,"wit":1678,"su":1679,"tt":1680,"gh":1681,"ay</w>":1682,"go":1683,"ere</w>":1684,"ay":1685,"be</w>":1686,"have</w>":1687,"ou</w>":1688,"this</w>":1689,"pe":1690,"out</w>":1691,"'s</w>":1692,"do":1693,"st</w>":1694,"em":1695,"with</w>":1696,"ut</w>":1697,"my</w>":1698,"se":1699,"you</w>":1700,"oun":1701,"rom</w>":1702,"20":1703,"me</w>":1704,"con":1705,"ir":1706,"ld</w>":1707,"ap":1708,"one</w>":1709,"India</w>":1710,"from</w>":1711,"s.</w>":1712,"not</w>":1713,"ar</w>":1714,"ing":1715,"ter":1716,"ation</w>":1717,"mo":1718,"ed":1719,"ul":1720,"our</w>":1721,"ex":1722,"ci":1723,"ow</w>":1724,"ould</w>":1725,"oo":1726,"e.</w>":1727,"'t</w>":1728,"ill</w>":1729,"hat</w>":1730,"ent":1731,"was</w>":1732,"ge":1733,"The</w>":1734,"hi":1735,"tion</w>":1736,"for":1737,"ers</w>":1738,"sp":1739,"wor":1740,"um":1741,"am</w>":1742,"by</w>":1743,"od":1744,"ate</w>":1745,"ps":1746,"pl":1747,"ff":1748,"ad</w>":1749,"tion":1750,"any</w>":1751,"so</w>":1752,"som":1753,"all</w>":1754,"ation":1755,"htt":1756,"uc":1757,"//":1758,"://":1759,"ir</w>":1760,"but</w>":1761,"qu":1762,"pre":1763,"ther</w>":1764,"se</w>":1765,"im":1766,"https":1767,"https://":1768,"est":1769,"ain":1770,"and":1771,"ee":1772,"will</w>":1773,"peop":1774,"they</w>":1775,"ally</w>":1776,"ght</w>":1777,"ev":1778,"us</w>":1779,"per":1780,"ww":1781,"ke</w>":1782,"to":1783,"our":1784,"ted</w>":1785,"est</w>":1786,"th</w>":1787,"gi":1788,"about</w>":1789,"ity</w>":1790,"now</w>":1791,"por":1792,"ter</w>":1793,"can</w>":1794,"id":1795,"we</w>":1796,"ment</w>":1797,"ud":1798,"are":1799,"ust</w>":1800,"people</w>":1801,"has</w>":1802,"if</w>":1803,"king</w>":1804,"\"\"":1805,"do</w>":1806,"ear":1807,"tic":1808,"An":1809,"me":1810,"ist":1811,"af":1812,"gr":1813,"ant</w>":1814,"end":1815,"av":1816,"ind":1817,"ai":1818,"ore</w>":1819,"ang":1820,"et":1821,"I'":1822,"coun":1823,"ut":1824,"like</w>":1825,"who</w>":1826,"ake</w>":1827,"ch</w>":1828,"their</w>":1829,"ow":1830,"use</w>":1831,"India":1832,"ks</w>":1833,"Wh":1834,"--":1835,"sc":1836,".com":1837,"Indian</w>":1838,"y.</w>":1839,"(https://":1840,"ver</w>":1841,"don":1842,"get</w>":1843,".com/":1844,"ays</w>":1845,"your</w>":1846,"what</w>":1847,"ich</w>":1848,"hi</w>":1849,"par":1850,"ll</w>":1851,"der":1852,"ase</w>":1853,"](https://":1854,"indi":1855,"**":1856,"aw":1857,"hel":1858,"vir":1859,"thing</w>":1860,"mon":1861,"some</w>":1862,"’s</w>":1863,"Del":1864,"tu":1865,"dow":1866,"he</w>":1867,"he":1868,"ce":1869,"poli":1870,"just</w>":1871,"which</w>":1872,"oron":1873,"cl":1874,"har":1875,"there</w>":1876,"vern":1877,"comm":1878,"gu":1879,"fe":1880,"co":1881,"ure</w>":1882,"would</w>":1883,"been</w>":1884,"..":1885,"bec":1886,"how</w>":1887,"ents</w>":1888,"pp":1889,"ess</w>":1890,"age</w>":1891,"know</w>":1892,"test":1893,"CA":1894,"other</w>":1895,"ra":1896,"very</w>":1897,"ence</w>":1898,"What</w>":1899,"ey</w>":1900,"up</w>":1901,"fi":1902,"ting</w>":1903,"w.":1904,"gh</w>":1905,"so":1906,"Ch":1907,"any":1908,"min":1909,"ck":1910,"res":1911,"ese</w>":1912,"we":1913,"all":1914,"ail":1915,"ame</w>":1916,"n't</w>":1917,"es.</w>":1918,"up":1919,"t.</w>":1920,"sit":1921,"inter":1922,"ho":1923,"201":1924,"ast</w>":1925,"ess":1926,"ated</w>":1927,"Ne":1928,"ine</w>":1929,"wi":1930,"no</w>":1931,"00":1932,"them</w>":1933,"ple":1934,"some":1935,"ill":1936,"I'm</w>":1937,"ash":1938,"www.":1939,"\"\"</w>":1940,"sel":1941,"str":1942,"sti":1943,"ause</w>":1944,"This</w>":1945,"able</w>":1946,"St":1947,"bo":1948,"How</w>":1949,"hat":1950,"der</w>":1951,"Delhi</w>":1952,"umb":1953,"tions</w>":1954,"more</w>":1955,"don't</w>":1956,"ack</w>":1957,"orona":1958,"Re":1959,"ge</w>":1960,"ong</w>":1961,"od</w>":1962,"ans</w>":1963,"tri":1964,"In</w>":1965,"shi":1966,"pri":1967,"had</w>":1968,"ws</w>":1969,"ound</w>":1970,"ard":1971,"-1":1972,"fin":1973,"ous</w>":1974,"even</w>":1975,"his</w>":1976,"old</w>":1977,"vernment</w>":1978,"jo":1979,"vid":1980,"ome</w>":1981,"should</w>":1982,"thin":1983,"ain</w>":1984,"ked</w>":1985,"oronavir":1986,"end</w>":1987,"its</w>":1988,"mar":1989,"ic</w>":1990,"after</w>":1991,"time</w>":1992,"pu":1993,"again":1994,"Go":1995,"ough</w>":1996,"ely</w>":1997,"ve":1998,"fac":1999,"rec":2000,"were</w>":2001,"form":2002,"down</w>":2003,"Ar":2004,"ast":2005,"Am":2006,"au":2007,"when</w>":2008,"ell":2009,"ig":2010,"read":2011,"ser":2012,"year":2013,"these</w>":2014,"star":2015,"ile</w>":2016,"tiz":2017,"BJ":2018,"want</w>":2019,"br":2020,"et</w>":2021,"cont":2022,"only</w>":2023,"ren":2024,"ance</w>":2025,"ary</w>":2026,"because</w>":2027,"ther":2028,"We</w>":2029,"can":2030,"bu":2031,"off":2032,"emb":2033,"try</w>":2034,"te":2035,"cre":2036,"fir":2037,"tim":2038,"ni":2039,"Is</w>":2040,"Hind":2041,"red":2042,"ue</w>":2043,"sec":2044,"Po":2045,"against</w>":2046,"enti":2047,"also</w>":2048,"ying</w>":2049,"being</w>":2050,"ving</w>":2051,"Mo":2052,"So</w>":2053,"Con":2054,"aj":2055,"where</w>":2056,"day</w>":2057,"usli":2058,"pres":2059,"cr":2060,"If</w>":2061,"sion</w>":2062,"But</w>":2063,"than</w>":2064,"stud":2065,"very":2066,"ings</w>":2067,"ell</w>":2068,"medi":2069,"loo":2070,"happ":2071,"ann":2072,"s/":2073,"Mod":2074,"It</w>":2075,"red</w>":2076,"good</w>":2077,"ment":2078,"pr":2079,"ant":2080,"aren":2081,"ms</w>":2082,"help</w>":2083,"ces</w>":2084,"sid":2085,"ass":2086,"over</w>":2087,"need</w>":2088,"ans":2089,"ack":2090,"stat":2091,"now":2092,"fri":2093,"go</w>":2094,"her</w>":2095,"Pro":2096,"tw":2097,"ing.</w>":2098,"Modi</w>":2099,"No":2100,"app":2101,"read</w>":2102,"mi":2103,"of":2104,"pos":2105,"----":2106,"government</w>":2107,"dec":2108,"sup":2109,"aid</w>":2110,"ect</w>":2111,"tizen":2112,"la":2113,"BJP</w>":2114,"eng":2115,"protest":2116,"leg":2117,"most</w>":2118,"vie":2119,"you":2120,"ed.</w>":2121,"comp":2122,"NR":2123,"CAA</w>":2124,"gg":2125,"ties</w>":2126,"My</w>":2127,"way</w>":2128,"port</w>":2129,"ty</w>":2130,"att":2131,"Musli":2132,"ade</w>":2133,"think</w>":2134,").</w>":2135,"col":2136,"low":2137,"oronavirus</w>":2138,"going</w>":2139,"cur":2140,"dr":2141,"20</w>":2142,"mis":2143,"ves</w>":2144,"ali":2145,"every":2146,"plac":2147,"And</w>":2148,"ye":2149,"**</w>":2150,"used</w>":2151,"s-":2152,"Al":2153,"ard</w>":2154,"ble":2155,"ors</w>":2156,"ons</w>":2157,"ory</w>":2158,"uch</w>":2159,"als</w>":2160,"dat":2161,"ies</w>":2162,"](https://www.":2163,"wat":2164,"ree</w>":2165,"with":2166,"ship</w>":2167,"s?</w>":2168,"her":2169,"boo":2170,"lin":2171,"fu":2172,"soci":2173,"pers":2174,"into</w>":2175,"ste":2176,"nation":2177,"dit":2178,"make</w>":2179,"fam":2180,"take</w>":2181,"ide":2182,"id</w>":2183,"200":2184,"many</w>":2185,"india":2186,"ps</w>":2187,"really</w>":2188,"lock":2189,"19":2190,"Why</w>":2191,"work</w>":2192,"sha":2193,"ince</w>":2194,"bi":2195,"ily</w>":2196,"oc":2197,"ite</w>":2198,"ood</w>":2199,"cas":2200,"cri":2201,"much</w>":2202,"tive</w>":2203,"then</w>":2204,"aking</w>":2205,"uring</w>":2206,"here</w>":2207,"Ma":2208,"ever</w>":2209,"new</w>":2210,"ld":2211,"10":2212,"az":2213,"ore":2214,"ose</w>":2215,"lif":2216,"ph":2217,"CO":2218,"emp":2219,"back</w>":2220,"Tr":2221,"bli":2222,"ot":2223,"come</w>":2224,"ai</w>":2225,"wr":2226,"gen":2227,"To</w>":2228,"out":2229,"ations</w>":2230,"VI":2231,"Sh":2232,"re</w>":2233,"ble</w>":2234,"ya</w>":2235,"ave</w>":2236,"right</w>":2237,"it.</w>":2238,"sur":2239,"ning</w>":2240,"tting</w>":2241,"country</w>":2242,"ating</w>":2243,"ll":2244,"Sha":2245,"peri":2246,"reli":2247,"port":2248,"test</w>":2249,"ved</w>":2250,"ds</w>":2251,"duc":2252,"issu":2253,"few</w>":2254,"They</w>":2255,"bas":2256,"e-":2257,"see</w>":2258,"under":2259,"ques":2260,"such</w>":2261,"Poli":2262,"log":2263,"De":2264,"Ac":2265,"him</w>":2266,"12":2267,"could</w>":2268,"Com":2269,"ous":2270,"fore</w>":2271,"ffer":2272,"man":2273,"dis":2274,"tal":2275,"r/":2276,"vide":2277,"Su":2278,"thr":2279,"tur":2280,"cer":2281,"it's</w>":2282,"gov":2283,"anyone</w>":2284,"fic":2285,"e?</w>":2286,"years</w>":2287,"ach":2288,"Pr":2289,"sub":2290,"got</w>":2291,"spec":2292,"first</w>":2293,"did</w>":2294,"new":2295,"ress</w>":2296,"tec":2297,"econ":2298,"cha":2299,"ys</w>":2300,"loc":2301,"while</w>":2302,"police</w>":2303,"ly":2304,"ru":2305,"ank</w>":2306,"ari":2307,"As":2308,"ath":2309,"proble":2310,"m.</w>":2311,"ashm":2312,"wee":2313,"-19</w>":2314,"cor":2315,"line</w>":2316,"gre":2317,"still</w>":2318,"NRC</w>":2319,"amp":2320,"low</w>":2321,"row":2322,"ong":2323,"sy":2324,"mil":2325,"wom":2326,"stri":2327,"doc":2328,"Min":2329,"cour":2330,"’t</w>":2331,"why</w>":2332,"ank":2333,"month":2334,"COVI":2335,"publi":2336,"lease</w>":2337,"ding</w>":2338,"elec":2339,"He</w>":2340,"bl":2341,"disc":2342,"ind</w>":2343,"inf":2344,"alis":2345,"tod":2346,"offic":2347,"politic":2348,"year</w>":2349,"tter</w>":2350,"says</w>":2351,"tly</w>":2352,"ven</w>":2353,"ember</w>":2354,"d.</w>":2355,"call":2356,"rel":2357,"said</w>":2358,"akist":2359,"ach</w>":2360,"res</w>":2361,"rem":2362,"For</w>":2363,"...</w>":2364,"act</w>":2365,"ak</w>":2366,"numb":2367,"ful</w>":2368,"post":2369,"On":2370,"made</w>":2371,"des":2372,"sch":2373,"mp":2374,"econom":2375,"Ex":2376,"eel</w>":2377,".in":2378,"Kashm":2379,"Co":2380,"poin":2381,"work":2382,"ful":2383,"er.</w>":2384,"curren":2385,"anc":2386,"happen":2387,"citizen":2388,"chang":2389,"Pakist":2390,"mat":2391,"same</w>":2392,"Please</w>":2393,"fa":2394,"since</w>":2395,"2020</w>":2396,"15":2397,"she</w>":2398,"someone</w>":2399,"wan":2400,"during</w>":2401,"eep</w>":2402,"aying</w>":2403,"before</w>":2404,"exp":2405,"ial</w>":2406,"India.</w>":2407,"religi":2408,"vice</w>":2409,"You</w>":2410,"those</w>":2411,"inv":2412,"Li":2413,"self</w>":2414,"ry</w>":2415,"COVID":2416,"aff":2417,"spe":2418,"Mumb":2419,"around</w>":2420,"PM</w>":2421,"lot</w>":2422,"reg":2423,"under</w>":2424,"s:</w>":2425,"a.</w>":2426,"this":2427,"differ":2428,"Me":2429,"sed</w>":2430,"sure</w>":2431,"ini":2432,"won":2433,"through</w>":2434,"every</w>":2435,"Mar":2436,"down":2437,"friend":2438,"org":2439,"does</w>":2440,"ep":2441,"ass</w>":2442,"find</w>":2443,"fol":2444,"own</w>":2445,"cle":2446,"days</w>":2447,"As</w>":2448,"fun":2449,"ought</w>":2450,"cu":2451,"ways</w>":2452,"family</w>":2453,"ement</w>":2454,"op</w>":2455,"spit":2456,"ality</w>":2457,"viol":2458,"fil":2459,"arn":2460,"state</w>":2461,"day":2462,"En":2463,"give</w>":2464,"&#":2465,"Can</w>":2466,"ards</w>":2467,"side</w>":2468,"ades":2469,"ght":2470,"x200":2471,"&#x200":2472,"&#x200B":2473,"resp":2474,"commun":2475,"Gu":2476,"Par":2477,"&#x200B;</w>":2478,"say</w>":2479,"man</w>":2480,"Un":2481,"lic":2482,"paren":2483,"vel":2484,"things</w>":2485,"ala</w>":2486,"cul":2487,"getting</w>":2488,"web":2489,".in/":2490,"experi":2491,"life</w>":2492,"ath</w>":2493,"post</w>":2494,"e's</w>":2495,"ghts</w>":2496,"Pe":2497,"og":2498,"posi":2499,"feel</w>":2500,"enc":2501,"something</w>":2502,"reas":2503,"too</w>":2504,"away</w>":2505,"Minist":2506,"pur":2507,"pow":2508,"ani":2509,"using</w>":2510,"2020":2511,"never</w>":2512,"It":2513,"sh</w>":2514,"el</w>":2515,"Indians</w>":2516,"fr":2517,"doing</w>":2518,"Dis":2519,"ef":2520,"home</w>":2521,"No</w>":2522,"bre":2523,"lead":2524,"I've</w>":2525,"sing</w>":2526,"net</w>":2527,"Coronavirus</w>":2528,"that":2529,"Now</w>":2530,"Lo":2531,"two</w>":2532,"IN":2533,"arg":2534,"2019</w>":2535,"news</w>":2536,"stand</w>":2537,"Af":2538,"fre":2539,"cep":2540,"Ci":2541,"ob":2542,"ected</w>":2543,"on.</w>":2544,"please</w>":2545,"a-":2546,"ist</w>":2547,"sol":2548,"Do</w>":2549,"ide</w>":2550,"heal":2551,"did":2552,"may</w>":2553,"int":2554,"ise</w>":2555,"acc":2556,"without</w>":2557,"last</w>":2558,"money</w>":2559,"too":2560,"ti-":2561,"[https://":2562,"hu":2563,"vo":2564,"dit</w>":2565,"situ":2566,"lat":2567,"y?</w>":2568,"ami":2569,"dem":2570,"^B":2571,"hand":2572,"ori":2573,"artic":2574,"Be":2575,"Chin":2576,"00</w>":2577,"--------":2578,"ask</w>":2579,"know":2580,"ext":2581,"case</w>":2582,"Police</w>":2583,"ra</w>":2584,"ss</w>":2585,"Do":2586,"pic":2587,"see":2588,"accoun":2589,"job</w>":2590,"ready</w>":2591,"ative</w>":2592,"ef</w>":2593,"tak":2594,"det":2595,"does":2596,"gir":2597,"hear":2598,"dic":2599,"looking</w>":2600,"ation.</w>":2601,"Any</w>":2602,"guys</w>":2603,"public</w>":2604,"bus":2605,"y-":2606,"ish":2607,"nex":2608,"air":2609,"ki":2610,"inform":2611,"ot</w>":2612,"opul":2613,"show":2614,"ort</w>":2615,"help":2616,"..</w>":2617,"Wor":2618,"te</w>":2619,"There</w>":2620,"trav":2621,"india/":2622,"ven":2623,"entr":2624,"vers":2625,"rap":2626,"educ":2627,"um</w>":2628,"who":2629,"10</w>":2630,"sear":2631,"On</w>":2632,"ody</w>":2633,"lit":2634,"le.</w>":2635,"lec":2636,"less</w>":2637,"ould":2638,"better</w>":2639,"on-":2640,"Di":2641,"ates</w>":2642,"lockdown</w>":2643,"due</w>":2644,"well</w>":2645,"ffic":2646,"sugg":2647,"hop":2648,"ture</w>":2649,"ref":2650,"ft</w>":2651,"requ":2652,"-|":2653,"best</w>":2654,"place</w>":2655,"All</w>":2656,"beli":2657,"kill":2658,"1.":2659,"tiv":2660,"support</w>":2661,"Cour":2662,"wal":2663,"per</w>":2664,"provid":2665,"twit":2666,"etc":2667,"clo":2668,"2019":2669,"18":2670,"coronavirus</w>":2671,"asked</w>":2672,"ently</w>":2673,"ical</w>":2674,"parents</w>":2675,"ata</w>":2676,"grou":2677,"sts</w>":2678,"comple":2679,"can't</w>":2680,"What":2681,"stor":2682,"ele":2683,"long</w>":2684,"Muslims</w>":2685,"ned</w>":2686,"possi":2687,"gress</w>":2688,"students</w>":2689,"News</w>":2690,"Bang":2691,"uni":2692,"chil":2693,"tra</w>":2694,"Qu":2695,"vis":2696,"ems</w>":2697,"next</w>":2698,"Rs</w>":2699,"ail</w>":2700,"ters</w>":2701,"tic</w>":2702,"number</w>":2703,"saf":2704,"Delhi":2705,"anks</w>":2706,"national</w>":2707,"Ker":2708,"Hindu</w>":2709,"cases</w>":2710,"Gand":2711,"tor":2712,"14":2713,"over":2714,"working</w>":2715,"might</w>":2716,"sen":2717,"off</w>":2718,"respon":2719,"ual</w>":2720,"Mumbai</w>":2721,"what":2722,"re.</w>":2723,"sted</w>":2724,"stand":2725,"vic":2726,"stitu":2727,"pan":2728,"problem</w>":2729,"Kashmir</w>":2730,"1.</w>":2731,"Inter":2732,"ses</w>":2733,"Muslim</w>":2734,"video</w>":2735,"ith</w>":2736,"live</w>":2737,"social</w>":2738,"t-":2739,"media</w>":2740,"Vi":2741,"Raj":2742,"ited</w>":2743,"let</w>":2744,"reddit":2745,"oronavirus":2746,"tor</w>":2747,"sm":2748,"acy</w>":2749,"sl":2750,"ana</w>":2751,"law":2752,"COVID-19</w>":2753,"When</w>":2754,"dom</w>":2755,"protests</w>":2756,"anything</w>":2757,"After</w>":2758,"high":2759,"ism</w>":2760,"protest</w>":2761,"told</w>":2762,"need":2763,"Beng":2764,"Pri":2765,"New</w>":2766,"world</w>":2767,"gener":2768,"'re</w>":2769,"ared</w>":2770,"person</w>":2771,"/)</w>":2772,"ha</w>":2773,"sig":2774,"bet":2775,"popul":2776,"body</w>":2777,"clud":2778,"ones</w>":2779,"ta":2780,"countr":2781,"Of</w>":2782,"tion.</w>":2783,"actu":2784,"watch":2785,"It's</w>":2786,"ate":2787,"Ra":2788,"car":2789,"les</w>":2790,"ur</w>":2791,"Also</w>":2792,"fore":2793,"legal</w>":2794,"produc":2795,"Citizen":2796,"24":2797,"priv":2798,"govt</w>":2799,"30":2800,"dri":2801,"s)</w>":2802,"sul":2803,"Are</w>":2804,"Peop":2805,"ution</w>":2806,"ine":2807,"ight</w>":2808,"hom":2809,"ool</w>":2810,"Uni":2811,"devel":2812,"person":2813,"countri":2814,"tow":2815,"Ass":2816,"Ad":2817,"US</w>":2818,"my":2819,"Dec":2820,"tice</w>":2821,"sion":2822,"stu":2823,"ween</w>":2824,"US":2825,"ple</w>":2826,"India's</w>":2827,"Not</w>":2828,"found</w>":2829,"ety</w>":2830,"different</w>":2831,"orona</w>":2832,"everyone</w>":2833,"hum":2834,"started</w>":2835,"men":2836,"ey":2837,"me.</w>":2838,"Modi":2839,"trying</w>":2840,"plain":2841,"doesn't</w>":2842,"Bi":2843,"fuc":2844,"sa":2845,"Government</w>":2846,"stric":2847,"consi":2848,"ational</w>":2849,"Le":2850,"chec":2851,"tici":2852,"story</w>":2853,"ign":2854,"mak":2855,"Mahar":2856,"back":2857,"keep</w>":2858,"war":2859,"ages</w>":2860,"form</w>":2861,"comment":2862,"colle":2863,"didn't</w>":2864,"Gov":2865,"friend</w>":2866,"trans":2867,"top</w>":2868,"view</w>":2869,"cial</w>":2870,"done</w>":2871,"tre":2872,"already</w>":2873,"ran":2874,"ice</w>":2875,"put</w>":2876,"part</w>":2877,"fli":2878,"regi":2879,"Pakistan</w>":2880,"bro":2881,"ute</w>":2882,"start</w>":2883,"times</w>":2884,"came</w>":2885,"ay.</w>":2886,"between</w>":2887,"twitter":2888,"ale</w>":2889,"buy</w>":2890,"movi":2891,"data</w>":2892,"Hy":2893,"Congress</w>":2894,"interest":2895,"food</w>":2896,"ross</w>":2897,"han</w>":2898,"pay</w>":2899,"conf":2900,"websit":2901,"cy</w>":2902,"migr":2903,"jec":2904,"today</w>":2905,"2.</w>":2906,"IT</w>":2907,"share</w>":2908,"in-":2909,"aliz":2910,"bor":2911,"online</w>":2912,"els</w>":2913,"women</w>":2914,"discus":2915,"ours</w>":2916,"Don":2917,"hou":2918,"nec":2919,"Pl":2920,"political</w>":2921,"ber":2922,"eve</w>":2923,"friends</w>":2924,"govern":2925,"always</w>":2926,"ace</w>":2927,"ops</w>":2928,"based</w>":2929,"understand</w>":2930,"People</w>":2931,"care</w>":2932,"mark":2933,"care":2934,"pend":2935,"India?</w>":2936,"free</w>":2937,"reddit.com/":2938,"Maharash":2939,"minist":2940,"call</w>":2941,"emplo":2942,"Just</w>":2943,"Tim":2944,"eet</w>":2945,"develop":2946,"000</w>":2947,"called</w>":2948,"Se":2949,"bad</w>":2950,"hospit":2951,"buil":2952,"He":2953,"pec":2954,"look</w>":2955,"situation</w>":2956,"With</w>":2957,"another</w>":2958,"become</w>":2959,"ails</w>":2960,"Ho":2961,"busin":2962,"Court</w>":2963,"fl":2964,"maj":2965,"them":2966,"25":2967,"har</w>":2968,"ility</w>":2969,"abad</w>":2970,"months</w>":2971,"wa":2972,"tle</w>":2973,"love</w>":2974,"struc":2975,"ants</w>":2976,"sive</w>":2977,"es?</w>":2978,"Im":2979,"s.":2980,"Pre":2981,"igh":2982,"pass":2983,"Will</w>":2984,"ask":2985,"del":2986,"Kerala</w>":2987,"Minister</w>":2988,"twitter.com/":2989,"Man":2990,"job":2991,"stre":2992,"arding</w>":2993,"current</w>":2994,"adesh</w>":2995,"16":2996,"india</w>":2997,"y/":2998,"cap":2999,"logy</w>":3000,"JN":3001,"tru":3002,"set</w>":3003,"opini":3004,"coming</w>":3005,"show</w>":3006,"direc":3007,"ent.</w>":3008,"led</w>":3009,"Ran":3010,"ys":3011,"wanted</w>":3012,"Pun":3013,"least</w>":3014,"India’s</w>":3015,"part":3016,"eas":3017,"al.</w>":3018,"proc":3019,"includ":3020,"Any":3021,"ish</w>":3022,"them.</w>":3023,"change</w>":3024,"must</w>":3025,"law</w>":3026,"internet</w>":3027,"action</w>":3028,"Res":3029,"Ap":3030,"om</w>":3031,"ering</w>":3032,"ma</w>":3033,"making</w>":3034,"both</w>":3035,"experience</w>":3036,"lear":3037,"avail":3038,"ns</w>":3039,"add":3040,"demo":3041,"point</w>":3042,"tell</w>":3043,"city</w>":3044,"CAA":3045,"power</w>":3046,"ouldn't</w>":3047,"From</w>":3048,"IT":3049,"app</w>":3050,"Citizenship</w>":3051,"ling</w>":3052,"went</w>":3053,"status":3054,"medic":3055,"es-":3056,"Fir":3057,"lim":3058,"phone</w>":3059,"countries</w>":3060,"aim":3061,"os</w>":3062,"ord":3063,"ga":3064,"stay</w>":3065,"pur</w>":3066,"-|-|":3067,"writ":3068,"AN":3069,"dre":3070,"Protest":3071,"ity.</w>":3072,"sour":3073,"anti-":3074,"Covid":3075,"till</w>":3076,"indu":3077,"mor":3078,"question</w>":3079,"ab</w>":3080,"lak":3081,"posed</w>":3082,"Fe":3083,"UP</w>":3084,"13":3085,"name</w>":3086,"deli":3087,".org":3088,"50":3089,"etc.</w>":3090,"40":3091,"Hi</w>":3092,"seen</w>":3093,"company</w>":3094,"given</w>":3095,"reddit.com/r/":3096,"ority</w>":3097,"hak":3098,"amm":3099,"ani</w>":3100,"ech":3101,"bel":3102,"cei":3103,"book</w>":3104,"One</w>":3105,"Ab":3106,"ju":3107,"incre":3108,"having</w>":3109,"ester":3110,"wiki":3111,"bur":3112,"e:</w>":3113,"poll":3114,"college</w>":3115,"though</w>":3116,"cid":3117,"Sing":3118,"tors</w>":3119,"al-":3120,"ments</w>":3121,"Times</w>":3122,"across</w>":3123,"bab":3124,"s=":3125,"appro":3126,"import":3127,"saying</w>":3128,"prom":3129,"17":3130,"Hel":3131,"RS":3132,"TV</w>":3133,"ht":3134,"/0":3135,"ili":3136,"tra":3137,"youtu":3138,"information</w>":3139,"enough</w>":3140,"Shah</w>":3141,"kar":3142,"guy</w>":3143,"sal":3144,"hal":3145,".\"</w>":3146,"marri":3147,"status/":3148,"ign</w>":3149,"thought</w>":3150,"Gandhi</w>":3151,"usi":3152,"now.</w>":3153,"led":3154,"Does</w>":3155,"well":3156,"At</w>":3157,"cou":3158,"stop</w>":3159,"ers.</w>":3160,"dam":3161,"order</w>":3162,"Amaz":3163,"suppor":3164,"follow":3165,"equ":3166,"recomm":3167,"3.</w>":3168,"ma":3169,"ej":3170,"fy</w>":3171,"ik":3172,"net":3173,"contin":3174,"19</w>":3175,"cast":3176,"thers</w>":3177,"hand</w>":3178,"virus</w>":3179,"world":3180,"believe</w>":3181,"reddit.com/r/india/":3182,"NP":3183,"du":3184,"jar":3185,"mess":3186,"na</w>":3187,"ris":3188,"preci":3189,"sugges":3190,"bit</w>":3191,"ular</w>":3192,"issue</w>":3193,"ously</w>":3194,"I’":3195,"uary</w>":3196,"ing-":3197,"yp":3198,"speci":3199,"IS":3200,"es/":3201,"prof":3202,"Hyder":3203,"ze</w>":3204,"row</w>":3205,"docum":3206,"ool":3207,"ten</w>":3208,"arant":3209,"self":3210,"val":3211,"ace":3212,"adu":3213,"##":3214,"tom":3215,"actually</w>":3216,"seems</w>":3217,"Au":3218,"kind</w>":3219,"ator</w>":3220,"nor":3221,"owever</w>":3222,"Bo":3223,"dering</w>":3224,"Eng":3225,"aily</w>":3226,"tech":3227,"Sec":3228,"ond</w>":3229,"recei":3230,"ump</w>":3231,"view":3232,"each</w>":3233,"fut":3234,"ands</w>":3235,"!!</w>":3236,"repor":3237,"char":3238,"ital</w>":3239,"stem</w>":3240,"sci":3241,"atak":3242,"Amit</w>":3243,"se.</w>":3244,"Shi":3245,"health</w>":3246,"Ro":3247,"lik":3248,"vices</w>":3249,"to-":3250,"/status/":3251,"dro":3252,"arnatak":3253,"ei":3254,"-19":3255,"Maharashtra</w>":3256,"ers":3257,"answ":3258,"fight</w>":3259,"China</w>":3260,"possible</w>":3261,"AA":3262,"grap":3263,"versity</w>":3264,"ech</w>":3265,"You":3266,"preme</w>":3267,"ca":3268,"pay":3269,"tific":3270,"arre":3271,"exam":3272,"this.</w>":3273,"remo":3274,"ics</w>":3275,"tain</w>":3276,"again</w>":3277,"sing":3278,"arm":3279,"adv":3280,"party</w>":3281,"Act</w>":3282,"So":3283,"month</w>":3284,"taking</w>":3285,"bri":3286,"ists</w>":3287,"contro":3288,"big</w>":3289,"Govt</w>":3290,"Jan":3291,"nam":3292,"Rec":3293,"Twit":3294,"hy":3295,"de</w>":3296,"rul":3297,"Jo":3298,"thre":3299,"sum":3300,"asks</w>":3301,"advice</w>":3302,"appreci":3303,"cannot</w>":3304,"won't</w>":3305,"cept</w>":3306,".org/":3307,"ber</w>":3308,"eri":3309,"asking</w>":3310,"tional</w>":3311,"concer":3312,"\"\".</w>":3313,"Stud":3314,"k.</w>":3315,"ening</w>":3316,"isi":3317,"Need</w>":3318,"auth":3319,"democr":3320,"We":3321,"mit":3322,"list":3323,"identi":3324,"ended</w>":3325,"reason</w>":3326,"[https://www.":3327,"Ag":3328,"Cha":3329,"air</w>":3330,"left</w>":3331,"plann":3332,"tou":3333,"face</w>":3334,"claim":3335,"fied</w>":3336,"ts.</w>":3337,"thou":3338,"rele":3339,"nothing</w>":3340,"tried</w>":3341,"took</w>":3342,"it?</w>":3343,"school</w>":3344,"Her":3345,"National</w>":3346,"ced</w>":3347,"cent":3348,"date</w>":3349,"retur":3350,"illi":3351,"taken</w>":3352,"Tu":3353,"grow":3354,"living</w>":3355,"ically</w>":3356,"Who</w>":3357,"economy</w>":3358,"80":3359,"den":3360,"Can":3361,"violence</w>":3362,"She</w>":3363,"ound":3364,"reading</w>":3365,"wrong</w>":3366,"news/":3367,"great</w>":3368,"comments/":3369,"AT":3370,"ets</w>":3371,"gets</w>":3372,"may":3373,"ort":3374,"dist":3375,"Bengal":3376,"opp":3377,"open</w>":3378,"ship":3379,"Wom":3380,"ject</w>":3381,"arly</w>":3382,"ains</w>":3383,"ats</w>":3384,"Thanks</w>":3385,"That</w>":3386,"regarding</w>":3387,"stead</w>":3388,"Even</w>":3389,"Goo":3390,"n’t</w>":3391,"other":3392,"girl":3393,"small</w>":3394,"Tod":3395,"Vide":3396,"fel":3397,"cus":3398,"ly.</w>":3399,"ence":3400,"idea</w>":3401,"Some</w>":3402,"JNU</w>":3403,"BJP":3404,"60":3405,"past</w>":3406,"sus":3407,"real</w>":3408,"else</w>":3409,"\"\"\"":3410,"compan":3411,"isn't</w>":3412,"spread</w>":3413,"student</w>":3414,"ote</w>":3415,"11":3416,"TH":3417,"talk</w>":3418,"travel</w>":3419,"29":3420,"ased</w>":3421,"Gujar":3422,"group</w>":3423,"Karnatak":3424,"fe</w>":3425,"ered</w>":3426,"makes</w>":3427,"30</w>":3428,"spo":3429,"scri":3430,"sent</w>":3431,"house</w>":3432,"available</w>":3433,"coronavirus":3434,"ult</w>":3435,"37":3436,"one.</w>":3437,"high</w>":3438,"questions</w>":3439,"whole</w>":3440,"Ti":3441,"seri":3442,"citizenship</w>":3443,"search":3444,"towards</w>":3445,"reddit.com/r/india/comments/":3446,"poor</w>":3447,"htm":3448,"cho":3449,"angu":3450,"issues</w>":3451,"simil":3452,"ness</w>":3453,"ster</w>":3454,"system</w>":3455,"Op":3456,"cro":3457,"ff</w>":3458,"gur":3459,"hon":3460,"Supreme</w>":3461,"hope</w>":3462,"March</w>":3463,"cust":3464,"rup":3465,"hate</w>":3466,"Elec":3467,"chi":3468,"ror":3469,"ing?</w>":3470,"ential</w>":3471,"here.</w>":3472,"Centr":3473,"far</w>":3474,"thread":3475,"rep":3476,"28":3477,"eff":3478,"was":3479,"Whats":3480,"For":3481,"ire</w>":3482,"elling</w>":3483,"Chi":3484,"list</w>":3485,"These</w>":3486,"CAB</w>":3487,"Bangal":3488,"ised</w>":3489,"tions.</w>":3490,"Loo":3491,"ad.</w>":3492,"community</w>":3493,"%20":3494,"everything</w>":3495,"religious</w>":3496,"Corona</w>":3497,"lar":3498,"shit</w>":3499,"non-":3500,"pati":3501,"history</w>":3502,"health":3503,"account</w>":3504,"ejri":3505,"Bag":3506,"amoun":3507,"Should</w>":3508,"almost</w>":3509,"----------------":3510,"CM</w>":3511,"RE":3512,"lu":3513,"che":3514,"head</w>":3515,"outh</w>":3516,"search</w>":3517,"bir":3518,"mul":3519,"appe":3520,"quarant":3521,"inst":3522,"government":3523,"arr":3524,"they":3525,"education</w>":3526,"27":3527,"card</w>":3528,"dh":3529,"s!</w>":3530,"Thank</w>":3531,"thinking</w>":3532,"recently</w>":3533,"watch</w>":3534,"girl</w>":3535,"provide</w>":3536,"death</w>":3537,"Red":3538,"dig":3539,"urity</w>":3540,"jp":3541,"needs</w>":3542,"ri</w>":3543,"comes</w>":3544,"Hospit":3545,"Covid-19</w>":3546,"ots</w>":3547,"resul":3548,"suc":3549,"father</w>":3550,"little</w>":3551,"requi":3552,"26":3553,"hol":3554,"ome":3555,"Hi":3556,"camp":3557,"lab":3558,"memb":3559,"pn":3560,"dered</w>":3561,"mission</w>":3562,"happened</w>":3563,"ep</w>":3564,"ending</w>":3565,"Which</w>":3566,"Singh</w>":3567,"cy":3568,"inde":3569,"ately</w>":3570,"us.</w>":3571,"plan</w>":3572,"I'll</w>":3573,"100":3574,"23":3575,"UP":3576,"thread</w>":3577,"chan":3578,"local</w>":3579,"Mon":3580,"fer":3581,"covid":3582,"SC</w>":3583,"kid":3584,"hard</w>":3585,"water</w>":3586,"Nor":3587,"men</w>":3588,"allow":3589,"road</w>":3590,"lob":3591,"bank</w>":3592,"mind</w>":3593,"jus":3594,"service</w>":3595,"DI":3596,"Has</w>":3597,"Sour":3598,"top":3599,"tty</w>":3600,"ided</w>":3601,"Kashmir":3602,"positive</w>":3603,"foo":3604,"main":3605,"ward</w>":3606,"book":3607,"wants</w>":3608,"PM":3609,"goog":3610,"imp":3611,"related</w>":3612,"pi":3613,"charg":3614,"mob":3615,"https://www.":3616,"manag":3617,"full</w>":3618,"Kejri":3619,"Offic":3620,"country.</w>":3621,"Our</w>":3622,"pho":3623,"'ll</w>":3624,"Bill</w>":3625,"religion</w>":3626,"Wi":3627,"once</w>":3628,"es:</w>":3629,"mean</w>":3630,"dra</w>":3631,"fact</w>":3632,"-b":3633,"amia</w>":3634,"fur":3635,"ually</w>":3636,"Lock":3637,"others</w>":3638,"tical</w>":3639,"Bha":3640,"fail":3641,"report</w>":3642,"dies</w>":3643,"woman</w>":3644,"Day</w>":3645,"nat":3646,"tro":3647,"an.</w>":3648,"states</w>":3649,"IC":3650,"d.":3651,"ee</w>":3652,"hours</w>":3653,"ained</w>":3654,"scre":3655,"press</w>":3656,"similar</w>":3657,"Har":3658,"tis":3659,"class</w>":3660,"cris":3661,"Assam</w>":3662,"fron":3663,"eric":3664,"vel</w>":3665,"companies</w>":3666,"lockdown":3667,"4.</w>":3668,"By</w>":3669,"wal</w>":3670,"eling</w>":3671,"Hindus</w>":3672,"visit</w>":3673,"hya</w>":3674,"whe":3675,"Sen":3676,"t!</w>":3677,"Doc":3678,"iting</w>":3679,"beg":3680,"ess.</w>":3681,"day.</w>":3682,"saw</w>":3683,"An</w>":3684,"NC":3685,"mid":3686,"school":3687,"ap</w>":3688,"run":3689,"...":3690,"peci":3691,"dia</w>":3692,"15</w>":3693,"Up":3694,"lish</w>":3695,"def":3696,"NRC":3697,"important</w>":3698,"However</w>":3699,"Tel":3700,"Tri":3701,"sk":3702,"pose</w>":3703,"Hindi</w>":3704,"Pradesh</w>":3705,"il</w>":3706,"nation</w>":3707,"one":3708,"The":3709,"finan":3710,"society</w>":3711,"week</w>":3712,"Hell":3713,"und":3714,"ed?</w>":3715,"currently</w>":3716,"tab":3717,"yet</w>":3718,"deb":3719,"Discus":3720,"rape</w>":3721,"Air":3722,"mer":3723,"t?</w>":3724,"three</w>":3725,"ention</w>":3726,"simp":3727,"ode</w>":3728,"toge":3729,"break</w>":3730,"Naren":3731,"ben":3732,"good":3733,"check</w>":3734,"First</w>":3735,"Ri":3736,"wid":3737,"Thread</w>":3738,"light</w>":3739,"ads</w>":3740,"milli":3741,"fully</w>":3742,"heard</w>":3743,"png":3744,"Wat":3745,"own":3746,"Trump</w>":3747,"Shahe":3748,"course</w>":3749,"dd":3750,"ences</w>":3751,"sions</w>":3752,"talking</w>":3753,"this?</w>":3754,"that's</w>":3755,"Gr":3756,"App</w>":3757,"tar":3758,"ity":3759,"emo":3760,"hot":3761,"crore</w>":3762,"position</w>":3763,"jud":3764,"visit":3765,"Goog":3766,"rit":3767,"State</w>":3768,"time.</w>":3769,"Hello</w>":3770,"Ay":3771,"land</w>":3772,"thing.</w>":3773,"oop</w>":3774,"don’t</w>":3775,"AR":3776,"Isl":3777,"ve.</w>":3778,"reco":3779,"constitu":3780,"services</w>":3781,"views</w>":3782,"citizens</w>":3783,"learn</w>":3784,"fake</w>":3785,"langu":3786,"paid</w>":3787,"uses</w>":3788,"amaz":3789,"tot":3790,"website</w>":3791,"Anyone</w>":3792,"esh":3793,"leave</w>":3794,"amil</w>":3795,"dren</w>":3796,"future</w>":3797,"Kum":3798,"Mad":3799,"Col":3800,"sever":3801,"move</w>":3802,"people.</w>":3803,"engine":3804,"Today</w>":3805,"-in-":3806,"vol":3807,"ins</w>":3808,"Don't</w>":3809,"35":3810,"Best</w>":3811,"vs</w>":3812,"within</w>":3813,"Amazon</w>":3814,"Narendra</w>":3815,"Over</w>":3816,"medical</w>":3817,"'ve</w>":3818,"med</w>":3819,"ined</w>":3820,"via</w>":3821,"pap":3822,"people":3823,"amount</w>":3824,"cli":3825,"hind</w>":3826,"instead</w>":3827,"ery</w>":3828,"uru</w>":3829,"Amend":3830,"safe</w>":3831,"myself</w>":3832,"bul":3833,"Hindu":3834,"workers</w>":3835,"Bangl":3836,"business</w>":3837,"sor":3838,"enn":3839,"lies</w>":3840,"prove</w>":3841,"probab":3842,"giving</w>":3843,"planning</w>":3844,"-old</w>":3845,"[**":3846,"Or</w>":3847,"ase":3848,"ush":3849,"Where</w>":3850,"study</w>":3851,"decisi":3852,"ence.</w>":3853,"Cl":3854,"Ram":3855,"cam":3856,"ick":3857,"trac":3858,"Tamil</w>":3859,"outside</w>":3860,"Shar":3861,"ligh":3862,"uck</w>":3863,"Americ":3864,"sident</w>":3865,"dar":3866,"dom":3867,"out.</w>":3868,"ick</w>":3869,"AS":3870,"restric":3871,"expl":3872,"imple":3873,"ends</w>":3874,"December</w>":3875,"Twitter</w>":3876,"Sur":3877,"vil</w>":3878,"oper":3879,"selves</w>":3880,"lakh</w>":3881,"Apri":3882,"Bri":3883,"hur":3884,"sav":3885,"shar":3886,"near</w>":3887,"protec":3888,"worth</w>":3889,"ourn":3890,"movie</w>":3891,"peti":3892,"Most</w>":3893,"adesh":3894,"including</w>":3895,"Karnataka</w>":3896,"70":3897,"Econ":3898,"Vir":3899,"ip":3900,"dition</w>":3901,"places</w>":3902,"April</w>":3903,"dia":3904,"ched</w>":3905,"Econom":3906,".htm":3907,"Fin":3908,"IM":3909,"ML":3910,"NO":3911,"Pu":3912,"e/":3913,"etc</w>":3914,"RSS</w>":3915,"Have</w>":3916,"employ":3917,"Hyderabad</w>":3918,"Discussion</w>":3919,"Sab":3920,"[O":3921,"lost</w>":3922,"New":3923,"link</w>":3924,"clear</w>":3925,"Heal":3926,"vious</w>":3927,"deal</w>":3928,"aining</w>":3929,"becom":3930,"matter</w>":3931,"elebr":3932,"na":3933,"ago</w>":3934,"illing</w>":3935,"ER":3936,"ban</w>":3937,"d-":3938,"incid":3939,"clusi":3940,"nel</w>":3941,"either</w>":3942,"lap":3943,"sho":3944,"decided</w>":3945,"seem</w>":3946,"custom":3947,"Happ":3948,"Mu":3949,"utes</w>":3950,"of-":3951,"mus":3952,"ink</w>":3953,"cost</w>":3954,"week":3955,"I’m</w>":3956,"norm":3957,"vill":3958,"abo":3959,"Edit":3960,"Man</w>":3961,"pat":3962,"an-":3963,"age.</w>":3964,"proper":3965,"Coronavirus":3966,"centr":3967,"ka</w>":3968,"mu":3969,"pen":3970,"war</w>":3971,"atic</w>":3972,"open":3973,"laun":3974,"complet":3975,"maybe</w>":3976,"Cur":3977,"mother</w>":3978,"reddit</w>":3979,"prac":3980,"90":3981,"Jamia</w>":3982,"fav":3983,"orities</w>":3984,"youn":3985,"liam":3986,"suggest</w>":3987,"probably</w>":3988,"BI</w>":3989,"df":3990,"defin":3991,"augh":3992,"Random</w>":3993,"/status/12":3994,"pas":3995,"int</w>":3996,"til</w>":3997,"udget</w>":3998,"security</w>":3999,"population</w>":4000,"tivi":4001,"works</w>":4002,"standing</w>":4003,"Dr":4004,"zed</w>":4005,"quality</w>":4006,"Mumbai":4007,"couple</w>":4008,"Google</w>":4009,"-year":4010,"La":4011,"the-":4012,"](https://twitter.com/":4013,"personal</w>":4014,"hospital</w>":4015,"well.</w>":4016,"hit</w>":4017,"goes</w>":4018,"Artic":4019,"MH":4020,"Sa":4021,"Says</w>":4022,"s'</w>":4023,"igg":4024,"politics</w>":4025,"jobs</w>":4026,"Shaheen</w>":4027,"1)</w>":4028,"Or":4029,"gave</w>":4030,"entire</w>":4031,"IF":4032,"Since</w>":4033,"han":4034,"olly":4035,"private</w>":4036,"Punj":4037,"48":4038,"stly</w>":4039,"tran":4040,"creator</w>":4041,"you.</w>":4042,"Sub":4043,"Like</w>":4044,"bar":4045,"ines</w>":4046,"ground</w>":4047,"times":4048,"Bagh</w>":4049,"pecially</w>":4050,"Pan":4051,"^I</w>":4052,"o.</w>":4053,"quite</w>":4054,"pretty</w>":4055,"auto":4056,"details</w>":4057,"human</w>":4058,"Chief</w>":4059,"21</w>":4060,"^a</w>":4061,"hind":4062,"eep":4063,"scen":4064,"soon</w>":4065,"shows</w>":4066,"ext</w>":4067,"career</w>":4068,"75":4069,"App":4070,"Hey</w>":4071,"^if</w>":4072,"mom":4073,"among</w>":4074,"gradu":4075,"tel</w>":4076,"Lockdown</w>":4077,"ollyw":4078,"dou":4079,"gres":4080,"wel":4081,"ash</w>":4082,"tern":4083,"fort":4084,"single</w>":4085,"BS":4086,"^my</w>":4087,"^am</w>":4088,"a/":4089,"hm":4090,"testing</w>":4091,"World</w>":4092,"pandem":4093,"suggestions</w>":4094,"Coun":4095,"^any</w>":4096,"^bo":4097,"^problem</w>":4098,"^ask":4099,"^creator</w>":4100,"cop":4101,"vari":4102,"especially</w>":4103,"aming</w>":4104,"^Beep</w>":4105,"^Bot</w>":4106,"^Boop</w>":4107,"interested</w>":4108,"^bot!</w>":4109,"^askaway</w>":4110,"ough":4111,"Help</w>":4112,"Then</w>":4113,"huge</w>":4114,"killed</w>":4115,"ledge</w>":4116,"To":4117,"sil":4118,"play":4119,"article":4120,"tax</w>":4121,"January</w>":4122,"Dev":4123,"your":4124,"that.</w>":4125,"Ph":4126,"musli":4127,"enter":4128,"sible</w>":4129,"problems</w>":4130,"Gujarat</w>":4131,"succ":4132,"s.com/":4133,"terror":4134,"lobal</w>":4135,"Kejriwal</w>":4136,"economic</w>":4137,"AAP</w>":4138,"kar</w>":4139,"acks</w>":4140,"ric":4141,"&s=":4142,"abad":4143,"individ":4144,"Gi":4145,"Home</w>":4146,"ON":4147,"e)</w>":4148,"er-":4149,"ried</w>":4150,"sex":4151,"fic</w>":4152,"children</w>":4153,"allowed</w>":4154,"Sc":4155,"asc":4156,"stuff</w>":4157,"Det":4158,"Here</w>":4159,"Would</w>":4160,"y:</w>":4161,"today":4162,"necess":4163,"techno":4164,"Bangalore</w>":4165,"lack</w>":4166,"alleg":4167,"sport</w>":4168,"culture</w>":4169,"Rajas":4170,"exist":4171,"office</w>":4172,"members</w>":4173,"49":4174,"AM</w>":4175,"progr":4176,"tics</w>":4177,"means</w>":4178,"I'd</w>":4179,"whether</w>":4180,"ures</w>":4181,"it/":4182,"ples</w>":4183,"figh":4184,"Bu":4185,"Pol":4186,"send</w>":4187,"inc":4188,"connec":4189,"common</w>":4190,"liter":4191,"Be</w>":4192,"Your</w>":4193,"rate</w>":4194,"level</w>":4195,"tioned</w>":4196,"close</w>":4197,"Prime</w>":4198,"illegal</w>":4199,"head":4200,"format":4201,"45":4202,"mee":4203,"Anti-":4204,"avo":4205,"politici":4206,"Oc":4207,"hold</w>":4208,"complain":4209,"While</w>":4210,"12</w>":4211,"mun":4212,"ner</w>":4213,"ret":4214,"esh</w>":4215,"acked</w>":4216,"behind</w>":4217,"sug":4218,"ed-":4219,"leader</w>":4220,"effec":4221,"ST":4222,"rights</w>":4223,"sist":4224,"aim</w>":4225,"site</w>":4226,"night</w>":4227,"announ":4228,"court</w>":4229,"happening</w>":4230,"arrested</w>":4231,"i.":4232,"until</w>":4233,"=web":4234,"ord</w>":4235,"ada</w>":4236,"neigh":4237,"cording</w>":4238,"remember</w>":4239,"ateg":4240,"youtube":4241,"find":4242,"pite</w>":4243,"ten":4244,"logi":4245,"hear</w>":4246,"videos</w>":4247,"syst":4248,"IA":4249,"South</w>":4250,"corona</w>":4251,"dle</w>":4252,"liber":4253,"immigr":4254,"alism</w>":4255,"bha":4256,"held</w>":4257,"happen</w>":4258,"WhatsApp</w>":4259,"San":4260,"va</w>":4261,"opinion</w>":4262,"google":4263,"Its</w>":4264,"tig":4265,"ams</w>":4266,"employe":4267,"MP</w>":4268,"Spe":4269,"verage</w>":4270,"redd.":4271,"Ta":4272,"a's</w>":4273,"mit</w>":4274,"right":4275,"stit":4276,"present":4277,"100</w>":4278,"process</w>":4279,"completely</w>":4280,"Bec":4281,"mind":4282,"research</w>":4283,"en.":4284,"Thank":4285,"dest":4286,"What's</w>":4287,"Utt":4288,"bal":4289,"long":4290,"tem":4291,"and-":4292,"applic":4293,"break":4294,"emer":4295,"happy</w>":4296,"large</w>":4297,"':</w>":4298,"Cor":4299,"Some":4300,"cal":4301,"hic":4302,"pm</w>":4303,"ance":4304,"atory</w>":4305,"pedia":4306,"prev":4307,"dont</w>":4308,"Internet</w>":4309,"multi":4310,"22":4311,"car</w>":4312,"ance.</w>":4313,"11</w>":4314,"His</w>":4315,"blo":4316,"’:</w>":4317,"confir":4318,"que</w>":4319,"-year-old</w>":4320,"sam":4321,"updat":4322,"contact</w>":4323,"weeks</w>":4324,"general</w>":4325,"University</w>":4326,"recommend":4327,"cause</w>":4328,"doctors</w>":4329,"photo":4330,"1st</w>":4331,"Bhar":4332,"Every":4333,"Kar":4334,"Net":4335,"RT":4336,"Ser":4337,"kind":4338,"olk":4339,"ches</w>":4340,"format=":4341,"redd.it/":4342,"ban":4343,"pag":4344,"along</w>":4345,"edly</w>":4346,"fiel":4347,"join</w>":4348,"regul":4349,"following</w>":4350,"jpg":4351,"Cri":4352,"a:</w>":4353,"ged</w>":4354,"ching</w>":4355,"play</w>":4356,"bring</w>":4357,"share":4358,"youtube.com/":4359,"Si":4360,"hs</w>":4361,"yan":4362,"view.":4363,"50</w>":4364,"Wee":4365,"mem":4366,"india-":4367,"calls</w>":4368,"too.</w>":4369,"later</w>":4370,"Fi":4371,"ty":4372,"true</w>":4373,"follow</w>":4374,".org/wiki":4375,"/2020":4376,"haven":4377,"lives</w>":4378,"free":4379,"majority</w>":4380,"front</w>":4381,"Air</w>":4382,"Ji":4383,"th=":4384,"ated.</w>":4385,"lish":4386,"him":4387,"aware</w>":4388,"second</w>":4389,"expen":4390,"39":4391,"??</w>":4392,"Nir":4393,"Vis":4394,"a?</w>":4395,"v=":4396,"win":4397,"hal</w>":4398,"uty</w>":4399,"recent</w>":4400,"ells</w>":4401,"mental</w>":4402,"aching</w>":4403,"access</w>":4404,"further</w>":4405,"bigg":4406,"mur":4407,"pdf":4408,"rest":4409,"imgur":4410,"chall":4411,"Again":4412,"width=":4413,"imgur.com/":4414,"&auto":4415,"36":4416,"?width=":4417,"Data</w>":4418,"Let":4419,"PS":4420,"p&s=":4421,"tit":4422,"chann":4423,"preview.":4424,"tick":4425,"leaders</w>":4426,"takes</w>":4427,"major</w>":4428,"=webp&s=":4429,".org/wiki/":4430,"&auto=webp&s=":4431,"&format=":4432,"Jus":4433,"thing":4434,"ties.</w>":4435,"stup":4436,"rather</w>":4437,"emple</w>":4438,"wikipedia":4439,"opped</w>":4440,"Article</w>":4441,"ugg":4442,"Chenn":4443,"foreign</w>":4444,"NPR</w>":4445,"wikipedia.org/wiki/":4446,"Bank</w>":4447,"DE":4448,"Gen":4449,"Te":4450,"Tha":4451,"ia</w>":4452,"son</w>":4453,"vote</w>":4454,"rest</w>":4455,"extrem":4456,"Bengal</w>":4457,"Telang":4458,"38":4459,"ues</w>":4460,"respec":4461,"leav":4462,"http":4463,"books</w>":4464,"known</w>":4465,"wali</w>":4466,"Sch":4467,"gar":4468,"ases</w>":4469,"board</w>":4470,"Reli":4471,"above</w>":4472,"foc":4473,"sr":4474,"sle":4475,"death":4476,".com/news/":4477,"mone":4478,"run</w>":4479,"Kumar</w>":4480,"Tw":4481,"kno":4482,"meet</w>":4483,"sw":4484,"atives</w>":4485,"aig":4486,"years.</w>":4487,"certain</w>":4488,"Protests</w>":4489,"together</w>":4490,"AI":4491,"Mal":4492,"fal":4493,"ump":4494,"invest":4495,"http://":4496,"LI":4497,"Top</w>":4498,"daily</w>":4499,"gs</w>":4500,"ment.</w>":4501,"antly</w>":4502,"alist</w>":4503,"initi":4504,"ST</w>":4505,"Sun":4506,"la</w>":4507,"project</w>":4508,"here":4509,"preview.redd.it/":4510,"2.":4511,"76":4512,"Ram</w>":4513,"u/":4514,"re-":4515,"Protest</w>":4516,"Ni":4517,"cir":4518,"ok":4519,"resid":4520,"room</w>":4521,"industr":4522,"Happy</w>":4523,"ollywood</w>":4524,"crow":4525,"fer</w>":4526,"ram</w>":4527,"slow":4528,"er?</w>":4529,"activi":4530,"mod":4531,"colleg":4532,"ept</w>":4533,"help.</w>":4534,"AL":4535,"celebr":4536,"th.</w>":4537,"ird</w>":4538,"anda</w>":4539,"....":4540,"alls</w>":4541,"life.</w>":4542,"Video</w>":4543,"Edit:</w>":4544,"Asi":4545,"Daily</w>":4546,"Lat":4547,"West</w>":4548,"्य":4549,"cies</w>":4550,"spir":4551,"area</w>":4552,"pped</w>":4553,"offer</w>":4554,"google.com/":4555,"ink":4556,"suic":4557,"rais":4558,"price</w>":4559,"child</w>":4560,"More</w>":4561,"Yog":4562,"pun":4563,"ession":4564,"mov":4565,"INDI":4566,"sense</w>":4567,"watch?":4568,":**</w>":4569,"J&":4570,"OR":4571,"ji</w>":4572,"land":4573,"ub":4574,"st.</w>":4575,"accep":4576,"short</w>":4577,"\"\":</w>":4578,"tures</w>":4579,"symp":4580,"Viol":4581,"Centre</w>":4582,"youtube.com/watch?":4583,"24</w>":4584,"Nag":4585,"ji":4586,"save</w>":4587,"en.</w>":4588,"wher":4589,"neg":4590,"aught</w>":4591,"English</w>":4592,"2)</w>":4593,"pe</w>":4594,"uro":4595,"orig":4596,"diffic":4597,"option</w>":4598,"prep":4599,"Chec":4600,"forms</w>":4601,"Constitu":4602,"great":4603,"market</w>":4604,"felt</w>":4605,"kids</w>":4606,"09":4607,"Is":4608,"ural</w>":4609,"explain":4610,"tee</w>":4611,"ample</w>":4612,"invol":4613,"complete</w>":4614,".html":4615,"18</w>":4616,"Att":4617,"cut</w>":4618,"song</w>":4619,"ic.</w>":4620,"expres":4621,"partic":4622,"fear</w>":4623,"reason":4624,"jects</w>":4625,"thoughts</w>":4626,"youtube.com/watch?v=":4627,"Fac":4628,"Was</w>":4629,"de.</w>":4630,"plat":4631,"offici":4632,"Aad":4633,"Did</w>":4634,"iness":4635,"oud</w>":4636,"lied</w>":4637,"hul</w>":4638,"mobile</w>":4639,"implement":4640,"14</w>":4641,"99":4642,"dad</w>":4643,"sun":4644,"it’s</w>":4645,"is.</w>":4646,"depres":4647,"spend</w>":4648,"early</w>":4649,"**](https://":4650,"ther.</w>":4651,"you're</w>":4652,"link":4653,"turn</w>":4654,"fuck</w>":4655,"fucking</w>":4656,"likely</w>":4657,"Looking</w>":4658,"Kolk":4659,"shut":4660,"effor":4661,"Ques":4662,"tomor":4663,"Gre":4664,"reach</w>":4665,"ens</w>":4666,"ange</w>":4667,"commit":4668,"create</w>":4669,"speech</w>":4670,"articl":4671,"Amendment</w>":4672,"78":4673,"mom</w>":4674,"resour":4675,"aste</w>":4676,"there.</w>":4677,"lock</w>":4678,"today.</w>":4679,"Union</w>":4680,"###</w>":4681,"AM":4682,"ders</w>":4683,"ements</w>":4684,"from":4685,"watching</w>":4686,"coronavirus-":4687,"quarantine</w>":4688,"5.</w>":4689,"Des":4690,"WH":4691,"bill</w>":4692,"farm":4693,"hr":4694,"t's</w>":4695,"treat":4696,"Ger":4697,"S.</w>":4698,"ars</w>":4699,"ror</w>":4700,"ama":4701,"ability</w>":4702,"versi":4703,"Army</w>":4704,"there's</w>":4705,"Nov":4706,"total</w>":4707,"Tech":4708,"era</w>":4709,"infec":4710,"argum":4711,"accused</w>":4712,"orders</w>":4713,"continue</w>":4714,"caste</w>":4715,"message</w>":4716,"received</w>":4717,"answer</w>":4718,"YouTu":4719,"Sup":4720,"yester":4721,"inside</w>":4722,"ude</w>":4723,"India:</w>":4724,"all.</w>":4725,"canc":4726,"attack</w>":4727,"posts</w>":4728,"Rahul</w>":4729,"threat":4730,"financial</w>":4731,"Health</w>":4732,"disp":4733,"meas":4734,"comments</w>":4735,"international</w>":4736,"attemp":4737,"Ministry</w>":4738,"discuss</w>":4739,"ush</w>":4740,"Ther":4741,"absol":4742,"elled</w>":4743,"popular</w>":4744,"Students</w>":4745,"sugge":4746,"en.wikipedia.org/wiki/":4747,"Let's</w>":4748,"wide</w>":4749,"asi":4750,"for-":4751,"often</w>":4752,"posted</w>":4753,"hor":4754,"journ":4755,"notic":4756,"shot</w>":4757,"mostly</w>":4758,"ed|":4759,"wife</w>":4760,"relation":4761,"tax":4762,"haven't</w>":4763,"25</w>":4764,"Fri":4765,"Hot":4766,"vely</w>":4767,"correc":4768,"kills</w>":4769,"extremely</w>":4770,"2-":4771,"EE":4772,"imag":4773,"immedi":4774,"trip</w>":4775,"collec":4776,"600":4777,"ah</w>":4778,"conduc":4779,"please":4780,"period</w>":4781,"video":4782,"numbers</w>":4783,"themselves</w>":4784,"growth</w>":4785,"Bengaluru</w>":4786,"Against</w>":4787,".\"\"</w>":4788,"3-":4789,"41.":4790,"Every</w>":4791,"T]</w>":4792,"cle</w>":4793,"mast":4794,"ron":4795,"him.</w>":4796,"up.</w>":4797,"tizen</w>":4798,"what's</w>":4799,"gl":4800,"masks</w>":4801,"nt</w>":4802,"ond":4803,"st-":4804,"has":4805,"veri":4806,"cities</w>":4807,"class":4808,"official</w>":4809,"organi":4810,"Kam":4811,"adi":4812,"ba":4813,"bed</w>":4814,"vind</w>":4815,"ght.</w>":4816,"ental</w>":4817,"days.</w>":4818,"movies</w>":4819,"less":4820,"Govern":4821,"question":4822,"randi":4823,"benef":4824,"various</w>":4825,"multiple</w>":4826,"AB":4827,"_a":4828,"mas":4829,"hai</w>":4830,"force</w>":4831,"born</w>":4832,"/2020|":4833,"Pat":4834,"Rem":4835,"eless</w>":4836,"word</w>":4837,"gives</w>":4838,"famili":4839,"minister</w>":4840,"illion</w>":4841,"Let</w>":4842,"Sci":4843,"song":4844,"tol":4845,"ane</w>":4846,"sting</w>":4847,"survi":4848,"seeing</w>":4849,"alized|":4850,"Febr":4851,"Hospitalized|":4852,"-to-":4853,"CC":4854,"late</w>":4855,"eral</w>":4856,"choo":4857,"Chri":4858,"46":4859,"MB":4860,"bit":4861,"flo":4862,"vey</w>":4863,"not":4864,"vered</w>":4865,"sex</w>":4866,"response</w>":4867,"ticip":4868,"document":4869,"democracy</w>":4870,"Sam":4871,"pa":4872,"alone</w>":4873,"ears</w>":4874,"tests</w>":4875,"lawy":4876,"==":4877,"bility</w>":4878,"couldn't</w>":4879,"gni":4880,"ti</w>":4881,"tren":4882,"ali</w>":4883,"supp":4884,"words</w>":4885,"auti":4886,"content</w>":4887,"phys":4888,"tech</w>":4889,"Media</w>":4890,"Ayod":4891,".gov":4892,"larg":4893,"xi":4894,"realis":4895,"am.</w>":4896,"parties</w>":4897,"twee":4898,"return</w>":4899,"Sabha</w>":4900,"79":4901,"kept</w>":4902,"actions</w>":4903,"urg":4904,"advi":4905,"edom":4906,"Regi":4907,"apply</w>":4908,"surve":4909,"wondering</w>":4910,"organ":4911,"Br":4912,"cm":4913,"anal":4914,"rimin":4915,"notice</w>":4916,"viron":4917,"business":4918,"FI":4919,"Rap":4920,"bhak":4921,"्र":4922,"tish</w>":4923,"lead</w>":4924,"atis":4925,"exper":4926,"get":4927,"ation?</w>":4928,"team</w>":4929,"student":4930,"draw":4931,"graph":4932,"wasn't</w>":4933,"North</w>":4934,"several</w>":4935,"Justice</w>":4936,"died</w>":4937,"distric":4938,"Inst":4939,"aft</w>":4940,"write</w>":4941,"corrup":4942,"middle</w>":4943,"Sik":4944,"main</w>":4945,"val</w>":4946,"income</w>":4947,"ession</w>":4948,"ames</w>":4949,"sub</w>":4950,"internet":4951,"tware</w>":4952,"Muslim":4953,"Parliam":4954,"Diwali</w>":4955,"schools</w>":4956,"120":4957,"God":4958,"dang":4959,"pack":4960,"typ":4961,"ure":4962,"ances</w>":4963,"estig":4964,"exc":4965,"strugg":4966,"Only</w>":4967,"knowledge</w>":4968,"Octo":4969,"Bab":4970,"band</w>":4971,"d/":4972,"rat":4973,"time":4974,"aren't</w>":4975,"policy</w>":4976,"serv":4977,"present</w>":4978,"mentioned</w>":4979,"tification</w>":4980,"1-":4981,"ME":4982,"cent</w>":4983,"isol":4984,"forced</w>":4985,"sof":4986,"Cont":4987,"wrong":4988,"discrimin":4989,"refer":4990,"Telangana</w>":4991,"During</w>":4992,"add</w>":4993,"persec":4994,"polic":4995,"protesting</w>":4996,"ached</w>":4997,"article</w>":4998,"delhi":4999,"Social</w>":5000,"campaig":5001,"independ":5002,":)</w>":5003,"Fil":5004,"lier</w>":5005,"ch.</w>":5006,"histor":5007,"forward</w>":5008,"....</w>":5009,"trib":5010,"Share</w>":5011,"despite</w>":5012,"groups</w>":5013,"Cr":5014,"Dal":5015,"fall</w>":5016,"in.</w>":5017,"feeling</w>":5018,"speak</w>":5019,"address</w>":5020,"High</w>":5021,"hmed":5022,"knows</w>":5023,"Sp":5024,"wish</w>":5025,"opport":5026,"et.</w>":5027,"rain</w>":5028,"basic</w>":5029,"elections</w>":5030,"control</w>":5031,"News":5032,"neighb":5033,"hai":5034,"rail":5035,"Hindut":5036,".**</w>":5037,"aut":5038,"gan":5039,"nic":5040,"tect</w>":5041,"iness</w>":5042,"onna</w>":5043,"load</w>":5044,"ull</w>":5045,"calling</w>":5046,"young</w>":5047,"Ko":5048,"ka":5049,"mist":5050,"way":5051,"||</w>":5052,"art</w>":5053,"election</w>":5054,"country":5055,"rules</w>":5056,"scrip":5057,"chief</w>":5058,"decision</w>":5059,"explain</w>":5060,"Ju":5061,"Ur":5062,"report":5063,"stopped</w>":5064,"ald</w>":5065,"ading</w>":5066,"awa":5067,"interest</w>":5068,"Stat":5069,"Rajasthan</w>":5070,"February</w>":5071,"hindu":5072,"ki</w>":5073,"anim":5074,"agre":5075,"cked</w>":5076,"cket</w>":5077,"supposed</w>":5078,"freedom":5079,"Women</w>":5080,"crisis</w>":5081,"necessary</w>":5082,"avoid</w>":5083,"++":5084,"Sho":5085,"nd</w>":5086,"train</w>":5087,"forc":5088,"fire</w>":5089,"ans_":5090,"self.</w>":5091,"%2":5092,"?\"</w>":5093,"Many</w>":5094,"Yes</w>":5095,"dead</w>":5096,"term</w>":5097,"example</w>":5098,"buying</w>":5099,"surpri":5100,"ly_":5101,"doctor</w>":5102,"Because</w>":5103,"Two</w>":5104,"Hist":5105,"ND":5106,"Nav":5107,"cen":5108,"arri":5109,"Online</w>":5110,"work.</w>":5111,"Pakistani</w>":5112,"pursu":5113,"!!!</w>":5114,"Khan</w>":5115,"MP":5116,"_share":5117,"block":5118,"ya":5119,"mean":5120,"famil":5121,"purcha":5122,"charge</w>":5123,"95":5124,"ded</w>":5125,"evid":5126,"er's</w>":5127,"ensure</w>":5128,"altern":5129,"vid</w>":5130,"deep</w>":5131,"Arvind</w>":5132,"gency</w>":5133,"flight</w>":5134,"easy</w>":5135,"written</w>":5136,"About</w>":5137,"MHT]</w>":5138,"fighting</w>":5139,"Chennai</w>":5140,"please_share":5141,"randians_":5142,"please_share_a":5143,"randians_please_share_a":5144,"))</w>":5145,"Mus":5146,"_thread":5147,"apo":5148,"fo":5149,"ounds</w>":5150,"more.</w>":5151,"indian</w>":5152,"***":5153,"looks</w>":5154,"happiness":5155,"anti</w>":5156,"step</w>":5157,"critic":5158,"ancing</w>":5159,"judg":5160,"Bangladesh</w>":5161,"music</w>":5162,"'.</w>":5163,"34":5164,"Ban":5165,"Mis":5166,"YO":5167,"moder":5168,"qui":5169,"phones</w>":5170,"respect</w>":5171,"needed</w>":5172,"running</w>":5173,"Boo":5174,"Kan":5175,"bly</w>":5176,"dated</w>":5177,"ement":5178,"id=":5179,"claim</w>":5180,"public":5181,"fund</w>":5182,"source</w>":5183,"documents</w>":5184,"self-":5185,"Check</w>":5186,"_thread_":5187,"Ak":5188,"Report</w>":5189,"decent</w>":5190,"build</w>":5191,"normal</w>":5192,"Week":5193,"Case</w>":5194,"May</w>":5195,"Sy":5196,"aur":5197,"inder</w>":5198,"doub":5199,"66":5200,"GD":5201,"Ter":5202,"eat</w>":5203,"gonna</w>":5204,"onlin":5205,"roll":5206,"viously</w>":5207,"do?</w>":5208,"citizen</w>":5209,"strong</w>":5210,"brought</w>":5211,"monthly_":5212,"actual</w>":5213,"randians_please_share_a/)</w>":5214,"happiness_thread_":5215,"monthly_happiness_thread_":5216,"monthly_happiness_thread_randians_please_share_a/)</w>":5217,"Face":5218,"TI":5219,"cit":5220,"onal</w>":5221,"riots</w>":5222,"there":5223,"ING</w>":5224,"showing</w>":5225,"laws</w>":5226,"Modi's</w>":5227,"morning</w>":5228,"delivery</w>":5229,"Punjab</w>":5230,"literally</w>":5231,"Ayodhya</w>":5232,"Euro":5233,"Rs.</w>":5234,"bat":5235,"hun":5236,"Chand":5237,"citizenship":5238,"intro":5239,"President</w>":5240,"AC":5241,"Go</w>":5242,"Night</w>":5243,"ope</w>":5244,"comment</w>":5245,"earing</w>":5246,"minutes</w>":5247,"lines</w>":5248,"filed</w>":5249,"hands</w>":5250,"detail":5251,"development</w>":5252,"they're</w>":5253,"channel</w>":5254,"language</w>":5255,"J&K</w>":5256,"Saf":5257,"Ye":5258,"ार":5259,"omb":5260,"options</w>":5261,"suffer":5262,"](https://en.wikipedia.org/wiki/":5263,"nific":5264,"infected</w>":5265,"whatever</w>":5266,"passed</w>":5267,"Coronavirus:</w>":5268,"Pay":5269,"pkar":5270,"say":5271,"wing</w>":5272,"abroad</w>":5273,"ow/":5274,"raise</w>":5275,"higher</w>":5276,"gather":5277,"(I</w>":5278,".pdf":5279,"Per":5280,"average</w>":5281,"bann":5282,"ls</w>":5283,"ton":5284,"inal</w>":5285,"ened</w>":5286,"adu</w>":5287,"unch</w>":5288,"propag":5289,"exac":5290,"vehic":5291,"Delhi.</w>":5292,"marriage</w>":5293,"Sena</w>":5294,"freedom</w>":5295,"Sal":5296,"global</w>":5297,"ology</w>":5298,"ths</w>":5299,"usually</w>":5300,"peace":5301,"separ":5302,"conv":5303,"https://preview.redd.it/":5304,"feat":5305,"rent</w>":5306,"embly</w>":5307,"Commit":5308,"half</w>":5309,"serious</w>":5310,"destro":5311,"symptom":5312,"October</w>":5313,".co":5314,"Fun":5315,"ck</w>":5316,"smo":5317,"yes</w>":5318,"ator":5319,"ators</w>":5320,"corpor":5321,"increase</w>":5322,"exams</w>":5323,"girls</w>":5324,"difficult</w>":5325,"articlesh":5326,"?\"\"</w>":5327,"Hum":5328,"Jamm":5329,"gone</w>":5330,"mes":5331,"t/":5332,"es)</w>":5333,"accept</w>":5334,"depend":5335,"guid":5336,"Gandhi":5337,"product</w>":5338,"salary</w>":5339,"Shiv</w>":5340,"relev":5341,"articleshow/":5342,"55":5343,"May":5344,"Out":5345,"Sw":5346,"cops</w>":5347,"ner":5348,"wise</w>":5349,"ile":5350,"crimin":5351,"COVID-19":5352,"learning</w>":5353,"estern</w>":5354,"industry</w>":5355,"YouTube</w>":5356,"/2020|-|-|":5357,"raz":5358,"protesters</w>":5359,"-|-|Hospitalized|":5360,"married</w>":5361,"Here's</w>":5362,"digital</w>":5363,"engineering</w>":5364,"/2020|-|-|-|-|Hospitalized|":5365,"Az":5366,"smar":5367,"win</w>":5368,"activ":5369,"Indian":5370,"dep":5371,"shut</w>":5372,"terms</w>":5373,"word":5374,"particip":5375,"home.</w>":5376,"consider</w>":5377,"y)</w>":5378,"beha":5379,"after":5380,"feed":5381,"boy":5382,"r/india</w>":5383,"happens</w>":5384,"specific</w>":5385,"yourself</w>":5386,"Netfli":5387,"3.":5388,"tain":5389,"allow</w>":5390,"room":5391,"letter</w>":5392,"lose</w>":5393,"scared</w>":5394,"created</w>":5395,"shall</w>":5396,"ock</w>":5397,"ency</w>":5398,"Kolkata</w>":5399,"Right</w>":5400,"fem":5401,"ves.</w>":5402,"dise":5403,"learn":5404,"deal":5405,"prin":5406,"reasons</w>":5407,"considered</w>":5408,"appreciate</w>":5409,"pandemic</w>":5410,"HC</w>":5411,"fasc":5412,"non</w>":5413,"ve-":5414,"brut":5415,"system":5416,"Ve":5417,"[P":5418,"ke":5419,"mm":5420,"rac":5421,"s’</w>":5422,"ar.</w>":5423,"ati</w>":5424,"road":5425,"according</w>":5426,"protect</w>":5427,"ayed</w>":5428,"spreading</w>":5429,"met</w>":5430,"booked</w>":5431,"speak":5432,"fellow</w>":5433,"'d</w>":5434,"Bollywood</w>":5435,"ah":5436,"bb":5437,"key</w>":5438,"paying</w>":5439,"ran</w>":5440,"willing</w>":5441,"ories</w>":5442,"lig":5443,"el.</w>":5444,"able.</w>":5445,"previous</w>":5446,"Chinese</w>":5447,"becoming</w>":5448,"ama</w>":5449,"unity</w>":5450,"earn</w>":5451,"hard":5452,"illed</w>":5453,"final</w>":5454,"status</w>":5455,"wait</w>":5456,"reports</w>":5457,"science</w>":5458,"million</w>":5459,"Latest</w>":5460,"November</w>":5461,"1/":5462,"88":5463,"Fore":5464,"sort</w>":5465,"inno":5466,"insur":5467,"pot":5468,"aged</w>":5469,"construc":5470,"(https://www.":5471,"ally.</w>":5472,"genu":5473,"turned</w>":5474,"hearing</w>":5475,"claims</w>":5476,"fortun":5477,"Uttar</w>":5478,"stupid</w>":5479,"13</w>":5480,"22</w>":5481,"jit</w>":5482,"mal":5483,"thous":5484,"amid</w>":5485,"counter</w>":5486,"***</w>":5487,"](https://www.reddit.com/r/india/comments/":5488,"47":5489,"UK</w>":5490,"ining</w>":5491,"ination</w>":5492,"itself</w>":5493,"atic":5494,"const":5495,"year.</w>":5496,"lower</w>":5497,"logical</w>":5498,"influ":5499,"affected</w>":5500,"signific":5501,"profession":5502,"sharing</w>":5503,"Good</w>":5504,"fru":5505,"hus":5506,"member</w>":5507,"ta</w>":5508,"ure.</w>":5509,"के</w>":5510,"version</w>":5511,"modi":5512,"worse</w>":5513,"finally</w>":5514,"facing</w>":5515,"formation</w>":5516,"Pradesh":5517,"points</w>":5518,"regist":5519,"reported</w>":5520,"Islam":5521,"success":5522,"ED":5523,"daugh":5524,"mag":5525,"swit":5526,"s\"\"</w>":5527,"t:</w>":5528,"ted.</w>":5529,"rely</w>":5530,"tify</w>":5531,"acking</w>":5532,"ver.</w>":5533,"vers</w>":5534,"sett":5535,"worst</w>":5536,"ations.</w>":5537,"image</w>":5538,"ports</w>":5539,"aff</w>":5540,"changed</w>":5541,"expect</w>":5542,"func":5543,"power":5544,"writing</w>":5545,"below</w>":5546,"33":5547,"CE":5548,"Mi":5549,"em</w>":5550,"hous":5551,"mass</w>":5552,"ward":5553,"enjo":5554,"consul":5555,"civil</w>":5556,"000":5557,"fication</w>":5558,"limited</w>":5559,"patients</w>":5560,"simply</w>":5561,"hotstar":5562,"transp":5563,"4-":5564,"?s=":5565,"AN</w>":5566,"NS":5567,"budget</w>":5568,"able":5569,"super":5570,"plans</w>":5571,"event":5572,"mine</w>":5573,"societ":5574,"Pune</w>":5575,"anti-CAA</w>":5576,"shit":5577,"shoo":5578,"proper</w>":5579,"worried</w>":5580,"gue</w>":5581,"Ru":5582,"coo":5583,"gree</w>":5584,"pass</w>":5585,"repe":5586,"refu":5587,"itary</w>":5588,"rise</w>":5589,"uru":5590,"loy":5591,"oli</w>":5592,"difference</w>":5593,"voice</w>":5594,"mention</w>":5595,"partment</w>":5596,"Publi":5597,"organiz":5598,"Hindutva</w>":5599,"bought</w>":5600,"game</w>":5601,"ior</w>":5602,"uted</w>":5603,"uck":5604,"handle</w>":5605,"building</w>":5606,"--------------------------------":5607,"Madhya</w>":5608,"paper</w>":5609,"American</w>":5610,"tomorrow</w>":5611,"44":5612,"Cre":5613,"East</w>":5614,"Fam":5615,"cat":5616,"erc":5617,"rio":5618,"atimes":5619,"adem":5620,"short":5621,"akes</w>":5622,"tro</w>":5623,"traff":5624,"provi":5625,"pping</w>":5626,"national":5627,"Pakistan":5628,"clearly</w>":5629,"Bihar</w>":5630,"continu":5631,"Woman</w>":5632,"[OC":5633,"Jammu</w>":5634,".be":5635,"Tur":5636,"dy</w>":5637,"dra":5638,"way.</w>":5639,"realiz":5640,"ala":5641,"acts</w>":5642,"parts</w>":5643,"cker":5644,"ble.</w>":5645,"believ":5646,"Central</w>":5647,"British</w>":5648,"biggest</w>":5649,"IIT</w>":5650,"Out</w>":5651,"Rul":5652,"insi":5653,"ate.</w>":5654,"ises</w>":5655,"chance</w>":5656,"convers":5657,"ed:</w>":5658,"essential</w>":5659,"Goa</w>":5660,"enced</w>":5661,"ignor":5662,"pollution</w>":5663,"scienti":5664,"Source":5665,"Ahmed":5666,"IS</w>":5667,"TR":5668,"Tech</w>":5669,"tel":5670,"itely</w>":5671,"ury</w>":5672,"except</w>":5673,"he's</w>":5674,"ministr":5675,"youtu.be":5676,"IFF</w>":5677,"Rail":5678,"d?</w>":5679,"tells</w>":5680,"agree</w>":5681,"areas</w>":5682,"grand":5683,"utely</w>":5684,"indiatimes":5685,"minim":5686,"Stay</w>":5687,"investig":5688,"affect</w>":5689,"helping</w>":5690,"products</w>":5691,"/04":5692,"Watch</w>":5693,"technology</w>":5694,"56":5695,"Last</w>":5696,"aries</w>":5697,"dish":5698,"at-":5699,"level":5700,"ender</w>":5701,"reser":5702,"interview</w>":5703,"studying</w>":5704,"r/India</w>":5705,"university</w>":5706,"Virus</w>":5707,"politicians</w>":5708,"employees</w>":5709,"exactly</w>":5710,"hotstar.com/":5711,"Dist":5712,"Law":5713,"Paw":5714,"Sav":5715,"ken</w>":5716,"kill</w>":5717,"page</w>":5718,"’re</w>":5719,"station</w>":5720,"ism":5721,"do.</w>":5722,"Andh":5723,"Chil":5724,"2018":5725,"websites</w>":5726,"Time</w>":5727,"impact</w>":5728,"piec":5729,"recogni":5730,"behavi":5731,"(https://www.reddit.com/r/india/comments/":5732,"Ano":5733,"Hou":5734,"Late</w>":5735,"That":5736,"](":5737,"fine</w>":5738,"ger</w>":5739,"nor</w>":5740,"age":5741,"proof</w>":5742,"condi":5743,"worked</w>":5744,"prec":5745,"resol":5746,"coll":5747,"Trav":5748,"Official</w>":5749,"png?width=":5750,"png&auto=webp&s=":5751,"article/":5752,"&format=png&auto=webp&s=":5753,"INDIA</w>":5754,"40</w>":5755,"Sin":5756,"idi":5757,"erous</w>":5758,"represent":5759,"sequ":5760,"gry</w>":5761,"intern":5762,"Republic</w>":5763,"here?</w>":5764,"communic":5765,"educated</w>":5766,"sign</w>":5767,"brother</w>":5768,"discussion</w>":5769,"birth</w>":5770,".indiatimes":5771,"GO":5772,"Him":5773,"Mas":5774,"av</w>":5775,"mer</w>":5776,"ny</w>":5777,"star</w>":5778,"stuck</w>":5779,"adly</w>":5780,"appoin":5781,"event</w>":5782,"basically</w>":5783,"certific":5784,"news":5785,"demand</w>":5786,"victim":5787,"Reddit</w>":5788,"Updat":5789,"simple</w>":5790,"village</w>":5791,"stitute</w>":5792,"5-":5793,"AI</w>":5794,"Sol":5795,"ness":5796,"telling</w>":5797,"sion.</w>":5798,"psy":5799,"credit</w>":5800,"compared</w>":5801,"anka</w>":5802,"released</w>":5803,"Their</w>":5804,"petition</w>":5805,"Char":5806,"RO":5807,"ular":5808,"eting</w>":5809,"sitting</w>":5810,"Shah":5811,"airs</w>":5812,"Bhag":5813,"Docum":5814,"MLA</w>":5815,"Bre":5816,"Fli":5817,"Sat":5818,"file</w>":5819,"ither</w>":5820,"reve":5821,"environ":5822,"degree</w>":5823,"trust</w>":5824,"heav":5825,"prices</w>":5826,"rupe":5827,"Before</w>":5828,"back.</w>":5829,"laptop</w>":5830,"GDP</w>":5831,"Get</w>":5832,"bank":5833,"mad":5834,"n.</w>":5835,"o-":5836,"email</w>":5837,"now?</w>":5838,"decide</w>":5839,"shared</w>":5840,"Live</w>":5841,"ished</w>":5842,"considering</w>":5843,"interesting</w>":5844,"Law</w>":5845,"autiful</w>":5846,"PP":5847,"Pow":5848,"m_":5849,"as-":5850,"Inv":5851,"ing/":5852,"plan":5853,"section</w>":5854,"privacy</w>":5855,"USA</w>":5856,"payment</w>":5857,"meeting</w>":5858,"channels</w>":5859,"Violence</w>":5860,"Facebook</w>":5861,"Another</w>":5862,"LE":5863,"Pers":5864,"Tab":5865,"UN":5866,"xed</w>":5867,"achi":5868,"aging</w>":5869,"ter.</w>":5870,"wear</w>":5871,"2020.</w>":5872,"accounts</w>":5873,"increas":5874,"THE</w>":5875,"Details</w>":5876,"ahead</w>":5877,"temple</w>":5878,"ution":5879,"ufac":5880,"yle</w>":5881,"bed":5882,"exam</w>":5883,"tested</w>":5884,"anna</w>":5885,"issued</w>":5886,"risk</w>":5887,"[OC]</w>":5888,"86":5889,":15":5890,"Jai":5891,"Nadu</w>":5892,"Vo":5893,"oni":5894,"ense</w>":5895,"aten</w>":5896,"ing:</w>":5897,"Part</w>":5898,"visa</w>":5899,"hospitals</w>":5900,"resources</w>":5901,"youtu.be/":5902,"/monthly_happiness_thread_randians_please_share_a/)</w>":5903,"32":5904,"Know</w>":5905,"Loc":5906,"Seri":5907,"ame":5908,"opposition</w>":5909,"oday":5910,"think":5911,"ideas</w>":5912,"electri":5913,"provided</w>":5914,"structure</w>":5915,"easily</w>":5916,"judi":5917,"practic":5918,"(and</w>":5919,"=1":5920,"IP":5921,"RBI</w>":5922,"TV":5923,"fast</w>":5924,"hour</w>":5925,"pon":5926,"wards</w>":5927,"से</w>":5928,"institu":5929,"track</w>":5930,"upon</w>":5931,"sector</w>":5932,"Trans":5933,"otes</w>":5934,"Medic":5935,"/03":5936,"movement</w>":5937,"absolutely</w>":5938,"software</w>":5939,"gri":5940,"p.</w>":5941,"yond</w>":5942,"zz":5943,"life":5944,"rious</w>":5945,"agram</w>":5946,"https://twitter.com/":5947,"sites</w>":5948,"sell</w>":5949,"Read</w>":5950,"officer</w>":5951,"posting</w>":5952,"result</w>":5953,"volun":5954,"definitely</w>":5955,"scenari":5956,"choose</w>":5957,"Netflix</w>":5958,"3)</w>":5959,"Hu":5960,"bag":5961,"ied</w>":5962,"jay</w>":5963,"knew</w>":5964,"mask</w>":5965,"rd</w>":5966,"die</w>":5967,"events</w>":5968,"understanding</w>":5969,"supporting</w>":5970,"mitted</w>":5971,"Anti-CAA</w>":5972,"Constitution</w>":5973,"Free</w>":5974,"HO":5975,"SE":5976,"TE":5977,"categ":5978,"lets</w>":5979,"mos":5980,"edding</w>":5981,"prefer":5982,"earlier</w>":5983,"raised</w>":5984,"deser":5985,"required</w>":5986,"Devel":5987,"Committee</w>":5988,"--</w>":5989,"Bus":5990,"My":5991,"VP":5992,"gro":5993,"jected</w>":5994,"mi</w>":5995,"mand":5996,"ites</w>":5997,"unable</w>":5998,"trou":5999,"ides</w>":6000,"Chan":6001,"story/":6002,"International</w>":6003,"appreciated.</w>":6004,"internetfreedom":6005,"Dig":6006,"GST</w>":6007,"Make</w>":6008,"inju":6009,"note</w>":6010,"load":6011,"utm_":6012,"red.</w>":6013,"arently</w>":6014,"attention</w>":6015,"rule</w>":6016,"fundam":6017,"Section</w>":6018,"failed</w>":6019,"Thacker":6020,"Yogi</w>":6021,"09:15":6022,"relevant</w>":6023,"09:15AM</w>":6024,"Ja":6025,"Ka":6026,"a)</w>":6027,"one's</w>":6028,"rish":6029,"is-":6030,"shop</w>":6031,"became</w>":6032,"stration</w>":6033,"ships</w>":6034,"secular</w>":6035,"protestors</w>":6036,"speaking</w>":6037,"request":6038,"recommend</w>":6039,"protection</w>":6040,"moment</w>":6041,"individu":6042,"prevent</w>":6043,"suicide</w>":6044,"particular</w>":6045,".gov.in/":6046,"Andhra</w>":6047,".google.com/":6048,"four</w>":6049,"key":6050,"ens":6051,"store":6052,"din</w>":6053,"indian":6054,"alling</w>":6055,"placed</w>":6056,"request</w>":6057,"recommendations</w>":6058,"officials</w>":6059,"treatment</w>":6060,"yesterday</w>":6061,"Could</w>":6062,"Well</w>":6063,"batt":6064,"lation</w>":6065,"or.</w>":6066,"alle":6067,"rote</w>":6068,"ably</w>":6069,"sume</w>":6070,"affor":6071,"clu":6072,"Commun":6073,"schem":6074,"developed</w>":6075,"results</w>":6076,"begin":6077,"property</w>":6078,"2nd</w>":6079,"IIT":6080,"san":6081,"wouldn't</w>":6082,"rich</w>":6083,"spi":6084,"anding</w>":6085,"ids</w>":6086,"donate</w>":6087,"ashed</w>":6088,"startu":6089,"Mark":6090,"directly</w>":6091,"Canada</w>":6092,"covid-19":6093,"85":6094,"Bud":6095,"rying</w>":6096,"ें</w>":6097,"asp":6098,"rist</w>":6099,"enter</w>":6100,"perf":6101,"2018</w>":6102,"again.</w>":6103,"12600":6104,"communal</w>":6105,"ffici":6106,"challeng":6107,"General</w>":6108,"4.":6109,"6.</w>":6110,"Cu":6111,"sem":6112,"als.</w>":6113,"estiv":6114,"ries</w>":6115,"moved</w>":6116,"basis</w>":6117,"expec":6118,"It’s</w>":6119,"sources</w>":6120,"Grou":6121,"Poll":6122,"Christi":6123,"refuge":6124,"Demo":6125,"Fre":6126,"pain":6127,"rout":6128,"table</w>":6129,"enge</w>":6130,"aper</w>":6131,"anded</w>":6132,"perform":6133,"minorities</w>":6134,"strali":6135,"series</w>":6136,"steps</w>":6137,"arian</w>":6138,"twitter</w>":6139,"Lead":6140,"Techno":6141,"1000</w>":6142,"Car":6143,"Edit</w>":6144,"bus</w>":6145,"sn":6146,"th-":6147,"tips</w>":6148,"bett":6149,"ares</w>":6150,"Reg":6151,"mission":6152,"human":6153,"addres":6154,"world.</w>":6155,"focus</w>":6156,".html)</w>":6157,"surveill":6158,"/04/2020|-|-|-|-|Hospitalized|":6159,"AT</w>":6160,"sli":6161,"tation</w>":6162,"ved":6163,"research":6164,"order":6165,"del</w>":6166,"old":6167,"tuk":6168,"12th</w>":6169,"tural</w>":6170,"solution</w>":6171,"Being</w>":6172,"Australi":6173,"customer</w>":6174,"field</w>":6175,"evidence</w>":6176,"pkart</w>":6177,"hotstar.com/12600":6178,"Old</w>":6179,"Sri</w>":6180,"VE":6181,"pal</w>":6182,"slog":6183,"ug":6184,"staff</w>":6185,"alists</w>":6186,"ising</w>":6187,"shouldn't</w>":6188,"moving</w>":6189,"eds</w>":6190,"police":6191,"hark":6192,"harm":6193,"apped</w>":6194,"concerned</w>":6195,"incident</w>":6196,"Parliament</w>":6197,"Budget</w>":6198,"Kore":6199,"bill":6200,"cow":6201,"eating</w>":6202,"ging</w>":6203,"pm":6204,"ar-":6205,"ded.</w>":6206,"conn":6207,"playing</w>":6208,"angal":6209,"soli":6210,"teach":6211,"decl":6212,"elecom</w>":6213,"Modi’s</w>":6214,"##</w>":6215,"16</w>":6216,"4)</w>":6217,"Bra":6218,"Mur":6219,"Nation":6220,"Str":6221,"hour":6222,"mass":6223,"ts":6224,"vac":6225,"zing</w>":6226,"reality</w>":6227,"title</w>":6228,"astic</w>":6229,"ady</w>":6230,"gott":6231,"survey</w>":6232,"problem":6233,"COVID</w>":6234,"picture</w>":6235,"2019.</w>":6236,"passeng":6237,"street</w>":6238,"amazon":6239,"Bharat</w>":6240,"Public</w>":6241,"internetfreedom.in/":6242,"A.</w>":6243,"Am</w>":6244,"i-":6245,"utr":6246,"hab":6247,"estic</w>":6248,"not.</w>":6249,"anged</w>":6250,"five</w>":6251,"outbreak</w>":6252,"funds</w>":6253,"sign":6254,"built</w>":6255,"job.</w>":6256,"listen</w>":6257,"98":6258,"MS</w>":6259,"Na":6260,"P.</w>":6261,"Son":6262,"how":6263,"active</w>":6264,"lows</w>":6265,"few":6266,"starting</w>":6267,"Comp":6268,"through":6269,"justice</w>":6270,"finding</w>":6271,"17</w>":6272,"Bhak":6273,"Ge":6274,"High":6275,"Ide":6276,"Jhark":6277,"Tal":6278,"however</w>":6279,"rally</w>":6280,"tment</w>":6281,"aran":6282,"ditional</w>":6283,"Those</w>":6284,"comb":6285,"shed</w>":6286,"peace</w>":6287,"consum":6288,"CAB":6289,"her.</w>":6290,"manufac":6291,"Sugg":6292,"explo":6293,"responsible</w>":6294,"noticed</w>":6295,"Adit":6296,"fill</w>":6297,"tron":6298,"iring</w>":6299,"guide</w>":6300,"anybody</w>":6301,"0000</w>":6302,"selling</w>":6303,"looked</w>":6304,"statement</w>":6305,"Protec":6306,"apping</w>":6307,"posing</w>":6308,"Life</w>":6309,"stories</w>":6310,"type</w>":6311,"Bas":6312,"Dem":6313,"narr":6314,"y's</w>":6315,"ari</w>":6316,"users</w>":6317,"vision</w>":6318,"be.</w>":6319,"spent</w>":6320,"---</w>":6321,"](https://www.youtube.com/watch?v=":6322,"special</w>":6323,"highest</w>":6324,"With":6325,"sexual</w>":6326,"application</w>":6327,"Full</w>":6328,"Sep":6329,"k-":6330,"kes</w>":6331,"t_":6332,"ordered</w>":6333,"acting</w>":6334,"sister</w>":6335,"id.</w>":6336,"update</w>":6337,"bott":6338,"face":6339,"facts</w>":6340,"aster</w>":6341,"servic":6342,"reduc":6343,"down.</w>":6344,"latest</w>":6345,"relationship</w>":6346,"articleshow/7":6347,"oday.in/":6348,"57":6349,"69":6350,"Bal":6351,"Lak":6352,"UR":6353,"aj</w>":6354,"keep":6355,"m.":6356,"p/":6357,"r.</w>":6358,"s_":6359,"ware</w>":6360,"wrote</w>":6361,"dio</w>":6362,"ney</w>":6363,"seats</w>":6364,"ingly</w>":6365,"**.</w>":6366,"puter</w>":6367,"subreddit</w>":6368,"Priv":6369,"house":6370,"waiting</w>":6371,"limate</w>":6372,"specific":6373,"judge</w>":6374,"-0":6375,"Hon":6376,"ON</w>":6377,"sou":6378,"estab":6379,"hell</w>":6380,"resh</w>":6381,"Amid</w>":6382,"teac":6383,"apps</w>":6384,"199":6385,"remain</w>":6386,"film</w>":6387,"Shiv":6388,"scribe</w>":6389,"Airtel</w>":6390,"becomes</w>":6391,"central</w>":6392,"Jio</w>":6393,"Religi":6394,"Family</w>":6395,"traffic</w>":6396,"Aff":6397,"Day":6398,"Luc":6399,"ag</w>":6400,"gn":6401,"ges</w>":6402,"stic":6403,"un</w>":6404,"ary.</w>":6405,"sto":6406,"distri":6407,"lights</w>":6408,"tion-":6409,"guess</w>":6410,"cover</w>":6411,"can’t</w>":6412,"anta</w>":6413,"Lok</w>":6414,"home":6415,"government.</w>":6416,"debate</w>":6417,"500</w>":6418,"Kun":6419,"OC":6420,"banks</w>":6421,"eli":6422,"rc":6423,"vation</w>":6424,"inking</w>":6425,"haar</w>":6426,"role</w>":6427,"as.</w>":6428,"Information</w>":6429,"ague</w>":6430,"tions?</w>":6431,"perspec":6432,"indiat":6433,"helpl":6434,"tries</w>":6435,"decad":6436,"ysis</w>":6437,"BJP's</w>":6438,"nature</w>":6439,"individual</w>":6440,"colleges</w>":6441,"families</w>":6442,"delhi-":6443,"HE":6444,"bud":6445,"card":6446,"ler</w>":6447,"erj":6448,"roads</w>":6449,"vice":6450,"beyond</w>":6451,"strong":6452,"attack":6453,"design":6454,"Guys</w>":6455,"objec":6456,"Vie":6457,"drive</w>":6458,"lakhs</w>":6459,"blood</w>":6460,"peaceful</w>":6461,"Develop":6462,".)</w>":6463,"Deep":6464,"NE":6465,"dge</w>":6466,"yr":6467,"hav</w>":6468,"adver":6469,"sets</w>":6470,"exec":6471,"counter":6472,"ful.</w>":6473,"violent</w>":6474,"violence":6475,"closed</w>":6476,"safety</w>":6477,"opinions</w>":6478,"Video":6479,"Election</w>":6480,"bull":6481,"measures</w>":6482,"41.png?width=":6483,"symptoms</w>":6484,"Pawar</w>":6485,"Fr":6486,"Me</w>":6487,"Sor":6488,"gation</w>":6489,"ring</w>":6490,"ym":6491,"throw":6492,"er:</w>":6493,"exerc":6494,"space</w>":6495,"afr":6496,"harass":6497,"marks</w>":6498,"pressure</w>":6499,"Noid":6500,"cash</w>":6501,"generation</w>":6502,"drive":6503,"reply</w>":6504,"longer</w>":6505,"correct</w>":6506,"MBA</w>":6507,"3rd</w>":6508,"Ali":6509,"Bir":6510,"Ear":6511,"Take</w>":6512,"Up</w>":6513,"code</w>":6514,"kee":6515,"mach":6516,"tv":6517,"warn":6518,"ye</w>":6519,"anxi":6520,"acted</w>":6521,"vili":6522,"appl":6523,"improve</w>":6524,"States</w>":6525,"boy</w>":6526,"missing</w>":6527,"198":6528,"months.</w>":6529,"heart</w>":6530,"stream</w>":6531,"authorities</w>":6532,"growing</w>":6533,"charges</w>":6534,"songs</w>":6535,"separate</w>":6536,".”</w>":6537,"Bl":6538,"Her</w>":6539,"ss":6540,"ara</w>":6541,"arti":6542,"acqu":6543,"use":6544,"white</w>":6545,"agar</w>":6546,"beat</w>":6547,"ation:</w>":6548,"changes</w>":6549,"fair</w>":6550,"Party</w>":6551,"24x":6552,"concerns</w>":6553,"confirmed</w>":6554,"RTI</w>":6555,"?**</w>":6556,"mask":6557,"sound</w>":6558,"sani":6559,"ous.</w>":6560,"feels</w>":6561,"Star":6562,"Movi":6563,"clean</w>":6564,"homes</w>":6565,"Plus</w>":6566,"opinion":6567,"Hyderabad":6568,"Opini":6569,"cheap</w>":6570,"NOT</w>":6571,"Digital</w>":6572,")?</w>":6573,"AD":6574,"Link</w>":6575,"Test</w>":6576,"adi</w>":6577,"sed.</w>":6578,"inging</w>":6579,"expected</w>":6580,"communi":6581,"articles</w>":6582,"Big</w>":6583,"echan":6584,"opping</w>":6585,"massive</w>":6586,"Rules</w>":6587,"Sept":6588,"Found</w>":6589,"IG":6590,"Jap":6591,"U.":6592,"duty</w>":6593,"text</w>":6594,"voc":6595,"tired</w>":6596,"ation-":6597,"we're</w>":6598,"record</w>":6599,"affec":6600,"situation.</w>":6601,"144</w>":6602,"foot":6603,"passport</w>":6604,"Phone</w>":6605,"deaths</w>":6606,"Tabligh":6607,"31":6608,"68":6609,"ID</w>":6610,"P.":6611,"ja":6612,"kha":6613,"nice</w>":6614,"son":6615,"review</w>":6616,"divid":6617,"academ":6618,"exclusi":6619,"to.</w>":6620,"Got</w>":6621,"former</w>":6622,"infra":6623,"faul":6624,"2019/":6625,"foreign":6626,"confused</w>":6627,"/status/120":6628,"democrac":6629,"attempt</w>":6630,"%2F":6631,".pdf)</w>":6632,"Maybe</w>":6633,"That's</w>":6634,"](http://":6635,"Dr</w>":6636,"IL":6637,"sick</w>":6638,"ine.</w>":6639,"parti":6640,"tweet</w>":6641,"everyday</w>":6642,"epis":6643,"clean":6644,"ordin":6645,"value</w>":6646,"covid19":6647,"false</w>":6648,"There's</w>":6649,"Science</w>":6650,"Banerj":6651,"thousands</w>":6652,"([**":6653,"Jan</w>":6654,"Kann":6655,"[NP":6656,"utt":6657,"की</w>":6658,"arch":6659,"whose</w>":6660,"loan</w>":6661,"shi</w>":6662,"beautiful</w>":6663,"essenti":6664,"sometimes</w>":6665,"starts</w>":6666,"blame</w>":6667,"black</w>":6668,"wonder</w>":6669,"detained</w>":6670,"raped</w>":6671,"highly</w>":6672,"sorry</w>":6673,"Economy</w>":6674,"allegedly</w>":6675,"negative</w>":6676,"Cops</w>":6677,"Jama":6678,"List</w>":6679,"Spo":6680,"ger":6681,"kers</w>":6682,"skills</w>":6683,"tory</w>":6684,"uti":6685,"xim":6686,"ने</w>":6687,"stan":6688,"aya</w>":6689,"convic":6690,"forces</w>":6691,"ture.</w>":6692,"serve</w>":6693,"Afgh":6694,"them?</w>":6695,"truth</w>":6696,"Engine":6697,"Kashmiri</w>":6698,"lockdown.</w>":6699,"FIR</w>":6700,"family.</w>":6701,"Cap":6702,"Food</w>":6703,"Hit</w>":6704,"ID":6705,"ather</w>":6706,"ga</w>":6707,"hen":6708,"jan</w>":6709,"kan":6710,"sit</w>":6711,"aram":6712,"ster":6713,"staying</w>":6714,"dog</w>":6715,"ture":6716,"cel</w>":6717,"reng":6718,"Post</w>":6719,"super</w>":6720,"youth</w>":6721,"links</w>":6722,"2000</w>":6723,"lick</w>":6724,"know.</w>":6725,"whats":6726,"I’ve</w>":6727,"Bangalore":6728,"murder</w>":6729,"restaur":6730,"shutdown</w>":6731,"Instagram</w>":6732,"67":6733,"AK":6734,"Corona":6735,"Popul":6736,"vacc":6737,"yana</w>":6738,"at.</w>":6739,"isl":6740,"prepar":6741,"impro":6742,"poses</w>":6743,"amp;":6744,"extre":6745,"airport</w>":6746,"providing</w>":6747,"driving</w>":6748,"capit":6749,"process":6750,"Hospital</w>":6751,"organis":6752,"Cam":6753,"Hope</w>":6754,"gust</w>":6755,"os":6756,"pul":6757,"They":6758,"ism.</w>":6759,"abuse</w>":6760,"condition</w>":6761,"spread":6762,"Stre":6763,"govt.</w>":6764,"leader":6765,"dict</w>":6766,"town</w>":6767,"confid":6768,"drop</w>":6769,"complaint</w>":6770,"money.</w>":6771,"involved</w>":6772,"Thackeray</w>":6773,"covid-19-":6774,"Democr":6775,"Adityan":6776,"indiatoday.in/":6777,".cm":6778,"dur":6779,"fare</w>":6780,"hoo":6781,"ram":6782,"sent":6783,"t.":6784,"ary":6785,"store</w>":6786,"aled</w>":6787,"ature</w>":6788,"ing)</w>":6789,"gift</w>":6790,"scam</w>":6791,"secular":6792,"Congres":6793,"assa":6794,"attacked</w>":6795,"location</w>":6796,"pictures</w>":6797,"watched</w>":6798,"logies</w>":6799,"immigrants</w>":6800,"garh</w>":6801,"Rape</w>":6802,"Weekly</w>":6803,"daughter</w>":6804,"7.</w>":6805,"Cent":6806,"Mag":6807,"Sus":6808,"TO":6809,"kid</w>":6810,"wearing</w>":6811,"spor":6812,"esting</w>":6813,"arely</w>":6814,"fig":6815,"strai":6816,"times.</w>":6817,"Covid</w>":6818,"CAA-":6819,"370</w>":6820,"trol</w>":6821,"Corpor":6822,"propaganda</w>":6823,".indiatimes.com/":6824,"Tablighi</w>":6825,"21":6826,"23</w>":6827,"CA</w>":6828,"Mil":6829,"aa":6830,"dy":6831,"s).</w>":6832,"vali":6833,"third</w>":6834,"anist":6835,"usual</w>":6836,"rit</w>":6837,"shops</w>":6838,"sus</w>":6839,"aster":6840,"Express</w>":6841,"killing</w>":6842,"promo":6843,"duce</w>":6844,"receive</w>":6845,"suggested</w>":6846,"insurance</w>":6847,"Medical</w>":6848,".*</w>":6849,"Bur":6850,"PO":6851,"TL":6852,"Ver":6853,"Yo":6854,"edi":6855,"t=":6856,"uk":6857,"wanna</w>":6858,"revol":6859,"unemploy":6860,"200</w>":6861,"apar":6862,"tion?</w>":6863,"quali":6864,"policies</w>":6865,"holi":6866,"compani":6867,"info</w>":6868,"Delhi:</w>":6869,"Keral":6870,"responsi":6871,"seriously</w>":6872,"patient</w>":6873,"Haryana</w>":6874,"visiting</w>":6875,"Punjab":6876,"Everyone</w>":6877,"okay</w>":6878,"supply</w>":6879,"introduc":6880,".com</w>":6881,"registered</w>":6882,"(or</w>":6883,"58":6884,"Udd":6885,"bloc":6886,"fit</w>":6887,"im</w>":6888,"mb":6889,"nd":6890,"sad</w>":6891,"ami</w>":6892,"proce":6893,"seem":6894,"meth":6895,"commer":6896,"Ambed":6897,"relief</w>":6898,"author":6899,"crores</w>":6900,"charged</w>":6901,"domestic</w>":6902,"ligence</w>":6903,"Afghanist":6904,"Id":6905,"Kap":6906,"Naz":6907,"fying</w>":6908,"hence</w>":6909,"ming</w>":6910,"ne</w>":6911,"ero</w>":6912,"iter":6913,"ices</w>":6914,"conver":6915,"Anur":6916,"creating</w>":6917,"10th</w>":6918,"Under</w>":6919,"toral</w>":6920,"include</w>":6921,"network</w>":6922,"threat</w>":6923,"susp":6924,"sung</w>":6925,"farmers</w>":6926,"awaited</w>":6927,"Europe":6928,"suffering</w>":6929,"princi":6930,"volunte":6931,"Business</w>":6932,"Kunal</w>":6933,"September</w>":6934,"(which</w>":6935,"CM":6936,"Want</w>":6937,"je":6938,"ker</w>":6939,"ty.</w>":6940,"sed":6941,"ffer</w>":6942,"month.</w>":6943,"leading</w>":6944,"Twitter":6945,"choice</w>":6946,"honest":6947,"effect</w>":6948,"maintain</w>":6949,"undred":6950,"expensive</w>":6951,"original</w>":6952,"surveillance</w>":6953,"Sorry</w>":6954,"24x7</w>":6955,"43":6956,"City</w>":6957,"Educ":6958,"Lef":6959,"Pho":6960,"fra":6961,"fla":6962,"g.</w>":6963,"gam":6964,"gold</w>":6965,"pt</w>":6966,"rates</w>":6967,"enever</w>":6968,"light":6969,"administr":6970,"mark</w>":6971,"ofindia":6972,"milk</w>":6973,"voted</w>":6974,"driver</w>":6975,"transfer</w>":6976,"AND</w>":6977,"source":6978,"remove</w>":6979,"suspend":6980,"Colle":6981,"Friday</w>":6982,"largest</w>":6983,"%3":6984,"Hindi":6985,"Jun":6986,"Mat":6987,"Secon":6988,"wast":6989,"wedding</w>":6990,"encour":6991,"sitive</w>":6992,"before":6993,"clas":6994,"mary</w>":6995,"faith</w>":6996,"folks</w>":6997,"Assembly</w>":6998,"belong":6999,"thought":7000,"NRC.</w>":7001,"millions</w>":7002,"visited</w>":7003,"restrictions</w>":7004,"autom":7005,"banned</w>":7006,"Protection</w>":7007,"drive.google.com/":7008,"[NP]</w>":7009,"-of-":7010,"Gir":7011,"How":7012,"Numb":7013,"Ob":7014,"Pi":7015,"Sar":7016,"Song</w>":7017,"hood</w>":7018,"”.</w>":7019,"thanks</w>":7020,"amil":7021,"abin":7022,"deep":7023,"versit":7024,"terri":7025,"more":7026,"edy</w>":7027,"forget</w>":7028,"sely</w>":7029,"prime</w>":7030,"puts</w>":7031,"attacks</w>":7032,"197":7033,"tively</w>":7034,"cloth":7035,"Leg":7036,"timesofindia":7037,"existing</w>":7038,"programm":7039,"Thanks!</w>":7040,"Sm":7041,"mala</w>":7042,"oil</w>":7043,"swee":7044,"र्":7045,"streng":7046,"ated":7047,"ason</w>":7048,"loved</w>":7049,"contrib":7050,"endra</w>":7051,"pleas":7052,"Show":7053,"Pro</w>":7054,"relatives</w>":7055,"purpose</w>":7056,"informed</w>":7057,"Assam":7058,"advance</w>":7059,"names</w>":7060,"concern</w>":7061,"Sunday</w>":7062,"argument</w>":7063,"immediately</w>":7064,"Music</w>":7065,"Ahmedabad</w>":7066,"afraid</w>":7067,"26</w>":7068,"BB":7069,"Jai</w>":7070,"Rel":7071,"Wel":7072,"tharam":7073,"stage</w>":7074,"al?</w>":7075,"achal</w>":7076,"lef":7077,"compe":7078,"beaten</w>":7079,"nee":7080,"ement.</w>":7081,"spending</w>":7082,"earning</w>":7083,"aji</w>":7084,"cru":7085,"aches</w>":7086,"regular</w>":7087,"travelling</w>":7088,"walk</w>":7089,"Delhi's</w>":7090,"treated</w>":7091,"August</w>":7092,"healthcare</w>":7093,"Dr.</w>":7094,"respective</w>":7095,"versities</w>":7096,"district</w>":7097,"Technology</w>":7098,"(not</w>":7099,"28</w>":7100,"31</w>":7101,"64":7102,"B.":7103,"Ba":7104,"Emp":7105,"Global</w>":7106,"LP":7107,"SC":7108,"Sim":7109,"dren":7110,"tin":7111,"yed</w>":7112,"में</w>":7113,"erial</w>":7114,"rea":7115,"associ":7116,"amend":7117,"losing</w>":7118,"ings.</w>":7119,"extra</w>":7120,"are.</w>":7121,"gram</w>":7122,"awaren":7123,"thinks</w>":7124,"place.</w>":7125,"ancy</w>":7126,"anced</w>":7127,"experiences</w>":7128,"doesn’t</w>":7129,"senior</w>":7130,"stuff":7131,"Import":7132,"Amazon":7133,"honest</w>":7134,"muslim</w>":7135,"connection</w>":7136,"Nirbha":7137,"toll</w>":7138,"campaign</w>":7139,"History</w>":7140,"blocked</w>":7141,"psycho":7142,"Cal":7143,"DR":7144,"Jag":7145,"Link":7146,"Other</w>":7147,"Rev":7148,"ce.</w>":7149,"filled</w>":7150,"l-":7151,"ser</w>":7152,"tan":7153,"uce</w>":7154,"thy</w>":7155,"es.":7156,"Things</w>":7157,"trade</w>":7158,"mob</w>":7159,"anging</w>":7160,"virus":7161,"sched":7162,"fresh":7163,"showed</w>":7164,"World":7165,"Direc":7166,"identify</w>":7167,"NCP</w>":7168,"dark</w>":7169,"Thanks.</w>":7170,"emergency</w>":7171,"banking</w>":7172,"physical</w>":7173,"fundamental</w>":7174,"keeping</w>":7175,"Uddhav</w>":7176,"IR":7177,"bing</w>":7178,"craz":7179,"if":7180,"ja</w>":7181,"reci":7182,"ality.</w>":7183,"ake":7184,"conven":7185,"model</w>":7186,"timate</w>":7187,"withdraw":7188,"bike</w>":7189,"manage</w>":7190,"carry</w>":7191,"Deccan</w>":7192,"checked</w>":7193,"background</w>":7194,"sales</w>":7195,"answers</w>":7196,"%20%":7197,"healthy</w>":7198,"good.</w>":7199,"depression</w>":7200,"graphy</w>":7201,"opportunity</w>":7202,"female</w>":7203,"teachers</w>":7204,"Jharkhand</w>":7205,"undreds</w>":7206,"Ben":7207,"CP":7208,"Gur":7209,"Jav":7210,"Sum":7211,"VE</w>":7212,"eth":7213,"ier</w>":7214,"l.</w>":7215,"t)</w>":7216,"ers?</w>":7217,"didat":7218,"itation</w>":7219,"elines</w>":7220,"let's</w>":7221,"lots</w>":7222,"door</w>":7223,"prefer</w>":7224,"Mob":7225,"applied</w>":7226,"Acc":7227,"cultural</w>":7228,"inten":7229,"Rajya</w>":7230,"random</w>":7231,"direct</w>":7232,"ilities</w>":7233,"followed</w>":7234,"IAS</w>":7235,"sleep</w>":7236,"modi</w>":7237,"Group</w>":7238,"CJ":7239,"She":7240,"VP</w>":7241,"Vod":7242,"lying</w>":7243,"mail":7244,"waste</w>":7245,"erg":7246,"onds</w>":7247,"shown</w>":7248,"agend":7249,"sump":7250,"figu":7251,"weak":7252,"joining</w>":7253,"tegr":7254,"you?</w>":7255,"persons</w>":7256,"Death</w>":7257,"descri":7258,"curious</w>":7259,"pick</w>":7260,"seeking</w>":7261,"tive.</w>":7262,"personally</w>":7263,"dden</w>":7264,"Sitharam":7265,"where":7266,"wrong.</w>":7267,"pursue</w>":7268,"conversation</w>":7269,"Source:</w>":7270,"27</w>":7271,"60</w>":7272,"See":7273,"billion</w>":7274,"core</w>":7275,"jail</w>":7276,"s](https://www.":7277,"tal</w>":7278,"utions</w>":7279,"ना":7280,"tive":7281,"atleast</w>":7282,"adop":7283,"me?</w>":7284,"meant</w>":7285,"parliam":7286,"guy":7287,"joined</w>":7288,"brand</w>":7289,"pro</w>":7290,"state.</w>":7291,"fun</w>":7292,"obviously</w>":7293,"detention</w>":7294,"Maharashtra":7295,"approach</w>":7296,"techn":7297,"THE":7298,"campus</w>":7299,"Source</w>":7300,"management</w>":7301,"Class</w>":7302,"Economic</w>":7303,"welcome</w>":7304,"himself</w>":7305,"Aadhaar</w>":7306,"efforts</w>":7307,"hru</w>":7308,"tweets</w>":7309,"Shot</w>":7310,"Chandr":7311,"gotten</w>":7312,"amazon.in/":7313,"LO":7314,"Lad":7315,"bad":7316,"band":7317,"cow</w>":7318,"e_":7319,"e’s</w>":7320,"edit":7321,"li</w>":7322,"ning.</w>":7323,"q=":7324,"rant</w>":7325,"won</w>":7326,"wis":7327,"one-":7328,"tier</w>":7329,"stop":7330,"div":7331,"items</w>":7332,"loss</w>":7333,"uddin</w>":7334,"indic":7335,"monit":7336,"pper</w>":7337,"web</w>":7338,"faced</w>":7339,"offers</w>":7340,"Tru":7341,"courses</w>":7342,"migrant</w>":7343,"delhi</w>":7344,"messages</w>":7345,"valu":7346,"Sharma</w>":7347,"favour":7348,"/status/123":7349,"leaving</w>":7350,"Germany</w>":7351,"Year</w>":7352,"Flipkart</w>":7353,"Agr":7354,"Back":7355,"Care":7356,"Due</w>":7357,"Temple</w>":7358,"UN</w>":7359,"far":7360,"fle":7361,"gain</w>":7362,"jay":7363,"km</w>":7364,"ners</w>":7365,"ol</w>":7366,"pil":7367,"slow</w>":7368,"aring</w>":7369,"agno":7370,"neutr":7371,"projec":7372,"hir</w>":7373,"2017</w>":7374,"brain":7375,"talks</w>":7376,"doctor":7377,"Explain":7378,"COVID19</w>":7379,"speech":7380,"eyes</w>":7381,"confer":7382,"claimed</w>":7383,"Look</w>":7384,"kinda</w>":7385,"platform</w>":7386,"====":7387,"[P]</w>":7388,"potential</w>":7389,"Jamaat</w>":7390,"Never</w>":7391,"Pur":7392,"Tele":7393,"Won":7394,"caught</w>":7395,"found":7396,"pha":7397,"s**</w>":7398,"tack":7399,"zation</w>":7400,"enough":7401,"compar":7402,"neither</w>":7403,"que":7404,"imposed</w>":7405,"viral</w>":7406,"Nehru</w>":7407,"speed</w>":7408,"exten":7409,"seek</w>":7410,"hoping</w>":7411,"conflic":7412,"named</w>":7413,"Nirmala</w>":7414,"Great</w>":7415,"Dalit</w>":7416,"sanitiz":7417,"Bomb":7418,"Made</w>":7419,"Meet</w>":7420,"Pay</w>":7421,"sale</w>":7422,"thro":7423,"stock</w>":7424,"haps</w>":7425,"Ind":7426,"pro-":7427,"projects</w>":7428,"aps</w>":7429,"ented</w>":7430,"plus</w>":7431,"feed</w>":7432,"so.</w>":7433,"anything.</w>":7434,"ashing</w>":7435,"hati</w>":7436,"candidat":7437,"According</w>":7438,"alised</w>":7439,"United</w>":7440,"streets</w>":7441,"delivered</w>":7442,"burning</w>":7443,"supporters</w>":7444,"Recently</w>":7445,"identity</w>":7446,"Can't</w>":7447,"distancing</w>":7448,"constitutional</w>":7449,"Hinduism</w>":7450,"centre</w>":7451,"Asian</w>":7452,"effort</w>":7453,"significant</w>":7454,"husband</w>":7455,"houses</w>":7456,"piece</w>":7457,"keeps</w>":7458,")\"</w>":7459,"2/":7460,"Back</w>":7461,"Job":7462,"Kal":7463,"festiv":7464,"jun":7465,"nav":7466,"pel":7467,"s?":7468,"sold</w>":7469,"tele":7470,"ul</w>":7471,"tho":7472,"thank</w>":7473,"liv":7474,"Instead</w>":7475,"unless</w>":7476,"ound.</w>":7477,"images</w>":7478,"minority</w>":7479,"somehow</w>":7480,"Reaction</w>":7481,"credi":7482,"Trump":7483,"Dec</w>":7484,"Once</w>":7485,"economic":7486,"fair":7487,"studies</w>":7488,"topic</w>":7489,"Amendment":7490,"Question</w>":7491,"corruption</w>":7492,"House</w>":7493,"figure</w>":7494,"Afghanistan</w>":7495,"04":7496,"77":7497,"Che":7498,"God</w>":7499,"OR</w>":7500,"Stop</w>":7501,"Year":7502,"cant</w>":7503,"cast</w>":7504,"cards</w>":7505,"e!</w>":7506,"ps.</w>":7507,"turing</w>":7508,"western</w>":7509,"ony</w>":7510,"it-":7511,"else":7512,"accur":7513,"Thou":7514,"should":7515,"ago.</w>":7516,"six</w>":7517,"tted</w>":7518,"ums</w>":7519,"tionally</w>":7520,"helps</w>":7521,"costs</w>":7522,"alled</w>":7523,"ashes</w>":7524,"putting</w>":7525,"dru":7526,"Def":7527,"Ask":7528,"officers</w>":7529,"governments</w>":7530,"targe":7531,"hurt</w>":7532,"muslims</w>":7533,"systems</w>":7534,"enjoy</w>":7535,"increasing</w>":7536,"Australia</w>":7537,"establish":7538,"Lucknow</w>":7539,"abinet</w>":7540,"Ajit</w>":7541,"Maj":7542,"mechan":7543,"s;</w>":7544,"illeg":7545,"riot":7546,"le-":7547,"isc":7548,"come.</w>":7549,"near":7550,"plain</w>":7551,"clari":7552,"cover":7553,"strateg":7554,"famous</w>":7555,"issue.</w>":7556,"won’t</w>":7557,"traveling</w>":7558,"require</w>":7559,"privile":7560,"broad":7561,"touch</w>":7562,"Bengaluru":7563,"natural</w>":7564,"totally</w>":7565,"imgur.com/a/":7566,"crowd</w>":7567,"WHO</w>":7568,"Kamra</w>":7569,"dangerous</w>":7570,"purchase</w>":7571,"=1&":7572,"grocer":7573,"03":7574,"Gang":7575,"HA":7576,"Jud":7577,"Ret":7578,"Tot":7579,"Use</w>":7580,"gy":7581,"kh":7582,"स्":7583,"ार</w>":7584,"reached</w>":7585,"stom":7586,"stood</w>":7587,"had":7588,"dev":7589,"deter":7590,"anger</w>":7591,"India)</w>":7592,"Chann":7593,"veget":7594,"Notification</w>":7595,"crime</w>":7596,"critical</w>":7597,"whom</w>":7598,"border</w>":7599,"capital</w>":7600,"Student</w>":7601,"planned</w>":7602,"Whatsapp</w>":7603,"constitution</w>":7604,"announced</w>":7605,"balance</w>":7606,"hasn't</w>":7607,"Register</w>":7608,"++++":7609,"corporate</w>":7610,"injured</w>":7611,"individuals</w>":7612,"65":7613,"89":7614,"FR":7615,"Ital":7616,"Journ":7617,"Mish":7618,"cell</w>":7619,"ko</w>":7620,"mann":7621,"p=":7622,"taught</w>":7623,"~~":7624,"ant.</w>":7625,"ers-":7626,"argu":7627,"en-":7628,"act":7629,"accid":7630,"tion:</w>":7631,"Anal":7632,"scale</w>":7633,"teach</w>":7634,"linked</w>":7635,"biased</w>":7636,"newsp":7637,"fund":7638,"removed</w>":7639,"birth":7640,"graduate</w>":7641,"implemented</w>":7642,"classes</w>":7643,"modern</w>":7644,"afford</w>":7645,"Noida</w>":7646,"infrastructure</w>":7647,"College</w>":7648,"300</w>":7649,"Pati":7650,"Thak":7651,"cod":7652,"sort":7653,"wer":7654,"ina</w>":7655,"anted</w>":7656,"reven":7657,"tim</w>":7658,"tified</w>":7659,"hair</w>":7660,"degre":7661,"side.</w>":7662,"seat</w>":7663,"tured</w>":7664,"anywhere</w>":7665,"ther's</w>":7666,"cros":7667,"holding</w>":7668,"announc":7669,"jpg?width=":7670,"prepared</w>":7671,"construction</w>":7672,"Jaipur</w>":7673,"SO":7674,"Yad":7675,"fast":7676,"gender</w>":7677,"jour":7678,"nu":7679,"pjpg":7680,"than":7681,"er)</w>":7682,"review":7683,"about":7684,"comfort":7685,"verse</w>":7686,"do-":7687,"count</w>":7688,"coff":7689,"2014</w>":7690,"understand":7691,"2020:</w>":7692,"standard</w>":7693,"country?</w>":7694,"industri":7695,"charac":7696,"launched</w>":7697,"liberal</w>":7698,"&format=pjpg":7699,"Malay":7700,"convince</w>":7701,"switch</w>":7702,"draw</w>":7703,"&format=pjpg&auto=webp&s=":7704,"IN</w>":7705,"Win":7706,"िय":7707,"onym":7708,"release</w>":7709,"demon":7710,"train":7711,"track":7712,"predic":7713,"somewhere</w>":7714,"ills</w>":7715,"served</w>":7716,"firm</w>":7717,"night":7718,"reduce</w>":7719,"Political</w>":7720,"Comment</w>":7721,"frequ":7722,"Quarant":7723,"Govt.</w>":7724,"same.</w>":7725,"leaves</w>":7726,"imagine</w>":7727,"fortunately</w>":7728,"society.</w>":7729,"Vodaf":7730,"&q":7731,"5th</w>":7732,"bunch</w>":7733,"din":7734,"mumb":7735,"vent</w>":7736,"on?</w>":7737,"ita</w>":7738,"ely.</w>":7739,"dogs</w>":7740,"contr":7741,"cil</w>":7742,"entary</w>":7743,"ground":7744,"ill-":7745,"Mean":7746,"that?</w>":7747,"extended</w>":7748,"refused</w>":7749,"fucked</w>":7750,"region</w>":7751,"migrants</w>":7752,"See</w>":7753,"CAA/":7754,"democratic</w>":7755,"financi":7756,"camera</w>":7757,"opened</w>":7758,"i.imgur.com/":7759,"express.com/":7760,"ABVP</w>":7761,"lawyer</w>":7762,"doubt</w>":7763,"minimum</w>":7764,"scenario</w>":7765,"comfortable</w>":7766,"5)</w>":7767,"8.":7768,"?q=":7769,"IM</w>":7770,"Mam":7771,"Sad":7772,"cup":7773,"corona":7774,"cous":7775,"dum":7776,"gin":7777,"ian</w>":7778,"yo</w>":7779,"alo":7780,"rid":7781,"pod":7782,"shou":7783,"shel":7784,"aving</w>":7785,"virus.</w>":7786,"tual</w>":7787,"commis":7788,"feel":7789,"fies</w>":7790,"mins</w>":7791,"athy</w>":7792,"Under":7793,"freel":7794,"register</w>":7795,"hypo":7796,"Herald</w>":7797,"other.</w>":7798,"Someone</w>":7799,"raising</w>":7800,"prepare</w>":7801,"Hotstar":7802,"environment</w>":7803,"rupees</w>":7804,"specifically</w>":7805,"!!":7806,".in</w>":7807,"07":7808,"59":7809,"MO":7810,"MC</w>":7811,"NL</w>":7812,"Tre":7813,"bod":7814,"ko":7815,"path</w>":7816,"yo":7817,"reviews</w>":7818,"style</w>":7819,"live":7820,"pover":7821,"consequ":7822,"spon":7823,"tioning</w>":7824,"dating</w>":7825,"matters</w>":7826,"leads</w>":7827,"Love</w>":7828,"Civil</w>":7829,"voting</w>":7830,"childh":7831,"circ":7832,"lawyers</w>":7833,"isolation</w>":7834,"alternative</w>":7835,"communities</w>":7836,"Banerjee</w>":7837,"straight</w>":7838,"Mobile</w>":7839,"AP":7840,"CS</w>":7841,"Je":7842,"Mand":7843,"Mr.</w>":7844,"a’s</w>":7845,"bs</w>":7846,"pis":7847,"push":7848,"tend</w>":7849,"रा":7850,"inated</w>":7851,"aro":7852,"army</w>":7853,"opho":7854,"progres":7855,"motiv":7856,"exact</w>":7857,"civili":7858,"grad":7859,"Review</w>":7860,"religions</w>":7861,"vention</w>":7862,"equi":7863,"equip":7864,"caused</w>":7865,"spot</w>":7866,"%20OR":7867,"residents</w>":7868,"arguments</w>":7869,"frustr":7870,"awareness</w>":7871,"%20%40":7872,"%20OR%20%40":7873,"5.":7874,"AP</w>":7875,"Dri":7876,"Fake</w>":7877,"Mun":7878,"SE</w>":7879,"Sel":7880,"Say</w>":7881,"Spec":7882,"UT":7883,"a.":7884,"male</w>":7885,"s](https://":7886,"ted":7887,"angry</w>":7888,"ons.</w>":7889,"hats</w>":7890,"lived</w>":7891,"aces</w>":7892,"ric</w>":7893,"advis":7894,"hatred</w>":7895,"bringing</w>":7896,"proud</w>":7897,"lah</w>":7898,"Although</w>":7899,"talked</w>":7900,"changing</w>":7901,"breaking</w>":7902,"who's</w>":7903,"Priy":7904,"myself.</w>":7905,"alized</w>":7906,"increased</w>":7907,"Study</w>":7908,"denied</w>":7909,"photo</w>":7910,"entered</w>":7911,"things.</w>":7912,"disha</w>":7913,"teacher</w>":7914,"View</w>":7915,"Kapil</w>":7916,"Cases</w>":7917,"Mor":7918,"Mic":7919,"UC":7920,"kit":7921,"lay":7922,"wage</w>":7923,"y!</w>":7924,"thes":7925,"inem":7926,"inely</w>":7927,"oud":7928,"terror</w>":7929,"worry</w>":7930,"essor</w>":7931,"march</w>":7932,"entilat":7933,"bigo":7934,"reliable</w>":7935,"Pras":7936,"subject</w>":7937,"chain</w>":7938,"strike</w>":7939,"experienced</w>":7940,"solve</w>":7941,"intel":7942,"CAA.</w>":7943,"Joh":7944,"owners</w>":7945,"MLAs</w>":7946,"tickets</w>":7947,"School</w>":7948,"Issu":7949,"city/":7950,"criminal</w>":7951,"Power</w>":7952,"whatsapp</w>":7953,"Nirbhaya</w>":7954,"Dar":7955,"ES</w>":7956,"Fol":7957,"GP":7958,"fb":7959,"fail</w>":7960,"none</w>":7961,"p-":7962,"yet.</w>":7963,"ों</w>":7964,"er/":7965,"rejected</w>":7966,"alli":7967,"ity?</w>":7968,"nobody</w>":7969,"len</w>":7970,"atish</w>":7971,"shit.</w>":7972,"pre-":7973,"tically</w>":7974,"ref=":7975,"2019:</w>":7976,"possible.</w>":7977,"Donald</w>":7978,"claiming</w>":7979,"ence?</w>":7980,"icken</w>":7981,"Finally</w>":7982,"benefit</w>":7983,"eventually</w>":7984,"achiev":7985,"/view":7986,"29</w>":7987,"BI":7988,"CR":7989,"Cy":7990,"Mangal":7991,"Pak</w>":7992,"Tra":7993,"den</w>":7994,"jid</w>":7995,"mar</w>":7996,"utive</w>":7997,"~~</w>":7998,"rement</w>":7999,"ora</w>":8000,"al/":8001,"aler":8002,"amed</w>":8003,"ded":8004,"trains</w>":8005,"ters.</w>":8006,"cot":8007,"2017":8008,"reddi":8009,"Super":8010,"military</w>":8011,"ishes</w>":8012,"helped</w>":8013,"broken</w>":8014,"future.</w>":8015,"Tuk</w>":8016,"denly</w>":8017,"managed</w>":8018,"Finance</w>":8019,"Muslims.</w>":8020,"Singh":8021,"Adityanath</w>":8022,"blocking</w>":8023,"Sitharaman</w>":8024,"ED</w>":8025,"Pul":8026,"SBI</w>":8027,"_1":8028,"brow":8029,"con</w>":8030,"city.</w>":8031,"fresh</w>":8032,"nur":8033,"rum":8034,"sin":8035,"en's</w>":8036,"stones</w>":8037,"bel</w>":8038,"indly</w>":8039,"upload":8040,"interview":8041,"context</w>":8042,"attend</w>":8043,"miss</w>":8044,"locked</w>":8045,"194":8046,"Mahat":8047,"file/":8048,"ignore</w>":8049,"Feb</w>":8050,"sleep":8051,"from-":8052,"immediate</w>":8053,"package</w>":8054,"independent</w>":8055,"disease</w>":8056,"powerful</w>":8057,"communication</w>":8058,"&qid=":8059,"CBS":8060,"EV":8061,"Lab":8062,"OF</w>":8063,"SS":8064,"Sk":8065,"TO</w>":8066,"bar</w>":8067,"climate</w>":8068,"e.":8069,"ni</w>":8070,"xy":8071,"मा":8072,"anci":8073,"oring</w>":8074,"ords</w>":8075,"alco":8076,"although</w>":8077,"ashi":8078,"log</w>":8079,"Three</w>":8080,"apart</w>":8081,"plastic</w>":8082,"toil":8083,"uting</w>":8084,"hot</w>":8085,"faces</w>":8086,"crack":8087,"apparently</w>":8088,"design</w>":8089,"knowing</w>":8090,"pects</w>":8091,"truly</w>":8092,"added</w>":8093,"Help":8094,"digar":8095,"target</w>":8096,"implement</w>":8097,"Mumbai:</w>":8098,"retary</w>":8099,"Speak</w>":8100,"photos</w>":8101,"Services</w>":8102,"horri":8103,"Remember</w>":8104,"Kanhai":8105,"vehicle</w>":8106,"fascist</w>":8107,"EDIT":8108,"victims</w>":8109,"indianexpress.com/":8110,"CJI</w>":8111,"-for-":8112,"Cle":8113,"LY</w>":8114,"Mem":8115,"Western</w>":8116,"block</w>":8117,"eb":8118,"gas</w>":8119,"lady</w>":8120,"mir":8121,"mail</w>":8122,"ored</w>":8123,"ts?</w>":8124,"wake</w>":8125,"वा":8126,"है</w>":8127,"ties":8128,"arak":8129,"road.</w>":8130,"ney":8131,"propor":8132,"spr":8133,"plom":8134,"metro</w>":8135,"fee</w>":8136,"weird</w>":8137,"offered</w>":8138,"Prof":8139,"protests.</w>":8140,"nations</w>":8141,"ideo":8142,"ideology</w>":8143,"Ask</w>":8144,"[https://twitter.com/":8145,"Advice</w>":8146,"check":8147,"proced":8148,"gaon</w>":8149,"profile</w>":8150,"screen</w>":8151,"pension</w>":8152,"Curren":8153,"Pandem":8154,"bigger</w>":8155,"constantly</w>":8156,"Distric":8157,"Lawy":8158,"Serious":8159,"fficient</w>":8160,"applying</w>":8161,"timesofindia.indiatimes.com/":8162,"74":8163,"Jay":8164,"Kha":8165,"List":8166,"Odisha</w>":8167,"Press</w>":8168,"Rus":8169,"War</w>":8170,"past":8171,"wali":8172,"कर":8173,"alty</w>":8174,"ols</w>":8175,"aks</w>":8176,"pet</w>":8177,"condem":8178,"grade</w>":8179,"2016</w>":8180,"Gogo":8181,"cryp":8182,"everywhere</w>":8183,"Dear</w>":8184,"lyn":8185,"treat</w>":8186,"broke</w>":8187,"dream</w>":8188,"Covid-19":8189,"reporting</w>":8190,"advant":8191,"ship.</w>":8192,"Kejriwal":8193,"circul":8194,"्या":8195,"accepted</w>":8196,"d/1":8197,"persecution</w>":8198,"smart":8199,"Islamic</w>":8200,"transparen":8201,"Railways</w>":8202,"heavy</w>":8203,"battle</w>":8204,"Important</w>":8205,"Priyanka</w>":8206,"1:</w>":8207,"300":8208,"6)</w>":8209,"=new":8210,"Sil":8211,"Wa":8212,"_in":8213,"ato</w>":8214,"by":8215,"barely</w>":8216,"fan</w>":8217,"ghal":8218,"kashm":8219,"satis":8220,"ongoing</w>":8221,"usp=":8222,"thehindu":8223,"computer</w>":8224,"posit":8225,"tery</w>":8226,"exclud":8227,"ciary</w>":8228,"quit</w>":8229,"quick</w>":8230,"tox":8231,"porn</w>":8232,"missed</w>":8233,"case:</w>":8234,"grew</w>":8235,"victim</w>":8236,"small":8237,"carrying</w>":8238,"market":8239,"Manag":8240,"English":8241,"Join</w>":8242,"manager</w>":8243,"amazing</w>":8244,"amazon</w>":8245,"Mumbai.</w>":8246,"infection</w>":8247,"cancelled</w>":8248,"collection</w>":8249,"masters</w>":8250,"gang</w>":8251,"Human</w>":8252,"professional</w>":8253,"Left</w>":8254,"Jobs</w>":8255,"Gop":8256,"SP":8257,"Tik":8258,"vul":8259,"ना</w>":8260,"integr":8261,"one?</w>":8262,"haz":8263,"right.</w>":8264,"beating</w>":8265,"tton</w>":8266,"ents.</w>":8267,"hic</w>":8268,"quar":8269,"anymore.</w>":8270,"hol</w>":8271,"hotel</w>":8272,"Story</w>":8273,"Arn":8274,"pradesh":8275,"nowledge</w>":8276,"of_":8277,"critici":8278,"ota</w>":8279,"submit</w>":8280,"amp/":8281,"published</w>":8282,"files/":8283,"demands</w>":8284,"account.</w>":8285,"causing</w>":8286,"Islam</w>":8287,"practice</w>":8288,"terrorist</w>":8289,"rics</w>":8290,"today's</w>":8291,"link**](https://":8292,"Samsung</w>":8293,"analy":8294,"struggle</w>":8295,"opportuni":8296,"NDTV</w>":8297,"YOU</w>":8298,"Migr":8299,"mosque</w>":8300,"Chandigar":8301,"Affairs</w>":8302,"perspective</w>":8303,"suspended</w>":8304,"compet":8305,"DN":8306,"DO":8307,"Far":8308,"Men</w>":8309,"Sr":8310,"Tou":8311,"hil":8312,"sac":8313,"session</w>":8314,"vand":8315,"st?</w>":8316,"dir":8317,"istic</w>":8318,"sud":8319,"ults</w>":8320,"express</w>":8321,"updated</w>":8322,"bution</w>":8323,"medium":8324,"Produc":8325,"desper":8326,"downs</w>":8327,"frame":8328,"soldi":8329,"possibly</w>":8330,"cars</w>":8331,"polls</w>":8332,"either.</w>":8333,"distance</w>":8334,"otherwise</w>":8335,"Today":8336,"Doctors</w>":8337,"incidents</w>":8338,"favor":8339,"2-3</w>":8340,"survive</w>":8341,"genuine</w>":8342,"collect</w>":8343,"certificate</w>":8344,"Sugges":8345,"(in</w>":8346,".0":8347,"AC</w>":8348,"Dub":8349,"EE</w>":8350,"Keep</w>":8351,"Krish":8352,"Next</w>":8353,"Over":8354,"Smar":8355,"Twee":8356,"War":8357,"__":8358,"da":8359,"grow</w>":8360,"h.</w>":8361,"ker":8362,"pain</w>":8363,"push</w>":8364,"sounds</w>":8365,"tv</w>":8366,"ton</w>":8367,"zero</w>":8368,"प्र":8369,"an's</w>":8370,"enforc":8371,"esday</w>":8372,"rists</w>":8373,"Indu":8374,"theast</w>":8375,"aked</w>":8376,"uled</w>":8377,"pse</w>":8378,"India]</w>":8379,"away.</w>":8380,"harm</w>":8381,"minor</w>":8382,"stic</w>":8383,"trigg":8384,"shif":8385,"secre":8386,"sides</w>":8387,"you!</w>":8388,"case.</w>":8389,"didn’t</w>":8390,"Work</w>":8391,"provides</w>":8392,"eye</w>":8393,"consider":8394,"damage</w>":8395,"document</w>":8396,"Both</w>":8397,"controll":8398,"labour":8399,"100%</w>":8400,"scene</w>":8401,"copy</w>":8402,"program</w>":8403,"activities</w>":8404,"्या</w>":8405,"displ":8406,"realise</w>":8407,"beginning</w>":8408,"/04/2020|-|-|-|-|Hospitalized|Details</w>":8409,"Population</w>":8410,"Anurag</w>":8411,"drive.google.com/file/":8412,"Ladak":8413,"):</w>":8414,"?)</w>":8415,"?usp=":8416,"Baj":8417,"Dhar":8418,"Emer":8419,"Milli":8420,"PI":8421,"athe":8422,"gang":8423,"iPhone</w>":8424,"min</w>":8425,"entry</w>":8426,"ors.</w>":8427,"rier</w>":8428,"comfor":8429,"training</w>":8430,"setting</w>":8431,"ods</w>":8432,"quick":8433,"earch</w>":8434,"India-":8435,"clin":8436,"fix</w>":8437,"Requ":8438,"bran":8439,"Commission</w>":8440,"religion.</w>":8441,"files</w>":8442,"experience.</w>":8443,"buses</w>":8444,"travel":8445,"walking</w>":8446,"reddit.com/r/india/search":8447,"Auth":8448,"appear</w>":8449,"begin</w>":8450,"restrict_":8451,"effective</w>":8452,"Visit</w>":8453,"committed</w>":8454,"railway</w>":8455,"guidelines</w>":8456,"genuinely</w>":8457,"perfect</w>":8458,"refugees</w>":8459,"declared</w>":8460,"sort=new":8461,"Kanhaiya</w>":8462,"restrict_sr":8463,"&utm_":8464,"-and-":8465,"Card</w>":8466,"Hus":8467,"Ir":8468,"Must</w>":8469,"NT":8470,"Ok":8471,"falls</w>":8472,"gate</w>":8473,"games</w>":8474,"ho</w>":8475,"mic":8476,"sending</w>":8477,"va":8478,"wil":8479,"zam":8480,"क्":8481,"indo":8482,"refund</w>":8483,"omato</w>":8484,"lie</w>":8485,"icip":8486,"defe":8487,"proposed</w>":8488,"exist</w>":8489,"ourselves</w>":8490,"board":8491,"Real</w>":8492,"formed</w>":8493,"Arre":8494,"Note</w>":8495,"protest.</w>":8496,"surg":8497,"remains</w>":8498,"post.</w>":8499,"download</w>":8500,"friendly</w>":8501,"pical</w>":8502,"helpful</w>":8503,"universities</w>":8504,"flights</w>":8505,"ruling</w>":8506,"Former</w>":8507,"muslim":8508,"right?</w>":8509,"where.</w>":8510,"particul":8511,"41.jpg?width=":8512,"brutality</w>":8513,"70</w>":8514,"Camp":8515,"Fl":8516,"Gan":8517,"Mast":8518,"Mani":8519,"Nar":8520,"Tata</w>":8521,"Vill":8522,"Yet</w>":8523,"cd":8524,"cks</w>":8525,"जा":8526,"encies</w>":8527,"esome</w>":8528,"estim":8529,"acity</w>":8530,"user</w>":8531,"isn’t</w>":8532,"sia</w>":8533,"older</w>":8534,"suffer</w>":8535,"**:</w>":8536,"essed</w>":8537,"cancel</w>":8538,"Department</w>":8539,"turns</w>":8540,"ly?</w>":8541,"relati":8542,"fault</w>":8543,"cuts</w>":8544,"Discor":8545,"ishing</w>":8546,"2019-":8547,"2019)</w>":8548,"signed</w>":8549,"privac":8550,"Bihar":8551,"appropri":8552,"Road</w>":8553,"others.</w>":8554,"Reddit":8555,"Update</w>":8556,"darity</w>":8557,"finds</w>":8558,"Tax</w>":8559,"updates</w>":8560,"college.</w>":8561,"analysis</w>":8562,"bhakts</w>":8563,"surprised</w>":8564,"feedback</w>":8565,"successful</w>":8566,"facebook":8567,"CAA-NRC</w>":8568,"Ambedkar</w>":8569,"Education</w>":8570,"technical</w>":8571,"35</w>":8572,"80</w>":8573,"Celebr":8574,"DM</w>":8575,"Non-":8576,"squ":8577,"yal</w>":8578,"diagno":8579,"itarian</w>":8580,"no-":8581,"abad.</w>":8582,"demone":8583,"shop":8584,"chem":8585,"sust":8586,"for.</w>":8587,"evening</w>":8588,"\"\"Tuk</w>":8589,"fees</w>":8590,"audi":8591,"contain</w>":8592,"](https://www.amazon.in/":8593,"Politics</w>":8594,"athi</w>":8595,"mpi":8596,"Quint</w>":8597,"panic</w>":8598,"Protesters</w>":8599,"identified</w>":8600,"holds</w>":8601,"Muk":8602,"Everything</w>":8603,"Aadhar</w>":8604,"German</w>":8605,"benefits</w>":8606,"persecuted</w>":8607,"dealing</w>":8608,"resolution</w>":8609,"Leader</w>":8610,"tuk?\"\"</w>":8611,"exercise</w>":8612,"extreme</w>":8613,"conveni":8614,"Total</w>":8615,"Hotstar!</w>":8616,"01":8617,"5%</w>":8618,"Afri":8619,"Call</w>":8620,"Down":8621,"Fur":8622,"Paren":8623,"Sof":8624,"blog":8625,"cold</w>":8626,"f-":8627,"jp</w>":8628,"nar":8629,"rural</w>":8630,"tag":8631,"ts:</w>":8632,"ud</w>":8633,"vement</w>":8634,"को</w>":8635,"है":8636,"throw</w>":8637,"ones.</w>":8638,"ison</w>":8639,"department</w>":8640,"go.</w>":8641,"ood":8642,"gif":8643,"end.</w>":8644,"rape":8645,"minut":8646,"weap":8647,"wigg":8648,"brands</w>":8649,"pray":8650,"gging</w>":8651,"lowing</w>":8652,"nationwide</w>":8653,"children":8654,"safe":8655,"personnel</w>":8656,"Don’t</w>":8657,"girlfriend</w>":8658,"cycle</w>":8659,"google</w>":8660,"screen":8661,"camer":8662,"greater</w>":8663,"Questions</w>":8664,"notes</w>":8665,"advice":8666,"independence</w>":8667,"July</w>":8668,"Travel</w>":8669,"appointed</w>":8670,"Development</w>":8671,"episode</w>":8672,"circum":8673,"Currently</w>":8674,"'t.</w>":8675,"AG":8676,"Ah":8677,"A)</w>":8678,"Had</w>":8679,"Holi</w>":8680,"Mir":8681,"OT":8682,"PF</w>":8683,"Sto":8684,"Still</w>":8685,"Very</w>":8686,"aad":8687,"cr</w>":8688,"cool</w>":8689,"oes</w>":8690,"——":8691,"resident</w>":8692,"stal":8693,"dicul":8694,"escap":8695,"liqu":8696,"whenever</w>":8697,"the_":8698,"oppose</w>":8699,"poll</w>":8700,"dead":8701,"witness":8702,"ounding</w>":8703,"2000":8704,"prehen":8705,"porting</w>":8706,"Ann":8707,"Andro":8708,"guil":8709,"cop</w>":8710,"box</w>":8711,"booking</w>":8712,"cricket</w>":8713,"certain":8714,"invest</w>":8715,"Disney":8716,"seeks</w>":8717,"JNU":8718,"Fire</w>":8719,"Security</w>":8720,"We're</w>":8721,"returned</w>":8722,"America</w>":8723,"tempor":8724,"ticket</w>":8725,"journalist</w>":8726,"journalists</w>":8727,"Hotstar</w>":8728,"recognition</w>":8729,"Brah":8730,"preparing</w>":8731,"87":8732,"97":8733,"Sou":8734,"Show</w>":8735,"Such</w>":8736,"UL":8737,"Uber</w>":8738,"Years</w>":8739,"bes</w>":8740,"base</w>":8741,"cking</w>":8742,"non":8743,"s!":8744,"ved.</w>":8745,"anonym":8746,"on:</w>":8747,"Independ":8748,"le/":8749,"amp</w>":8750,"among":8751,"poor":8752,"she":8753,"sured</w>":8754,"god</w>":8755,"se?</w>":8756,"ported</w>":8757,"scoo":8758,"****":8759,"weight</w>":8760,"ve?</w>":8761,"media.</w>":8762,"twice</w>":8763,"curfew</w>":8764,"india.</w>":8765,"195":8766,"news.</w>":8767,"tivity</w>":8768,"generally</w>":8769,"passes</w>":8770,"rism</w>":8771,"listening</w>":8772,"Money</w>":8773,"failure</w>":8774,"Rights</w>":8775,"celebrate</w>":8776,"Nagar</w>":8777,"scription</w>":8778,"online.</w>":8779,"realized</w>":8780,"Himachal</w>":8781,"Personal</w>":8782,"passengers</w>":8783,"sports</w>":8784,"European</w>":8785,"Bombay</w>":8786,"1%</w>":8787,"Bill":8788,"Fasc":8789,"Lord</w>":8790,"One":8791,"Rest":8792,"Sud":8793,"Tl":8794,"Us</w>":8795,"Valle":8796,"Yester":8797,"[Ask":8798,"aun":8799,"bra":8800,"dp/":8801,"hu</w>":8802,"tough</w>":8803,"ution.</w>":8804,"का":8805,"thi</w>":8806,"thank":8807,"ano":8808,"aling</w>":8809,"Institute</w>":8810,"Thr":8811,"de-":8812,"chose</w>":8813,"goons</w>":8814,"mohan</w>":8815,"Anim":8816,"weal":8817,"puri":8818,"asses</w>":8819,"assembly</w>":8820,"compens":8821,"missions</w>":8822,"alive</w>":8823,"question.</w>":8824,"ruit":8825,"discover":8826,"materi":8827,"Peti":8828,"india/story/":8829,"completed</w>":8830,"strict</w>":8831,"transfer":8832,"registration</w>":8833,"Plann":8834,"youtube</w>":8835,"dropped</w>":8836,"Web":8837,"Again</w>":8838,"Subscribe</w>":8839,"Asia</w>":8840,"CCTV</w>":8841,"Sikh</w>":8842,"institutions</w>":8843,".cms)</w>":8844,"seemed</w>":8845,"honestly</w>":8846,"classi":8847,"ergy</w>":8848,"Arnab</w>":8849,"suddenly</w>":8850,"2:</w>":8851,"6.":8852,"Bro":8853,"Fad":8854,"Farm":8855,"Ku":8856,"K.</w>":8857,"Mid":8858,"Sang":8859,"UT</w>":8860,"[News":8861,"click</w>":8862,"nom":8863,"s(":8864,"tm</w>":8865,"yan</w>":8866,"yas</w>":8867,"thi":8868,"anti":8869,"enem":8870,"itu":8871,"itable</w>":8872,"lett":8873,"amb":8874,"los":8875,"shu":8876,"premi":8877,"impossible</w>":8878,"ailed</w>":8879,"upcoming</w>":8880,"selec":8881,"thern</w>":8882,"secure</w>":8883,"pressed</w>":8884,"disgu":8885,"electron":8886,"black":8887,"Pakistan.</w>":8888,"countries.</w>":8889,"interests</w>":8890,"marketing</w>":8891,"graph</w>":8892,"arrest</w>":8893,"Soci":8894,"chances</w>":8895,"sistance</w>":8896,"i.e.</w>":8897,"Sangh":8898,"channel":8899,"Isra":8900,"trend</w>":8901,"experts</w>":8902,"discrimination</w>":8903,"Film</w>":8904,"MPs</w>":8905,"deserve</w>":8906,"throughout</w>":8907,"Basically</w>":8908,"ndtv":8909,"Vodafone</w>":8910,"Disney+</w>":8911,"6-":8912,"Bell</w>":8913,"C.</w>":8914,"Grow":8915,"PD":8916,"RO</w>":8917,"Rav":8918,"ball</w>":8919,"fing":8920,"hire</w>":8921,"hundreds</w>":8922,"khar</w>":8923,"rou":8924,"skill":8925,"vi</w>":8926,"सा":8927,"arity</w>":8928,"arily</w>":8929,"stated</w>":8930,"stori":8931,"at:</w>":8932,"asi</w>":8933,"asha":8934,"rig":8935,"why?</w>":8936,"admitted</w>":8937,"size</w>":8938,"pread</w>":8939,"scamm":8940,"ve:</w>":8941,"igno":8942,"off.</w>":8943,"offering</w>":8944,"decade</w>":8945,"stel</w>":8946,"turning</w>":8947,"pici":8948,"information.</w>":8949,"hope":8950,"production</w>":8951,"transmission</w>":8952,"major":8953,"50%</w>":8954,"below":8955,"tourist</w>":8956,"center</w>":8957,"requires</w>":8958,"ICM":8959,"ARE</w>":8960,"papers</w>":8961,"Current</w>":8962,"neighbor":8963,"challenge</w>":8964,"slowdown</w>":8965,"platforms</w>":8966,"animals</w>":8967,"Masjid</w>":8968,"Bhagat</w>":8969,"stores</w>":8970,"better.</w>":8971,"Movie</w>":8972,"valid</w>":8973,"clothes</w>":8974,"Italy</w>":8975,"Prasad</w>":8976,"Mahatma</w>":8977,"CBSE</w>":8978,"(Amendment":8979,"8)</w>":8980,"AF":8981,"AY</w>":8982,"Bhop":8983,"CH":8984,"HD</w>":8985,"Hit":8986,"NI":8987,"Telecom</w>":8988,"_of_":8989,"could":8990,"e=":8991,"hits</w>":8992,"kits</w>":8993,"last":8994,"laugh":8995,"nut":8996,"t’s</w>":8997,"ans.</w>":8998,"distr":8999,"note":9000,"urge</w>":9001,"am-":9002,"propos":9003,"contrac":9004,"ed)</w>":9005,"ulty</w>":9006,"exemp":9007,"percent":9008,"gun</w>":9009,"prior</w>":9010,"Going</w>":9011,"facilities</w>":9012,"igned</w>":9013,"support":9014,"Alleg":9015,"datab":9016,"with.</w>":9017,"person.</w>":9018,"Dep":9019,"currency</w>":9020,"material</w>":9021,"1.htm":9022,"limit</w>":9023,"ANI</w>":9024,"armed</w>":9025,"Job</w>":9026,"appeal</w>":9027,"Doctor</w>":9028,"Apple</w>":9029,"BSNL</w>":9030,"Cricket</w>":9031,"taxes</w>":9032,"conduct</w>":9033,"businesses</w>":9034,"policem":9035,"modi-":9036,"trouble</w>":9037,"startup</w>":9038,"connect</w>":9039,"decades</w>":9040,"Number</w>":9041,"Special</w>":9042,"[News]</w>":9043,"%.</w>":9044,"500":9045,"95</w>":9046,"Bar":9047,"Code</w>":9048,"DM":9049,"EM":9050,"Fuck</w>":9051,"Hal":9052,"Icon</w>":9053,"Rag":9054,"Rash":9055,"chat</w>":9056,"dol":9057,"ski":9058,"tex":9059,"want":9060,"would":9061,"thing?</w>":9062,"sters</w>":9063,"es'</w>":9064,"listed</w>":9065,"used.</w>":9066,"posite</w>":9067,"defaul":9068,"permission</w>":9069,"Anti</w>":9070,"score</w>":9071,"minute</w>":9072,"content":9073,"pression</w>":9074,"ments.</w>":9075,"Proble":9076,"Nothing</w>":9077,"you'll</w>":9078,"company":9079,"](https://www.reddit.com/":9080,"power.</w>":9081,"ception</w>":9082,"obvious</w>":9083,"busy</w>":9084,"develop</w>":9085,"passing</w>":9086,"moral</w>":9087,"deliver":9088,"distur":9089,"BJP.</w>":9090,"justify</w>":9091,"hindi</w>":9092,"success</w>":9093,"raises</w>":9094,"conducted</w>":9095,"historical</w>":9096,"Histor":9097,"](https://www.reddit.com/r/india/comments/d":9098,"shitty</w>":9099,"national/":9100,"conditions</w>":9101,"sumption</w>":9102,"economictimes":9103,"Channel.</w>":9104,"06":9105,":-</w>":9106,"CT":9107,"Cen":9108,"JEE</w>":9109,"Ly":9110,"NGO":9111,"Ow":9112,"Set":9113,"rs</w>":9114,"rant":9115,"rank":9116,"ventilat":9117,"ze":9118,"त्":9119,"ern":9120,"regre":9121,"statis":9122,"hack":9123,"dir</w>":9124,"rog":9125,"ride</w>":9126,"Indians":9127,"amy</w>":9128,"is:</w>":9129,"theat":9130,"nearly</w>":9131,"iding</w>":9132,"arett":9133,"tup</w>":9134,"cles</w>":9135,"boards</w>":9136,"marry</w>":9137,"craft</w>":9138,"drinking</w>":9139,"](https://www.hotstar.com/12600":9140,"](https://www.indiatoday.in/":9141,"bio":9142,"aths</w>":9143,"INR</w>":9144,"humans</w>":9145,"streaming</w>":9146,"Respon":9147,"burn</w>":9148,"equal</w>":9149,"specially</w>":9150,"[https://www.hotstar.com/12600":9151,"11/":9152,"Electri":9153,"Electoral</w>":9154,"quarantined</w>":9155,"arranged</w>":9156,"labor":9157,"together.</w>":9158,"Banglades":9159,"launch</w>":9160,"titude</w>":9161,"bag</w>":9162,"Contact</w>":9163,"neighbour":9164,"censor":9165,"Terror":9166,"COVID-19:</w>":9167,"realize</w>":9168,"Free":9169,"slogans</w>":9170,"Thakur</w>":9171,"Meanwhile</w>":9172,"poverty</w>":9173,".I</w>":9174,"41":9175,"8.</w>":9176,"BS</w>":9177,"PAN</w>":9178,"Rele":9179,"bac":9180,"glo":9181,"ke.</w>":9182,"south</w>":9183,"reti":9184,"attrac":9185,"Inf":9186,"no.</w>":9187,"shir":9188,"conserv":9189,"eding</w>":9190,"done.</w>":9191,"guys":9192,"-10":9193,"week.</w>":9194,"solutions</w>":9195,"handling</w>":9196,"dict":9197,"unique</w>":9198,"safe.</w>":9199,"law.</w>":9200,"flu":9201,"easier</w>":9202,"continues</w>":9203,"Good":9204,"wash</w>":9205,"tism</w>":9206,"Airport</w>":9207,"savings</w>":9208,"much.</w>":9209,"Country</w>":9210,"Tok</w>":9211,"Sanjay</w>":9212,"Uttarak":9213,"Despite</w>":9214,"citizenship.</w>":9215,"precau":9216,"Documents</w>":9217,"Satur":9218,"scheme</w>":9219,"apartment</w>":9220,"Career</w>":9221,"navis</w>":9222,"nearby</w>":9223,"vulner":9224,"opportunities</w>":9225,"02":9226,"45</w>":9227,"AQ":9228,"Cer":9229,"E-":9230,"Gho":9231,"Stu":9232,"Set</w>":9233,"Vic":9234,"[Serious":9235,"bal</w>":9236,"cut":9237,"lon":9238,"pa</w>":9239,"sa</w>":9240,"van":9241,"votes</w>":9242,"stance</w>":9243,"ality":9244,"itting</w>":9245,"ity-":9246,"ility.</w>":9247,"rice</w>":9248,"riot</w>":9249,"Tharo":9250,"dow</w>":9251,"idst</w>":9252,"weak</w>":9253,"selves.</w>":9254,"pric":9255,"ellec":9256,"draf":9257,"shan</w>":9258,"bili":9259,"casi":9260,"aze":9261,"worker</w>":9262,"signs</w>":9263,"studied</w>":9264,"wara</w>":9265,"deliver</w>":9266,"ika</w>":9267,"ools</w>":9268,"Open</w>":9269,"government's</w>":9270,"mainly</w>":9271,".html</w>":9272,"Health":9273,"nahi</w>":9274,"openly</w>":9275,"terrorists</w>":9276,"Nizam":9277,"implementation</w>":9278,"gathering</w>":9279,"violence:</w>":9280,"Engineering</w>":9281,"enough.</w>":9282,"Mamata</w>":9283,"Yesterday</w>":9284,"31st</w>":9285,"48</w>":9286,"5000</w>":9287,"AY":9288,"Cul":9289,"Cabinet</w>":9290,"Fight</w>":9291,"Gul":9292,"Hear":9293,"Pres":9294,"UR</w>":9295,"co</w>":9296,"d=":9297,"kh</w>":9298,"mal</w>":9299,"ped</w>":9300,"race</w>":9301,"s...</w>":9302,"का</w>":9303,"insul":9304,"argue</w>":9305,"roll</w>":9306,"elder":9307,"agu":9308,"petrol</w>":9309,"season</w>":9310,"consci":9311,"ent-":9312,"udi</w>":9313,"all-":9314,"hattis":9315,"lind</w>":9316,"Mahab":9317,"Shri</w>":9318,"issues.</w>":9319,"12/":9320,"Metro</w>":9321,"ministers</w>":9322,"direction</w>":9323,"damn</w>":9324,"Youtu":9325,"controversi":9326,"BJP’s</w>":9327,"11th</w>":9328,"runs</w>":9329,"owner</w>":9330,"favour</w>":9331,"played</w>":9332,"Give</w>":9333,"politician</w>":9334,"emergen":9335,"toler":9336,"struggling</w>":9337,"Europe</w>":9338,"distrib":9339,"anxiety</w>":9340,"administration</w>":9341,"candidates</w>":9342,"indianexpress.com/article/":9343,"?usp=shar":9344,"Valley</w>":9345,"Fadnavis</w>":9346,"7-":9347,"AR</w>":9348,"BE":9349,"DI</w>":9350,"Found":9351,"HR":9352,"Mul":9353,"OL":9354,"Trail":9355,"e\"\"</w>":9356,"h-":9357,"hec":9358,"ping</w>":9359,"ts/":9360,"telecom</w>":9361,"upper</w>":9362,"vend":9363,"हा":9364,"ही</w>":9365,"er’s</w>":9366,"resc":9367,"dic</w>":9368,"liked</w>":9369,"concept</w>":9370,"tered</w>":9371,"ests</w>":9372,"India!</w>":9373,"rap</w>":9374,"strang":9375,"Ref":9376,"shift</w>":9377,"Nobel</w>":9378,"draft</w>":9379,"placement</w>":9380,"cases-":9381,"surr":9382,"news-":9383,"Exclusi":9384,"ING":9385,"accountab":9386,"Modi-":9387,"house.</w>":9388,"pending</w>":9389,"included</w>":9390,"approved</w>":9391,"promise</w>":9392,"began</w>":9393,"severe</w>":9394,"Hindust":9395,"explan":9396,"properly</w>":9397,"silent</w>":9398,"mistake</w>":9399,"vehicles</w>":9400,"Indians.</w>":9401,"Foreign</w>":9402,"think?</w>":9403,"connected</w>":9404,"Idea</w>":9405,"narrative</w>":9406,"Democracy</w>":9407,"Second</w>":9408,"contribute</w>":9409,"tackle</w>":9410,"John</w>":9411,"amongst</w>":9412,"94":9413,"DS</w>":9414,"Days</w>":9415,"Hop":9416,"Hence</w>":9417,"Il":9418,"TN</w>":9419,"a_":9420,"dying</w>":9421,"his":9422,"kil":9423,"mits</w>":9424,"pal":9425,"sab":9426,"vent":9427,"वि":9428,"en?</w>":9429,"assume</w>":9430,"not-":9431,"led.</w>":9432,"ative.</w>":9433,"whel":9434,"admission</w>":9435,"pol":9436,"depart":9437,"uncle</w>":9438,"tta</w>":9439,"president</w>":9440,"https://youtu.be/":9441,"owned</w>":9442,"clapping</w>":9443,"plea</w>":9444,"boom":9445,"bodies</w>":9446,"dry</w>":9447,"outbreak":9448,"ankar</w>":9449,"elections.</w>":9450,"change.</w>":9451,"film":9452,"demanding</w>":9453,"rapes</w>":9454,"refuse</w>":9455,"vice.</w>":9456,"high-":9457,"Imran</w>":9458,"Manmohan</w>":9459,"medicine</w>":9460,"NPR":9461,"advoc":9462,"Janata</w>":9463,"goods</w>":9464,"Water</w>":9465,"hindu</w>":9466,"immigration</w>":9467,"Sikhs</w>":9468,"%2C":9469,"meaning</w>":9470,"system.</w>":9471,"Japan</w>":9472,"([**link**](https://":9473,"source=":9474,"agenda</w>":9475,"strategy</w>":9476,"childhood</w>":9477,"Pandemic</w>":9478,"favorite</w>":9479,"(Amendment)</w>":9480,"(the</w>":9481,"*.</w>":9482,"54":9483,":00</w>":9484,"Gate</w>":9485,"I.</w>":9486,"Mr</w>":9487,"Nadu":9488,"PL":9489,"Pas":9490,"Varan":9491,"Wu":9492,"gi</w>":9493,"hing":9494,"i/":9495,"pakist":9496,"दे":9497,"ला":9498,"revi":9499,"al:</w>":9500,"about.</w>":9501,"debit</w>":9502,"prohi":9503,"progress</w>":9504,"dog":9505,"apur":9506,"territ":9507,"aves</w>":9508,"count":9509,"covered</w>":9510,"primary</w>":9511,"arded</w>":9512,"finance</w>":9513,"aur</w>":9514,"print</w>":9515,"nation.</w>":9516,"period":9517,"Action</w>":9518,"milit":9519,"invited</w>":9520,"violence.</w>":9521,"ght-":9522,"checking</w>":9523,"regional</w>":9524,"ministry</w>":9525,"Abhi":9526,"suggestion</w>":9527,"likes</w>":9528,"graphic</w>":9529,"though":9530,"century</w>":9531,"Officer</w>":9532,"Survey</w>":9533,"Taj</w>":9534,"Something</w>":9535,"punish":9536,"explained</w>":9537,"Government":9538,"criticism</w>":9539,"Azad</w>":9540,"innov":9541,"Savar":9542,"VPN</w>":9543,"Kapoor</w>":9544,"solidarity</w>":9545,"responsibility</w>":9546,"stuff.</w>":9547,"Agra</w>":9548,"Yadav</w>":9549,"podcast":9550,"cott</w>":9551,"EDIT:</w>":9552,"Gogoi</w>":9553,"facebook.com/":9554,"\"How</w>":9555,"0.":9556,"63":9557,"7.":9558,"8-":9559,"Apr":9560,"Bank":9561,"Du":9562,"D.</w>":9563,"Dom":9564,"Feel</w>":9565,"II</w>":9566,"Kash":9567,"Por":9568,"Pic":9569,"SH":9570,"cand":9571,"ever.</w>":9572,"gun":9573,"hru":9574,"ness.</w>":9575,"ras</w>":9576,"sligh":9577,"न्":9578,"’ve</w>":9579,"inks</w>":9580,"stres":9581,"assum":9582,"use.</w>":9583,"ridicul":9584,"opening</w>":9585,"competi":9586,"chi</w>":9587,"chron":9588,"goal</w>":9589,"ing!</w>":9590,"perman":9591,"to?</w>":9592,"gible</w>":9593,"\"\"I</w>":9594,"grate":9595,"coaching</w>":9596,"soon.</w>":9597,"upto</w>":9598,"ember.</w>":9599,"Conf":9600,"app.</w>":9601,"with-":9602,"Commission":9603,"friends.</w>":9604,"extent</w>":9605,"heart":9606,"belief</w>":9607,"said.</w>":9608,"baby</w>":9609,"tisation</w>":9610,"decisions</w>":9611,"Too</w>":9612,"effects</w>":9613,"slowly</w>":9614,"Attack</w>":9615,"tomorrow":9616,"Support</w>":9617,"corrupt</w>":9618,"magaz":9619,"levels</w>":9620,"challenges</w>":9621,"ugu</w>":9622,"Video's</w>":9623,"bullshit</w>":9624,"restaurant</w>":9625,"astern</w>":9626,"[AskIndia]</w>":9627,"ndtv.com/":9628,"#2":9629,"4th</w>":9630,"Ban</w>":9631,"Cris":9632,"Down</w>":9633,"El":9634,"Han":9635,"Hom":9636,"Lank":9637,"Of":9638,"PC":9639,"Ven":9640,"cab":9641,"dele":9642,"les.</w>":9643,"obli":9644,"pack</w>":9645,"sar":9646,"tes":9647,"xing</w>":9648,"ता</w>":9649,"oned</w>":9650,"diplom":9651,"ativ":9652,"Though</w>":9653,"poem</w>":9654,"agers</w>":9655,"ucks</w>":9656,"perhaps</w>":9657,"\"\"The</w>":9658,"**](https://www.":9659,"fire":9660,"anymore</w>":9661,"night.</w>":9662,"annual</w>":9663,"atten":9664,"everyone.</w>":9665,"Alla":9666,"Almost</w>":9667,"158":9668,"films</w>":9669,"parents.</w>":9670,"2020-0":9671,"wari</w>":9672,"build":9673,"gap</w>":9674,"Youth</w>":9675,"advance.</w>":9676,"suspici":9677,"serious":9678,"Riots</w>":9679,"emotional</w>":9680,"languages</w>":9681,"Collec":9682,"people's</w>":9683,"times.com/":9684,"Council</w>":9685,"Buil":9686,"mind.</w>":9687,".com/news/india/":9688,"activists</w>":9689,"reasonable</w>":9690,"absolute</w>":9691,"floor</w>":9692,"smart</w>":9693,"YoDo":9694,"flag</w>":9695,"crazy</w>":9696,"guys.</w>":9697,"favourite</w>":9698,"dumb</w>":9699,"Okay</w>":9700,"&restrict_sr":9701,"(B":9702,"73":9703,"82":9704,":30</w>":9705,"???</w>":9706,"Av":9707,"Are":9708,"Cou":9709,"Cro":9710,"EN":9711,"Hack":9712,"Im</w>":9713,"Iran</w>":9714,"Khan":9715,"bes":9716,"bad.</w>":9717,"bjp</w>":9718,"cc":9719,"du</w>":9720,"four":9721,"hin":9722,"hiring</w>":9723,"mut":9724,"x.</w>":9725,"thus</w>":9726,"instit":9727,"repl":9728,"libr":9729,"eline</w>":9730,"ils</w>":9731,"urch</w>":9732,"complain</w>":9733,"shor":9734,"ap.</w>":9735,"fixed</w>":9736,"brings</w>":9737,"there?</w>":9738,"Moha":9739,"crit":9740,"](https://www.reddit.com/r/india/search":9741,"1024":9742,"Trade</w>":9743,"green</w>":9744,"rements</w>":9745,"point.</w>":9746,"markets</w>":9747,"flying</w>":9748,"promote</w>":9749,"recommended</w>":9750,"world's</w>":9751,"Board</w>":9752,"company.</w>":9753,"-by-":9754,"domin":9755,"transport</w>":9756,"alleged</w>":9757,"employee</w>":9758,"calcul":9759,"murder":9760,"realised</w>":9761,"rooms</w>":9762,"?s=19</w>":9763,"mandatory</w>":9764,"Regul":9765,"Without</w>":9766,"Bangalore.</w>":9767,"Ladakh</w>":9768,"Android</w>":9769,"[Serious]</w>":9770,"/ref=":9771,"400</w>":9772,"AL</w>":9773,"Aar":9774,"Pal":9775,"Ple":9776,"Raf":9777,"SS</w>":9778,"Tamil":9779,"Var":9780,"aan</w>":9781,"cure</w>":9782,"cell":9783,"cross</w>":9784,"ized</w>":9785,"med":9786,"par</w>":9787,"ule</w>":9788,"wo":9789,"wa</w>":9790,"wan</w>":9791,"y'":9792,"allows</w>":9793,"es!</w>":9794,"il.</w>":9795,"ace.</w>":9796,"Inde":9797,"device</w>":9798,"dedic":9799,"chicken</w>":9800,"contri":9801,"ing_":9802,"ently.</w>":9803,"hike</w>":9804,"tions/":9805,"ation/":9806,"ucr":9807,"Chow":9808,"Alt</w>":9809,"here's</w>":9810,"out?</w>":9811,"Ex-":9812,"match</w>":9813,"pura</w>":9814,"educate</w>":9815,"etc)</w>":9816,"elebri":9817,"overwhel":9818,"poll/":9819,"supported</w>":9820,"returning</w>":9821,"10000</w>":9822,"PMC</w>":9823,"Office</w>":9824,"failing</w>":9825,"tables</w>":9826,"Sharad</w>":9827,"explaining</w>":9828,"Governor</w>":9829,"Judi":9830,"Gandhi's</w>":9831,"investigation</w>":9832,"Pollution</w>":9833,"route</w>":9834,"useful</w>":9835,"utili":9836,"introduced</w>":9837,"Photo":9838,"_in_":9839,"safegu":9840,"YoDoINDIA</w>":9841,"&sr":9842,"7)</w>":9843,"96":9844,"Blo":9845,"Dou":9846,"DAT":9847,"Nrc":9848,"Val":9849,"Zomato</w>":9850,"brain</w>":9851,"east</w>":9852,"fly</w>":9853,"ition</w>":9854,"ize</w>":9855,"ron</w>":9856,"si</w>":9857,"tac":9858,"ts-":9859,"xy</w>":9860,"y'</w>":9861,"ের</w>":9862,"instruc":9863,"en't</w>":9864,"omm":9865,"omet":9866,"useless</w>":9867,"Indira</w>":9868,"urban</w>":9869,"lot.</w>":9870,"she's</w>":9871,"exchange</w>":9872,"hide</w>":9873,"donate":9874,"raj":9875,"up-":9876,"interven":9877,"cry</w>":9878,"stating</w>":9879,"of.</w>":9880,"dram":9881,"disrup":9882,"elector":9883,"schol":9884,"efs</w>":9885,"carried</w>":9886,"Advice":9887,"Previous</w>":9888,"partner</w>":9889,"incredi":9890,"burnt</w>":9891,"promised</w>":9892,"RSS":9893,"Chall":9894,"searching</w>":9895,"they'll</w>":9896,"1000":9897,"Monday</w>":9898,"lighting</w>":9899,"Apparently</w>":9900,"india-news/":9901,"investment</w>":9902,"origin":9903,"verification</w>":9904,"Book</w>":9905,"Weekly":9906,"continued</w>":9907,"Christian</w>":9908,"exclusively</w>":9909,"secularism</w>":9910,"Mishra</w>":9911,"Quarantine</w>":9912,"CAA/NRC</w>":9913,"?q=Weekly":9914,"District</w>":9915,"Arrested</w>":9916,"particularly</w>":9917,"&amp;":9918,"&t=":9919,"Amon":9920,"Asho":9921,"Dav":9922,"HR</w>":9923,"Ris":9924,"Wr":9925,"Wal":9926,"Youn":9927,"[View</w>":9928,"af</w>":9929,"avi":9930,"bomb":9931,"k1":9932,"mess</w>":9933,"nit":9934,"sanc":9935,"taining</w>":9936,"wall</w>":9937,"stab":9938,"dity</w>":9939,"es\"\"</w>":9940,"ela</w>":9941,"rid</w>":9942,"net.</w>":9943,"trad":9944,"chest</w>":9945,"produce</w>":9946,"ester</w>":9947,"gien":9948,"scroll":9949,"park</w>":9950,"fired</w>":9951,"sored</w>":9952,"soft</w>":9953,"Chha":9954,"all)</w>":9955,"reads](https://www.":9956,"server</w>":9957,"can.</w>":9958,"misinformation</w>":9959,"s-and-":9960,"nationalism</w>":9961,"questions.</w>":9962,"logy.</w>":9963,"man.</w>":9964,"chaos</w>":9965,"alisation</w>":9966,"150":9967,"Guwa":9968,"Park</w>":9969,"Unna":9970,"experienc":9971,"intellec":9972,"show/":9973,"over-":9974,"overall</w>":9975,"People":9976,"migration</w>":9977,"Sever":9978,"Imag":9979,"capable</w>":9980,"Anybody</w>":9981,"receiving</w>":9982,"allowing</w>":9983,"topic.</w>":9984,"food.</w>":9985,"Curfew</w>":9986,"Draft</w>":9987,"Given</w>":9988,"temper":9989,"Sometimes</w>":9990,"Super</w>":9991,"threatening</w>":9992,"surprise</w>":9993,"gathered</w>":9994,"Pradesh:</w>":9995,"scientific</w>":9996,"Poll](https://www.reddit.com/":9997,"/04/2020|-|-|-|-|Hospitalized|-</w>":9998,"Korea</w>":9999,"Company</w>":10000,"Spotify</w>":10001,"%3A":10002,"03/04/2020|-|-|-|-|Hospitalized|-</w>":10003,"Suggestions</w>":10004,"Tl;":10005,"Tharoor</w>":10006,"#2YoDoINDIA</w>":10007,"Poll](https://www.reddit.com/poll/":10008,"\"What</w>":10009,"#CAA":10010,"=on":10011,"BH":10012,"Lanka</w>":10013,"Oh</w>":10014,"Off":10015,"Save</w>":10016,"Tell</w>":10017,"fell</w>":10018,"l)</w>":10019,"ok</w>":10020,"sat":10021,"tops</w>":10022,"yet":10023,"|0":10024,"को":10025,"ership</w>":10026,"tin</w>":10027,"outr":10028,"oro":10029,"orial</w>":10030,"omb</w>":10031,"accom":10032,"ricul":10033,"vish</w>":10034,"opposite</w>":10035,"verdict</w>":10036,"probe</w>":10037,"mother":10038,"ex-":10039,"plays</w>":10040,"premis":10041,"immun":10042,"area.</w>":10043,"etro":10044,"CARE":10045,"facial</w>":10046,"record":10047,"serving</w>":10048,"attle</w>":10049,"drink</w>":10050,"Police":10051,"Activi":10052,"economy.</w>":10053,"affili":10054,"regard</w>":10055,"cleared</w>":10056,"funding</w>":10057,"funny</w>":10058,"complex</w>":10059,"over.</w>":10060,"Mano":10061,"directed</w>":10062,"includes</w>":10063,"tradi":10064,"remote</w>":10065,"[https://www.youtube.com/watch?v=":10066,"justic":10067,"PM.</w>":10068,"NCR":10069,"Bangladesh":10070,"operation</w>":10071,"saving</w>":10072,"much":10073,"Countries</w>":10074,"announces</w>":10075,"confirm</w>":10076,"PS:</w>":10077,"greatly</w>":10078,"threatened</w>":10079,"pursuing</w>":10080,"participate</w>":10081,"hardly</w>":10082,"consult":10083,"behaviour</w>":10084,"preced":10085,"Privacy</w>":10086,"vaccine</w>":10087,"June</w>":10088,"Indore</w>":10089,"festival</w>":10090,"kashmir":10091,"Chandigarh</w>":10092,"icipal</w>":10093,"NrcProtest":10094,"84":10095,"9.</w>":10096,"Canc":10097,"DS":10098,"He's</w>":10099,"Nam":10100,"bon":10101,"bun":10102,"cb":10103,"glob":10104,"garett":10105,"np":10106,"pair</w>":10107,"tun":10108,"text":10109,"inform</w>":10110,"action.</w>":10111,"rising</w>":10112,"not?</w>":10113,"common":10114,"age?</w>":10115,"be-":10116,"conclusi":10117,"apore</w>":10118,"cigarett":10119,"and/":10120,"Anand</w>":10121,"](https://preview.redd.it/":10122,"guit":10123,"host":10124,"Step</w>":10125,"Art</w>":10126,"contain":10127,"you've</w>":10128,"NRI</w>":10129,"everyone":10130,"2002</w>":10131,"occasi":10132,"dish</w>":10133,"expi":10134,"friend.</w>":10135,"license</w>":10136,"flag":10137,"s.\"</w>":10138,"traditional</w>":10139,"valent</w>":10140,"authority</w>":10141,"Bengali</w>":10142,"screening</w>":10143,"goodread":10144,"Kumar":10145,"people?</w>":10146,"Order</w>":10147,"Chennai":10148,"suggests</w>":10149,"larger</w>":10150,"Crore</w>":10151,"mistak":10152,"System</w>":10153,"destroyed</w>":10154,"learned</w>":10155,"innocent</w>":10156,"successfully</w>":10157,"judicial</w>":10158,"/03/":10159,"Buddh":10160,"Girl</w>":10161,"drive.google.com/file/d/1":10162,"Trailer</w>":10163,"\"The</w>":10164,"(if</w>":10165,"7f":10166,"7l":10167,"BO":10168,"Bh":10169,"Bad":10170,"CH</w>":10171,"Fut":10172,"Hate</w>":10173,"PC</w>":10174,"Pen":10175,"Pass":10176,"Rak":10177,"Ud":10178,"b)</w>":10179,"dul":10180,"ia":10181,"kg</w>":10182,"rom":10183,"will":10184,"y’s</w>":10185,"हि":10186,"tha</w>":10187,"real":10188,"tives</w>":10189,"else.</w>":10190,"isi</w>":10191,"cher":10192,"supreme</w>":10193,"for?</w>":10194,"indians</w>":10195,"gujar":10196,"ally":10197,"Nepal</w>":10198,"boys</w>":10199,"asts</w>":10200,"Amb":10201,"second":10202,"aza":10203,"Shoo":10204,"Policy</w>":10205,"work?</w>":10206,"observ":10207,"voic":10208,"extend</w>":10209,"possibility</w>":10210,"Modi.</w>":10211,"fuck":10212,"makers</w>":10213,"warning</w>":10214,"delet":10215,"Research</w>":10216,"gather</w>":10217,"belong</w>":10218,"dambar":10219,"Canadi":10220,"Force</w>":10221,"Chidambar":10222,"lockdown?</w>":10223,"Watch":10224,"shoes</w>":10225,"launches</w>":10226,"Rajasthan":10227,"isolated</w>":10228,"police.</w>":10229,"actively</w>":10230,"speaks</w>":10231,"constant</w>":10232,"Railway</w>":10233,"internal</w>":10234,"spired</w>":10235,"manufacturing</w>":10236,"ximum</w>":10237,"assaul":10238,"Identi":10239,"fraud":10240,"programming</w>":10241,"accurate</w>":10242,"Sadh":10243,"alcohol</w>":10244,"soldiers</w>":10245,"Software</w>":10246,"'m</w>":10247,"([":10248,"-k":10249,"-n":10250,"9/":10251,"Bel":10252,"FY":10253,"LD":10254,"M)</w>":10255,"Mer":10256,"Pa":10257,"Sl":10258,"Sid":10259,"Speci":10260,"XX":10261,"bhi</w>":10262,"eg":10263,"fans</w>":10264,"ration":10265,"var":10266,"’ll</w>":10267,"institute</w>":10268,"tial</w>":10269,"stable</w>":10270,"stations</w>":10271,"hair":10272,"al)</w>":10273,"Into</w>":10274,"abs":10275,"ages.</w>":10276,"door":10277,"quer":10278,"me/":10279,"money":10280,"co-":10281,"sites/":10282,"Stand":10283,"sector":10284,"ansk":10285,"you’re</w>":10286,"empty</w>":10287,"Tran":10288,"govt-":10289,"citizens.</w>":10290,"didate</w>":10291,"Workers</w>":10292,"Vijay":10293,"carto":10294,"US.</w>":10295,"trees</w>":10296,"developing</w>":10297,"Ranjan</w>":10298,"sourc":10299,"supports</w>":10300,"removed":10301,"Wiki":10302,"skin</w>":10303,"customs</w>":10304,"players</w>":10305,"entering</w>":10306,"minds</w>":10307,"Service</w>":10308,"depressed</w>":10309,"committee</w>":10310,"agreement</w>":10311,"wordpres":10312,"shortage</w>":10313,"electricity</w>":10314,"hours.</w>":10315,"Sonia</w>":10316,"Demone":10317,"U.S.</w>":10318,"Parents</w>":10319,"Freedom</w>":10320,".m":10321,"3/":10322,"Band":10323,"Bet":10324,"Hun":10325,"KE":10326,"Kab":10327,"Kids</w>":10328,"Mee":10329,"NEE":10330,"Rat":10331,"UG":10332,"WAT":10333,"ba</w>":10334,"dhar":10335,"ii":10336,"jump</w>":10337,"lau":10338,"lands</w>":10339,"loud</w>":10340,"लि":10341,"res.</w>":10342,"enni":10343,"stress</w>":10344,"stayed</w>":10345,"es_":10346,"legi":10347,"Thre":10348,"bear</w>":10349,"seat":10350,"20th</w>":10351,"quote</w>":10352,".com/india/":10353,"Chhattis":10354,"interpre":10355,"Gosw":10356,"therap":10357,"tea</w>":10358,"nivers":10359,"presence</w>":10360,"compul":10361,"alities</w>":10362,"10%</w>":10363,"Dead":10364,"manip":10365,"Prom":10366,"Prash":10367,"new-":10368,"ly)</w>":10369,"Associ":10370,"courts</w>":10371,"elected</w>":10372,"Exp":10373,"Light</w>":10374,"powers</w>":10375,"educational</w>":10376,"Citizens</w>":10377,"Anything</w>":10378,"morning.</w>":10379,"AAP":10380,"caa-":10381,"Recomm":10382,"hygien":10383,"ruled</w>":10384,"Videos</w>":10385,"spots</w>":10386,"Sources</w>":10387,"book/":10388,"lockdown-":10389,"Ramay":10390,"weekly</w>":10391,"double</w>":10392,"pandemic.</w>":10393,"program":10394,"liberals</w>":10395,"typical</w>":10396,"initial</w>":10397,"ALL</w>":10398,"There":10399,"bhakt</w>":10400,"judgement</w>":10401,"Aksha":10402,"----------------------------------------------------------------":10403,"Children</w>":10404,"category</w>":10405,"Deepika</w>":10406,"associated</w>":10407,"fairly</w>":10408,"birthday</w>":10409,"TikTok</w>":10410,"wiggy</w>":10411,"Planning</w>":10412,"percentage</w>":10413,"criteri":10414,"wordpress.com/":10415,"At":10416,"A:</w>":10417,"Bul":10418,"Cas":10419,"Den":10420,"Fem":10421,"FOR</w>":10422,"Name</w>":10423,"Red</w>":10424,"SO</w>":10425,"Tej":10426,"[Previous</w>":10427,"dress</w>":10428,"fed</w>":10429,"falling</w>":10430,"jan":10431,"mouth</w>":10432,"path":10433,"range</w>":10434,"vot":10435,"or's</w>":10436,"aci":10437,"Income</w>":10438,"lear</w>":10439,"loans</w>":10440,"is?</w>":10441,"theory</w>":10442,"opposed</w>":10443,"shee":10444,"ung</w>":10445,"supre":10446,"se-":10447,"ing'</w>":10448,"termin":10449,"ps/":10450,"uclear</w>":10451,"presid":10452,"gic</w>":10453,"scare":10454,"](https://youtu.be/":10455,"Arab":10456,"statue</w>":10457,"laz":10458,"engage</w>":10459,"bia</w>":10460,"occup":10461,"Shashi</w>":10462,"Deli":10463,"post-":10464,"sensitive</w>":10465,"respond</w>":10466,"standards</w>":10467,"studi":10468,"s.google.com/":10469,"capacity</w>":10470,"Singapore</w>":10471,"map</w>":10472,"Telugu</w>":10473,"shocked</w>":10474,"weeks.</w>":10475,"villages</w>":10476,"temples</w>":10477,"regularly</w>":10478,"urgent</w>":10479,"Babri</w>":10480,"discriminatory</w>":10481,"neighbours</w>":10482,"settle</w>":10483,"organization</w>":10484,"ignorant</w>":10485,"Document":10486,"Christians</w>":10487,"performance</w>":10488,"police-":10489,"Religious</w>":10490,"stick</w>":10491,"democracy.</w>":10492,"essentially</w>":10493,"leadership</w>":10494,"before.</w>":10495,"divor":10496,"conference</w>":10497,"drug</w>":10498,"advantage</w>":10499,"Krishna</w>":10500,"Sangh</w>":10501,"Nizamuddin</w>":10502,"Among</w>":10503,"Guwahati</w>":10504,"32</w>":10505,"31.":10506,"FC</w>":10507,"Gup":10508,"Hor":10509,"JM":10510,"Long</w>":10511,"Mc":10512,"Mess":10513,"Oni":10514,"Tem":10515,"[R":10516,"dable</w>":10517,"evil</w>":10518,"fak":10519,"fails</w>":10520,"sla":10521,"্র":10522,"anno":10523,"sty":10524,"aspects</w>":10525,"rises</w>":10526,"whit":10527,"opposing</w>":10528,"vert</w>":10529,"cher</w>":10530,"exposed</w>":10531,"enty</w>":10532,"scar":10533,"coz</w>":10534,"coverage</w>":10535,"Change</w>":10536,"hostel</w>":10537,"somebody</w>":10538,"sell":10539,"stray</w>":10540,"stranded</w>":10541,"finished</w>":10542,"two-":10543,"Nobody</w>":10544,"Maha":10545,"arian":10546,"sym":10547,"bling</w>":10548,"blat":10549,"alism":10550,"Exper":10551,"Liber":10552,"epide":10553,"Environ":10554,"experience?</w>":10555,"reason.</w>":10556,"anian</w>":10557,"refuses</w>":10558,"story-":10559,"Price</w>":10560,"Universit":10561,"Presid":10562,"Mandir</w>":10563,"true":10564,"Few</w>":10565,"causes</w>":10566,"brief":10567,"authori":10568,"releas":10569,"instance</w>":10570,"Madras</w>":10571,"engineer</w>":10572,"younger</w>":10573,"meet":10574,"Reliance</w>":10575,"LIVE</w>":10576,"questioning</w>":10577,"trending</w>":10578,"deploy":10579,"Custom":10580,"Lakh</w>":10581,"Opinion</w>":10582,"divided</w>":10583,"They're</w>":10584,"reaucr":10585,"figures</w>":10586,"FRT</w>":10587,"journey</w>":10588,"smaller</w>":10589,"quickly</w>":10590,"transferred</w>":10591,"Abhijit</w>":10592,"Unnao</w>":10593,"goodreads.com/":10594,"92":10595,":*</w>":10596,"?utm_":10597,"Ash":10598,"CL":10599,"DO</w>":10600,"Dam":10601,"EX":10602,"GB</w>":10603,"HD":10604,"Janta</w>":10605,"Ki</w>":10606,"Nan":10607,"Pand":10608,"PRO":10609,"Rom":10610,"Same</w>":10611,"Warn":10612,"Yor":10613,"bt":10614,"cash":10615,"city":10616,"dr</w>":10617,"fi</w>":10618,"fears</w>":10619,"i'm</w>":10620,"kit</w>":10621,"pharm":10622,"round</w>":10623,"sane</w>":10624,"ub</w>":10625,"yth":10626,"त्र":10627,"ero":10628,"it'll</w>":10629,"lic</w>":10630,"ilos":10631,"admit</w>":10632,"detec":10633,"old.</w>":10634,"concentr":10635,"ent?</w>":10636,"pline</w>":10637,"andro":10638,"we'll</w>":10639,"something.</w>":10640,"Really</w>":10641,"forms.":10642,"bram":10643,"Positive</w>":10644,"state-":10645,"Provid":10646,"crim":10647,"Mahal</w>":10648,"phone.</w>":10649,"wont</w>":10650,"violation</w>":10651,"Unity</w>":10652,"Unpopular</w>":10653,"situation?</w>":10654,"discussing</w>":10655,"Reser":10656,"ype</w>":10657,"ounded</w>":10658,"Electron":10659,"defend</w>":10660,"patrio":10661,"pandemic":10662,"breaks</w>":10663,"spiracy</w>":10664,"AMU</w>":10665,"Patel</w>":10666,"physically</w>":10667,"forcing</w>":10668,"learnt</w>":10669,"influence</w>":10670,"CEO</w>":10671,"cook</w>":10672,"reservation</w>":10673,"internetfreedom.in/donate":10674,"consumer</w>":10675,"Suggest</w>":10676,"Private</w>":10677,"artists</w>":10678,"unemployment</w>":10679,"financially</w>":10680,"Dubai</w>":10681,"Millia</w>":10682,"Varanasi</w>":10683,"manipul":10684,"Prashant</w>":10685,"ilosop":10686,"\"I</w>":10687,"(as</w>":10688,"(like</w>":10689,".nic":10690,":-":10691,">**":10692,"Foo":10693,"Fai":10694,"GO</w>":10695,"IB":10696,"Kas":10697,"Main":10698,"Mother</w>":10699,"OS</w>":10700,"Saj":10701,"Tar":10702,"Too":10703,"Va":10704,"bjp":10705,"bond":10706,"blind</w>":10707,"dres":10708,"ever":10709,"fit":10710,"filling</w>":10711,"hf":10712,"pse":10713,"ry":10714,"rain":10715,"ured</w>":10716,"zes</w>":10717,"और</w>":10718,"बा":10719,"ही":10720,"anch":10721,"tious</w>":10722,"hash":10723,"dits</w>":10724,"dians</w>":10725,"iti</w>":10726,"lit</w>":10727,"iled</w>":10728,"ilit":10729,"act.</w>":10730,"us-":10731,"addic":10732,"advice.</w>":10733,"aggres":10734,"olution</w>":10735,"eded</w>":10736,"forward":10737,"uman</w>":10738,"indian-":10739,"clue</w>":10740,"raj</w>":10741,"ple.</w>":10742,"Ste":10743,"factor":10744,"buy":10745,"teaching</w>":10746,"print":10747,"protests:</w>":10748,"collap":10749,"ditya</w>":10750,"shame</w>":10751,"substan":10752,"problem.</w>":10753,"blaming</w>":10754,"alistic</w>":10755,"happen.</w>":10756,"voters</w>":10757,"Delhi’s</w>":10758,"what’s</w>":10759,"stands</w>":10760,"comments.</w>":10761,"flat</w>":10762,"medicines</w>":10763,"cough":10764,"equality</w>":10765,"appreciated</w>":10766,"spoke</w>":10767,"Opposition</w>":10768,"birds</w>":10769,"they've</w>":10770,"UPSC</w>":10771,"Kashmir.</w>":10772,"mainstream</w>":10773,"charging</w>":10774,"natur":10775,"ternal</w>":10776,"Speech</w>":10777,"Visa</w>":10778,"winning</w>":10779,"Kolkat":10780,"shutdowns</w>":10781,"provisions</w>":10782,"believed</w>":10783,"Marketing</w>":10784,"massac":10785,"Thought":10786,"targeted</w>":10787,"coding</w>":10788,"cousin</w>":10789,"appropriate</w>":10790,"circumst":10791,"prehensive</w>":10792,"controversial</w>":10793,"Wuhan</w>":10794,"Akshay</w>":10795,"#Delhi":10796,"53":10797,"83":10798,">The</w>":10799,"AD</w>":10800,"Broad":10801,"Er":10802,"IE":10803,"Imp":10804,"Kh":10805,"NO</w>":10806,"PE":10807,"Ps</w>":10808,"Peri":10809,"TS":10810,"Testing</w>":10811,"Vid":10812,"az</w>":10813,"bail</w>":10814,"cinem":10815,"dumb":10816,"eing</w>":10817,"kal</w>":10818,"kum":10819,"karnatak":10820,"mic</w>":10821,"n-":10822,"num":10823,"native</w>":10824,"rab":10825,"wala</w>":10826,"पर</w>":10827,"ald":10828,"itself.</w>":10829,"atori":10830,"aside</w>":10831,"rific":10832,"Inside</w>":10833,"notification</w>":10834,"whil":10835,"god":10836,"20-":10837,"ing\"\"</w>":10838,"ed/":10839,"ed!</w>":10840,"percent</w>":10841,"gith":10842,"arey</w>":10843,"grad</w>":10844,"ai-":10845,"Post":10846,"press":10847,"legisl":10848,"india?</w>":10849,"geno":10850,"Politic":10851,"inflation</w>":10852,"differences</w>":10853,"voter</w>":10854,"1.5</w>":10855,"Modiji</w>":10856,"writes</w>":10857,"usion</w>":10858,"professor</w>":10859,"Secretary</w>":10860,"choic":10861,"cheaper</w>":10862,"Redmi</w>":10863,"holders</w>":10864,"implic":10865,"camp</w>":10866,"tracking</w>":10867,"logic</w>":10868,"meme</w>":10869,"initiative</w>":10870,"videos/":10871,"advise</w>":10872,"experim":10873,"purchased</w>":10874,"Safe</w>":10875,"features</w>":10876,"Fund</w>":10877,"professionals</w>":10878,"consultation</w>":10879,"Market</w>":10880,"advertis":10881,"machine</w>":10882,"method</w>":10883,"suspected</w>":10884,"scheduled</w>":10885,"gym</w>":10886,"coffee</w>":10887,"equipment</w>":10888,"toxic</w>":10889,"labourers</w>":10890,"ICMR</w>":10891,"!\"</w>":10892,"-the-":10893,"36</w>":10894,"52":10895,"Come</w>":10896,"CBI</w>":10897,"Guru</w>":10898,"Hum</w>":10899,"I)</w>":10900,"Rs.":10901,"Sri":10902,"Sard":10903,"Slow":10904,"SMS</w>":10905,"billi":10906,"e'</w>":10907,"fai":10908,"ge.</w>":10909,"lad":10910,"nai":10911,"ration</w>":10912,"rack":10913,"sake</w>":10914,"x)</w>":10915,"inclusi":10916,"rejec":10917,"en/":10918,"ating.</w>":10919,"es;</w>":10920,"adequ":10921,"additional</w>":10922,"sight</w>":10923,"sively</w>":10924,"oom</w>":10925,"get.</w>":10926,"forgot</w>":10927,"odi</w>":10928,"ation)</w>":10929,"import</w>":10930,"perform</w>":10931,"\"\"?</w>":10932,"Why?</w>":10933,"dows</w>":10934,"sometime</w>":10935,"Star</w>":10936,"teen":10937,"Mohan</w>":10938,"ants.</w>":10939,"declin":10940,"nationals</w>":10941,"cases.</w>":10942,"Deb":10943,"docs.google.com/":10944,"blu":10945,"remaining</w>":10946,"pointed</w>":10947,"Been</w>":10948,"standard":10949,"slams</w>":10950,"Ravish</w>":10951,"struction</w>":10952,"First":10953,"Abdul":10954,"importance</w>":10955,"support.</w>":10956,"advance":10957,"centres</w>":10958,"Elections</w>":10959,"UPDAT":10960,"covid-19</w>":10961,"troll":10962,"patter":10963,"/status/124":10964,"Five</w>":10965,"Team</w>":10966,"Facts</w>":10967,"surviv":10968,"students.</w>":10969,"Dalits</w>":10970,"TIL</w>":10971,"COVID-19.</w>":10972,"activity</w>":10973,"after-":10974,"Child</w>":10975,"reveals</w>":10976,"achieve</w>":10977,"Religion</w>":10978,"thrown</w>":10979,"harassment</w>":10980,"Japan":10981,"academic</w>":10982,"confidence</w>":10983,"Accused</w>":10984,"Pulw":10985,"timesofindia.indiatimes.com/city/":10986,"Management</w>":10987,"elebrities</w>":10988,"Young</w>":10989,"and/or</w>":10990,"Father</w>":10991,"Having</w>":10992,"Oper":10993,"Psy":10994,"Tan":10995,"UB":10996,"[The</w>":10997,"citing</w>":10998,"da</w>":10999,"gas":11000,"gle/":11001,"mN":11002,"mas</w>":11003,"put":11004,"inations</w>":11005,"ham</w>":11006,"eless":11007,"ellow</w>":11008,"isation</w>":11009,"optim":11010,"deduc":11011,"unnecessary</w>":11012,"agencies</w>":11013,"consumption</w>":11014,"tions:</w>":11015,"pregn":11016,"gies</w>":11017,"portr":11018,"grounds</w>":11019,"granted</w>":11020,"Who":11021,"mony</w>":11022,"head.</w>":11023,".....</w>":11024,"ailing</w>":11025,"essing</w>":11026,"boss</w>":11027,"-16":11028,"astro":11029,"auto</w>":11030,"audio</w>":11031,"firms</w>":11032,"Proc":11033,"drones</w>":11034,"Comple":11035,"dissent</w>":11036,"Suic":11037,"chair":11038,"locals</w>":11039,"designed</w>":11040,"voices</w>":11041,"responses</w>":11042,"Vik":11043,"redditors</w>":11044,"tag</w>":11045,"forest</w>":11046,"discussed</w>":11047,"Plan</w>":11048,"well-":11049,"risk":11050,"coronavirus.</w>":11051,"Wife</w>":11052,"engineer":11053,"Hindu-":11054,"welcome.</w>":11055,"Scindia</w>":11056,"kinds</w>":11057,"Kamal</w>":11058,"Navy</w>":11059,"citizenship-":11060,"boycott</w>":11061,"organizations</w>":11062,"internship</w>":11063,"IIT-":11064,"foreigners</w>":11065,"Nazi</w>":11066,"Twitter:</w>":11067,"encourage</w>":11068,"Welcome</w>":11069,"/view?usp=shar":11070,"ancient</w>":11071,"proportion":11072,"thehindu.com/news/":11073,"enforcement</w>":11074,"relatively</w>":11075,"Imagine</w>":11076,"forms.gle/":11077,"90</w>":11078,"A.":11079,"Did":11080,"Em":11081,"Fi</w>":11082,"Ha":11083,"IO":11084,"Nat":11085,"PR</w>":11086,"Tom":11087,"Till</w>":11088,"ca</w>":11089,"dance</w>":11090,"fant":11091,"feet</w>":11092,"laid</w>":11093,"sis</w>":11094,"ses.</w>":11095,"tly.</w>":11096,"wins</w>":11097,"yani</w>":11098,"दि":11099,"ला</w>":11100,"then.</w>":11101,"entic":11102,"staff":11103,"its.</w>":11104,"ative":11105,"Thous":11106,"Think</w>":11107,"ich":11108,"deposit":11109,"side":11110,"ned.</w>":11111,"sufficient</w>":11112,"exha":11113,"exit</w>":11114,"ist.</w>":11115,"CAT</w>":11116,"radic":11117,"2015</w>":11118,"Station</w>":11119,"joint</w>":11120,"Amit":11121,"red-":11122,"Consi":11123,"Consul":11124,"Consum":11125,"states.</w>":11126,"No.</w>":11127,"everything.</w>":11128,"10.</w>":11129,"lifest":11130,"genous</w>":11131,"submitted</w>":11132,"amp_":11133,"remind":11134,"150</w>":11135,"15th</w>":11136,"knowled":11137,"Raj</w>":11138,"alization</w>":11139,"developer</w>":11140,"Head":11141,"future":11142,"hya-":11143,"deny</w>":11144,"custom</w>":11145,"replied</w>":11146,"appears</w>":11147,"school.</w>":11148,"IMS</w>":11149,"employment</w>":11150,"definite</w>":11151,"silence</w>":11152,"entertain":11153,"Buy</w>":11154,"celebrating</w>":11155,"verified</w>":11156,"Safety</w>":11157,"feature</w>":11158,"destroying</w>":11159,"Vehic":11160,"atically</w>":11161,"reduced</w>":11162,"card.</w>":11163,"volunteers</w>":11164,"terrible</w>":11165,"strength</w>":11166,"Maharashtra:</w>":11167,"newspap":11168,"shouting</w>":11169,"Emergency</w>":11170,"Foundation</w>":11171,"slightly</w>":11172,"-based</w>":11173,"7th</w>":11174,"Big":11175,"C)</w>":11176,"Calls</w>":11177,"Eff":11178,"Gold</w>":11179,"Hong</w>":11180,"Key</w>":11181,"Off</w>":11182,"Orig":11183,"Sansk":11184,"Taking</w>":11185,"Xi</w>":11186,"gent":11187,"len":11188,"luc":11189,"luck":11190,"pin</w>":11191,"pure</w>":11192,"s..</w>":11193,"ers:</w>":11194,"arms</w>":11195,"stro":11196,"allies</w>":11197,"ate-":11198,"pedia</w>":11199,"entally</w>":11200,"counts</w>":11201,"form.</w>":11202,"Around</w>":11203,"candidate</w>":11204,"Nov</w>":11205,"nation/":11206,"occur":11207,"COR":11208,"Computer</w>":11209,"gov.in/":11210,"subjects</w>":11211,"alise</w>":11212,"wonder":11213,"tool</w>":11214,"30-":11215,"drivers</w>":11216,"college":11217,"transaction</w>":11218,"brothers</w>":11219,"Play":11220,"usive</w>":11221,"profit</w>":11222,"payments</w>":11223,"arrest":11224,"bridge</w>":11225,"tourists</w>":11226,"guru</w>":11227,"Reddy</w>":11228,"requirements</w>":11229,"UPI</w>":11230,"ference</w>":11231,"Northeast</w>":11232,"wheel":11233,"Surat</w>":11234,"saved</w>":11235,"petition":11236,"existence</w>":11237,"Speak":11238,"from_":11239,"expert</w>":11240,"Out:</w>":11241,"boyfriend</w>":11242,"Foreign":11243,"ignorance</w>":11244,"PPE</w>":11245,"Local</w>":11246,"electric</w>":11247,"keyword":11248,"Budd":11249,"yrs</w>":11250,"Street</w>":11251,"commerce</w>":11252,"Howdy</w>":11253,"smartphone</w>":11254,"sacrific":11255,"dirty</w>":11256,"Redditors</w>":11257,"Mahabhar":11258,"grateful</w>":11259,"electoral-":11260,")).</w>":11261,"-Old</w>":11262,"62":11263,"93":11264,"Ao":11265,"Aur":11266,"DH":11267,"DR</w>":11268,"EU</w>":11269,"FM</w>":11270,"GB":11271,"Lit":11272,"Making</w>":11273,"Owa":11274,"Than</w>":11275,"Wed":11276,"bh":11277,"ek</w>":11278,"fear":11279,"kis":11280,"moun":11281,"nb":11282,"pd":11283,"rang":11284,"tained</w>":11285,"van</w>":11286,"yog":11287,"inch</w>":11288,"inher":11289,"rela":11290,"energy</w>":11291,"alone.</w>":11292,"itual</w>":11293,"actors</w>":11294,"Intel":11295,"ade":11296,"adap":11297,"abh</w>":11298,"abroad.</w>":11299,"unfortunately</w>":11300,"agar":11301,"ola</w>":11302,"prote":11303,"prospec":11304,"sedition</w>":11305,"congress</w>":11306,"ed'</w>":11307,"enting</w>":11308,"sport":11309,"um.</w>":11310,"plant</w>":11311,"ations?</w>":11312,"](https://i.imgur.com/":11313,"away":11314,"joke</w>":11315,"records</w>":11316,"first":11317,"Control</w>":11318,"attend":11319,"everybody</w>":11320,"withdraw</w>":11321,"196":11322,"Training</w>":11323,"Dead</w>":11324,"syn":11325,"discour":11326,"number.</w>":11327,"matter":11328,"father's</w>":11329,"that’s</w>":11330,"China's</w>":11331,"consist":11332,"transactions</w>":11333,"regime</w>":11334,"true?</w>":11335,"promises</w>":11336,"Hello":11337,"followers</w>":11338,"Looks</w>":11339,"government’s</w>":11340,"justi":11341,"topics</w>":11342,"NCR</w>":11343,"defence</w>":11344,"22nd</w>":11345,"umping</w>":11346,"yesterday.</w>":11347,"3-4</w>":11348,"Christ":11349,"advised</w>":11350,"districts</w>":11351,"battery</w>":11352,"detailed</w>":11353,"participating</w>":11354,"atics</w>":11355,"Break":11356,"heavily</w>":11357,"life?</w>":11358,"perfec":11359,"humanity</w>":11360,"researchers</w>":11361,"Bhakts</w>":11362,"Getting</w>":11363,"combat</w>":11364,"eligible</w>":11365,"Punjabi</w>":11366,"commercial</w>":11367,"Simil":11368,"Retur":11369,"intelligence</w>":11370,"Migrant</w>":11371,"discovered</w>":11372,"1024&format=png&auto=webp&s=":11373,"Chhattisgarh</w>":11374,"keywords=":11375,"Aarey</w>":11376,"BC</w>":11377,"Dro":11378,"Dus":11379,"Four</w>":11380,"GE":11381,"Gets</w>":11382,"Kish":11383,"ME</w>":11384,"Ul":11385,"Were</w>":11386,"].</w>":11387,"big":11388,"cab</w>":11389,"flat":11390,"king":11391,"mou":11392,"tour</w>":11393,"vo</w>":11394,"்த":11395,"reaction</w>":11396,"stone</w>":11397,"along":11398,"itage</w>":11399,"lives.</w>":11400,"river</w>":11401,"ley</w>":11402,"vic</w>":11403,"ambi":11404,"loves</w>":11405,"unlike</w>":11406,"surely</w>":11407,"concep":11408,"iry</w>":11409,"id-":11410,"angan":11411,"Whe":11412,"scary</w>":11413,"tually</w>":11414,"interviews</w>":11415,"wife":11416,"somewhat</w>":11417,"veg":11418,"tees</w>":11419,"teen</w>":11420,"Mob</w>":11421,"medium</w>":11422,"statements</w>":11423,"attacking</w>":11424,"data.</w>":11425,"sham":11426,"manif":11427,"subscribe</w>":11428,"math</w>":11429,"matter.</w>":11430,"filing</w>":11431,"day?</w>":11432,"licit":11433,"culture.</w>":11434,"possible":11435,"Delhi?</w>":11436,"Citizenship":11437,"Anyway</w>":11438,"salaries</w>":11439,"suggestions.</w>":11440,"Hyderabad.</w>":11441,"/status/1":11442,"brief</w>":11443,"name.</w>":11444,"indeed</w>":11445,"Kashmiris</w>":11446,"bene":11447,"Ground</w>":11448,"clicked</w>":11449,"terrorism</w>":11450,"blood":11451,"Relief</w>":11452,"investments</w>":11453,"accepting</w>":11454,"Nagpur</w>":11455,"verify</w>":11456,"lesser</w>":11457,"familiar</w>":11458,"pathe":11459,"time?</w>":11460,"country's</w>":11461,"Urdu</w>":11462,"hindustan":11463,"Paytm</w>":11464,"t/files/":11465,"alaxy</w>":11466,"scientists</w>":11467,"Updates</w>":11468,"Breaking</w>":11469,"mosqu":11470,"startups</w>":11471,"expecting</w>":11472,"cows</w>":11473,"Shivaji</w>":11474,"executive</w>":11475,"Hyderabad|":11476,"cleaning</w>":11477,"assault</w>":11478,"covering</w>":11479,"grocery</w>":11480,"accident</w>":11481,"framework</w>":11482,"ashamed</w>":11483,"default/files/":11484,"NGOs</w>":11485,"Uttarakhand</w>":11486,"Crisis</w>":11487,"Manoj</w>":11488,"Canadian</w>":11489,"sites/default/files/":11490,"book/show/":11491,"(for</w>":11492,"/article":11493,"1dr":11494,"Apart</w>":11495,"Body</w>":11496,"Based</w>":11497,"CS":11498,"Cop":11499,"Cod":11500,"Climate</w>":11501,"Ghaz":11502,"Jam":11503,"Land</w>":11504,"M.":11505,"MS":11506,"M.</w>":11507,"Rise</w>":11508,"UA":11509,"WT":11510,"bage</w>":11511,"bother</w>":11512,"sor</w>":11513,"sory</w>":11514,"tee":11515,"v.m":11516,"y\"\"</w>":11517,"ন্":11518,"র্":11519,"tive-":11520,"encounter</w>":11521,"disha":11522,"iltr":11523,"vig":11524,"unknown</w>":11525,"ingu":11526,"getables</w>":11527,"hik":11528,"prene":11529,"scope</w>":11530,".com/)</w>":11531,"cloud</w>":11532,"illenni":11533,"trial</w>":11534,"facility</w>":11535,"ast.</w>":11536,"contacted</w>":11537,"creates</w>":11538,"entirely</w>":11539,"crack</w>":11540,"ment:</w>":11541,"legis":11542,"complic":11543,"s-in-":11544,"lift</w>":11545,"Subram":11546,"sub-":11547,"disclo":11548,"infiltr":11549,"economics</w>":11550,"Marri":11551,"filter</w>":11552,"closer</w>":11553,"What’s</w>":11554,"warrant":11555,"treating</w>":11556,"truth.</w>":11557,"CAA:</w>":11558,"Boy</w>":11559,"Recog":11560,"We've</w>":11561,"Wek1":11562,"Him</w>":11563,"labour</w>":11564,"index":11565,"crisy</w>":11566,"shock":11567,"Saudi</w>":11568,"welcom":11569,"Devendra</w>":11570,"ONE</w>":11571,"presentation</w>":11572,"Corrup":11573,"Week</w>":11574,"Telangan":11575,"Scienti":11576,"bitr":11577,"YOmN":11578,"therefore</w>":11579,"Chandra</w>":11580,"destroy</w>":11581,"fortunate</w>":11582,"catch</w>":11583,"behaviour":11584,"practices</w>":11585,"Community</w>":11586,"spirit</w>":11587,"aspir":11588,"P.S.</w>":11589,"ordinary</w>":11590,"Suspension</w>":11591,"convert</w>":11592,"Shows</w>":11593,"BBC</w>":11594,"neutral</w>":11595,"weren't</w>":11596,"demonstr":11597,"shelter</w>":11598,"feelings</w>":11599,"alert</w>":11600,"controlled</w>":11601,"Masters</w>":11602,"liquor</w>":11603,"s!Ao":11604,"wealth</w>":11605,"purifi":11606,"Bangladeshi</w>":11607,"Saturday</w>":11608,"Youtube</w>":11609,"Passport</w>":11610,"permanent</w>":11611,"Aarog":11612,"?q=Weekly+":11613,"Several</w>":11614,"CARES</w>":11615,"7lWek1":11616,"removed]</w>":11617,"goodreads.com/book/show/":11618,"1drv.m":11619,"YOmN7lWek1":11620,"s!AoYOmN7lWek1":11621,"1drv.ms/":11622,"!)</w>":11623,"-on-":11624,"05":11625,"4/":11626,":(</w>":11627,"Amar":11628,"Bat":11629,"Da":11630,"Face</w>":11631,"Ga":11632,"Gro":11633,"Guru":11634,"HT":11635,"IC</w>":11636,"Learn</w>":11637,"N95</w>":11638,"PR":11639,"Pil":11640,"Sn":11641,"Vol":11642,"WE":11643,"Zee</w>":11644,"[Amazon":11645,"[Good":11646,"_r":11647,"fought</w>":11648,"gath":11649,"kic":11650,"kha</w>":11651,"lal</w>":11652,"oo</w>":11653,"’.</w>":11654,"th?</w>":11655,"ini</w>":11656,"only.</w>":11657,"resume</w>":11658,"ties?</w>":11659,"diy":11660,"divi":11661,"it!</w>":11662,"ates.</w>":11663,"asy</w>":11664,"actor</w>":11665,"novel</w>":11666,"amps</w>":11667,"addition</w>":11668,"dev</w>":11669,"sha</w>":11670,"sim</w>":11671,"be?</w>":11672,"chl":11673,"sudden</w>":11674,"emi":11675,"moves</w>":11676,"export</w>":11677,"hidden</w>":11678,"force":11679,"spar":11680,"worri":11681,"worship</w>":11682,"ested</w>":11683,"tools</w>":11684,"scam":11685,"scare</w>":11686,"](https://1drv.ms/":11687,"fix":11688,"anyway</w>":11689,"sit-":11690,"illness</w>":11691,"selected</w>":11692,"stig":11693,"tization</w>":11694,"firing</w>":11695,"Poor</w>":11696,"compli":11697,"curfew":11698,"date.</w>":11699,"shares</w>":11700,"10-":11701,"blindly</w>":11702,"affairs</w>":11703,"Meh":11704,"community.</w>":11705,"Behind</w>":11706,"population.</w>":11707,"Adv":11708,"borders</w>":11709,"cares</w>":11710,"JNUS":11711,"opinion.</w>":11712,"ISRO</w>":11713,"values</w>":11714,"aduk":11715,"Shim":11716,"advanced</w>":11717,"Champi":11718,"distinc":11719,"change":11720,"NRC?</w>":11721,"merely</w>":11722,"own.</w>":11723,"camps</w>":11724,"customers</w>":11725,"penalty</w>":11726,"allegations</w>":11727,"heading</w>":11728,"complaining</w>":11729,"balcon":11730,"calm</w>":11731,"resourc":11732,"cancer</w>":11733,"measure</w>":11734,"attempts</w>":11735,"supplies</w>":11736,"Godse</w>":11737,"reference</w>":11738,"arrived</w>":11739,"says-":11740,"diseas":11741,"requests</w>":11742,"passenger</w>":11743,"designated</w>":11744,"Birth":11745,"warns</w>":11746,"essentials</w>":11747,"proceed</w>":11748,"parliament</w>":11749,"========":11750,"phase</w>":11751,"privileged</w>":11752,"++++++++":11753,"Micro":11754,"Huss":11755,"Download</w>":11756,"Deputy</w>":11757,"censorship</w>":11758,"\"Why</w>":11759,")**</w>":11760,"/articleshow/7":11761,"800":11762,"Bhu":11763,"CR</w>":11764,"Event</w>":11765,"Hand":11766,"Hours</w>":11767,"ION":11768,"Kong</w>":11769,"LS</w>":11770,"Mak":11771,"NIT":11772,"Ren":11773,"Song":11774,"Wil":11775,"[removed]</w>":11776,"bath":11777,"d)</w>":11778,"ds.</w>":11779,"egg":11780,"gin</w>":11781,"leng":11782,"mere</w>":11783,"ny":11784,"o?</w>":11785,"pull</w>":11786,"ry.</w>":11787,"ses":11788,"sar</w>":11789,"task</w>":11790,"washed</w>":11791,"y.":11792,"inspir":11793,"replace</w>":11794,"iling</w>":11795,"us?</w>":11796,"unbiased</w>":11797,"sure.</w>":11798,"geo":11799,"hie</w>":11800,"ps?</w>":11801,"aint":11802,"mein</w>":11803,"meal</w>":11804,"etoo":11805,"cost":11806,"seller</w>":11807,"recruit":11808,"buted</w>":11809,"tear</w>":11810,"seconds</w>":11811,"look":11812,"mentally</w>":11813,"curricul":11814,"Ali</w>":11815,"Trust</w>":11816,"Complain":11817,"tality</w>":11818,"video.</w>":11819,"Prag":11820,"ly-":11821,"course.</w>":11822,"bles</w>":11823,"discord":11824,"numbers.</w>":11825,"postpon":11826,"mates</w>":11827,"invite</w>":11828,"down?</w>":11829,"Ministers</w>":11830,"void</w>":11831,"help!</w>":11832,"Diwali":11833,"panel</w>":11834,"alize</w>":11835,"themselves.</w>":11836,"process.</w>":11837,"available.</w>":11838,"maximum</w>":11839,"Gujarat":11840,"cheap":11841,"Senior</w>":11842,"Islamia</w>":11843,"Sharj":11844,"young":11845,"graduation</w>":11846,"rights.</w>":11847,"kindly</w>":11848,"Schools</w>":11849,"focused</w>":11850,"Salman</w>":11851,"collected</w>":11852,"judiciary</w>":11853,"IPL</w>":11854,"olden</w>":11855,"Movies</w>":11856,"convicts</w>":11857,"confident</w>":11858,"amendment</w>":11859,"toilet</w>":11860,"Listen</w>":11861,"Industri":11862,"estimated</w>":11863,"Further</w>":11864,"cameras</w>":11865,"escape</w>":11866,"Growth</w>":11867,"Bhopal</w>":11868,"Rafale</w>":11869,"dedicated</w>":11870,"Future</w>":11871,"WATCH</w>":11872,"Goswami</w>":11873,"symbo":11874,"3000</w>":11875,"4b":11876,"?e=":11877,"Aw":11878,"DG":11879,"E.</w>":11880,"EC</w>":11881,"Fa":11882,"Figh":11883,"Gaut":11884,"Knowledge</w>":11885,"LT":11886,"Nation</w>":11887,"Paduk":11888,"Ten":11889,"WS</w>":11890,"[S":11891,"[Source":11892,"a\"\"</w>":11893,"bans</w>":11894,"backs</w>":11895,"cf":11896,"dly</w>":11897,"gaming</w>":11898,"km":11899,"les":11900,"oh</w>":11901,"sity</w>":11902,"tat":11903,"wishes</w>":11904,"भी</w>":11905,"incompet":11906,"react</w>":11907,"reaching</w>":11908,"ardi":11909,"sty</w>":11910,"stopping</w>":11911,"dies":11912,"diet</w>":11913,"diversity</w>":11914,"itec":11915,"attitude</w>":11916,"acu":11917,"action":11918,"ache</w>":11919,"Indon":11920,"nothing.</w>":11921,"Thir":11922,"competition</w>":11923,"shr":11924,"sheet</w>":11925,"ager</w>":11926,"agues</w>":11927,"tract</w>":11928,"trillion</w>":11929,"tte</w>":11930,"sees</w>":11931,"ape</w>":11932,"worthy</w>":11933,"previously</w>":11934,"and_":11935,"evol":11936,"perpe":11937,"ists.</w>":11938,"](https://imgur.com/a/":11939,"](https://internetfreedom.in/donate":11940,"covid</w>":11941,"soon":11942,"weather</w>":11943,"aller":11944,"internet.</w>":11945,"secur":11946,"entially</w>":11947,"crying</w>":11948,"mid</w>":11949,"posure</w>":11950,"legally</w>":11951,"NRIs</w>":11952,"collabor":11953,"curb</w>":11954,"casual</w>":11955,"Maid":11956,"Compan":11957,"man-":11958,"disci":11959,"fici":11960,"women.</w>":11961,"courage</w>":11962,"relative</w>":11963,"happened.</w>":11964,"Medi":11965,"folk":11966,"Guj":11967,"Guide</w>":11968,"culture":11969,"free.</w>":11970,"intention</w>":11971,"hand.</w>":11972,"Worst</w>":11973,"refusing</w>":11974,"storm</w>":11975,"discussions</w>":11976,"flu</w>":11977,"s.](https://www.reddit.com/r/india/search":11978,"importantly</w>":11979,"world’s</w>":11980,"examples</w>":11981,"80%</w>":11982,"threads.](https://www.reddit.com/r/india/search":11983,"reput":11984,"quarantin":11985,"table.</w>":11986,"constitution":11987,"Sabar":11988,"Saw</w>":11989,"connections</w>":11990,"effectively</w>":11991,"long-":11992,"fields</w>":11993,"u/s!AoYOmN7lWek1":11994,"origin</w>":11995,"explains</w>":11996,"WHO":11997,"Contin":11998,"history.</w>":11999,"animal</w>":12000,"fascism</w>":12001,"Updates:</w>":12002,"bagh</w>":12003,"requested</w>":12004,"strongly</w>":12005,"archy</w>":12006,"organisation</w>":12007,"Gurgaon</w>":12008,"whereas</w>":12009,"Thoughts</w>":12010,"newspaper</w>":12011,"revenue</w>":12012,"consequences</w>":12013,"horrible</w>":12014,"temporary</w>":12015,"dp/B":12016,"Hindustan</w>":12017,"Kashy":12018,"y'all</w>":12019,"guitar</w>":12020,"Therefore</w>":12021,"[Amazon](https://www.amazon.in/":12022,"Indones":12023,"Companies</w>":12024,"(P":12025,"(S":12026,".fil":12027,"21-":12028,"42":12029,"72":12030,"75</w>":12031,"?!</w>":12032,"Block":12033,"Cell</w>":12034,"Cla":12035,"DC":12036,"Fact</w>":12037,"Festiv":12038,"IP</w>":12039,"ION</w>":12040,"LL":12041,"Lim":12042,"Less":12043,"ML</w>":12044,"Mach":12045,"NAS":12046,"Pad":12047,"Raw":12048,"SU":12049,"Using</w>":12050,"Vish":12051,"[M":12052,"b-":12053,"c)</w>":12054,"des</w>":12055,"dut":12056,"fat":12057,"fee":12058,"fall":12059,"gen</w>":12060,"mon</w>":12061,"phe":12062,"s”</w>":12063,"tend":12064,"tast":12065,"tree</w>":12066,"zen</w>":12067,"कार":12068,"ती":12069,"हु":12070,"বা":12071,"atro":12072,"escal":12073,"lists</w>":12074,"live-":12075,"asci":12076,"nowhere</w>":12077,"aband":12078,"shots</w>":12079,"agency</w>":12080,"dotin":12081,"emint":12082,"irrespective</w>":12083,"ed-in-":12084,"cious</w>":12085,"ourgov":12086,"raw</w>":12087,"we've</w>":12088,"ups</w>":12089,"up?</w>":12090,"2011</w>":12091,"umble</w>":12092,"Report":12093,"formul":12094,"bureaucr":12095,"offen":12096,"More":12097,"antar</w>":12098,"gged</w>":12099,"drag":12100,"fuel</w>":12101,"10/":12102,"Trying</w>":12103,"Act":12104,"subscription</w>":12105,"bled</w>":12106,"relating</w>":12107,"rememb":12108,"Exc":12109,"ancest":12110,"regard":12111,"2020-":12112,"later.</w>":12113,"Does":12114,"picked</w>":12115,"help?</w>":12116,"Working</w>":12117,"raping</w>":12118,"Differ":12119,"providers</w>":12120,"Kerala":12121,"victory</w>":12122,"driven</w>":12123,"Bi-":12124,"translate</w>":12125,"regions</w>":12126,"website.</w>":12127,"discussion":12128,"care.</w>":12129,"careful</w>":12130,"Heav":12131,"approval</w>":12132,"equally</w>":12133,"IST":12134,"instances</w>":12135,"installed</w>":12136,"ICIC":12137,"Them</w>":12138,"Surve":12139,"practical</w>":12140,"complaints</w>":12141,"IAF</w>":12142,"samples</w>":12143,"winter</w>":12144,"sr_1":12145,"2.5</w>":12146,"Isn't</w>":12147,"excell":12148,"referred</w>":12149,"Statue</w>":12150,"agreed</w>":12151,"rolled</w>":12152,"level.</w>":12153,"revealed</w>":12154,"Invest":12155,"Investig":12156,"semester</w>":12157,"bills</w>":12158,"masses</w>":12159,"divide</w>":12160,"restaurants</w>":12161,"amp;amp;":12162,"principles</w>":12163,"es.wordpress.com/":12164,"Telegram</w>":12165,"Major</w>":12166,"corona-":12167,"commission</w>":12168,"Lawyers</w>":12169,"transparency</w>":12170,"Today's</w>":12171,"comfort</w>":12172,"Discord</w>":12173,"Fascism</w>":12174,"Website</w>":12175,"premium</w>":12176,"ignored</w>":12177,"vulnerable</w>":12178,"elderly</w>":12179,"Illegal</w>":12180,"Ashok</w>":12181,"oroqu":12182,"Wikipedia</w>":12183,"Association</w>":12184,"ython</w>":12185,"Firstpost</w>":12186,"Recogni":12187,"[Goodreads](https://www.":12188,"](https://1drv.ms/u/s!AoYOmN7lWek1":12189,"Sharjeel</w>":12190,"Gautam</w>":12191,".files.wordpress.com/":12192,"dotin.files.wordpress.com/":12193,"ourgovdotin.files.wordpress.com/":12194,"1e":12195,"21st</w>":12196,"6th</w>":12197,"9.":12198,"A-":12199,"Bor":12200,"CE</w>":12201,"Dad":12202,"FF":12203,"Fast</w>":12204,"Fren":12205,"Fron":12206,"Galaxy</w>":12207,"IV":12208,"Jawa":12209,"Rang":12210,"S.":12211,"Tak":12212,"Us":12213,"[p":12214,"bil":12215,"bble</w>":12216,"cough</w>":12217,"d0":12218,"d5":12219,"dal":12220,"fan":12221,"hli</w>":12222,"k?</w>":12223,"mac":12224,"rat</w>":12225,"rut":12226,"कि":12227,"रि":12228,"thir":12229,"inputs</w>":12230,"ancial</w>":12231,"onto</w>":12232,"reject</w>":12233,"did.</w>":12234,"its-":12235,"omi</w>":12236,"eless.</w>":12237,"assets</w>":12238,"accor":12239,"usage</w>":12240,"Inno":12241,"ambul":12242,"amidst</w>":12243,"deals</w>":12244,"sian</w>":12245,"beach</w>":12246,"ol.</w>":12247,"old.":12248,"trag":12249,"prosec":12250,"suit</w>":12251,"sea</w>":12252,"ing))</w>":12253,"term":12254,"movie":12255,"exists</w>":12256,"est-":12257,"id:</w>":12258,"arest</w>":12259,"earli":12260,"grav":12261,"scal":12262,"heads</w>":12263,"club":12264,"guy.</w>":12265,"ally?</w>":12266,"2012</w>":12267,"strum":12268,"fine.</w>":12269,"facilit":12270,"Arun":12271,"creative</w>":12272,"ment?</w>":12273,"legit</w>":12274,"gg/":12275,"attended</w>":12276,"colour</w>":12277,"empt</w>":12278,"llab":12279,"12.":12280,"subscri":12281,"Asked</w>":12282,"Experi":12283,"friend's</w>":12284,"arna</w>":12285,"Unfortunately</w>":12286,"aire</w>":12287,"completing</w>":12288,"stream":12289,"cide</w>":12290,"world-":12291,"hyder":12292,"Tuesday</w>":12293,"Tips</w>":12294,"Bagh":12295,"requirement</w>":12296,"cyl":12297,"lockdown:</w>":12298,"begins</w>":12299,"bench</w>":12300,"hotels</w>":12301,"people’s</w>":12302,"Americans</w>":12303,"Financial</w>":12304,"hang</w>":12305,"Submit</w>":12306,"sexually</w>":12307,"Series</w>":12308,"Crime</w>":12309,"conducting</w>":12310,"News18</w>":12311,"Books</w>":12312,"propagand":12313,"representation</w>":12314,"IPS</w>":12315,"order.</w>":12316,"Aligarh</w>":12317,"/status/12075":12318,"holiday</w>":12319,"please.</w>":12320,"comparison</w>":12321,"livemint":12322,"drugs</w>":12323,"manner</w>":12324,"frustrated</w>":12325,"Municipal</w>":12326,"pradesh-":12327,"prayers</w>":12328,"Middle</w>":12329,"Census</w>":12330,"conservative</w>":12331,"guys!</w>":12332,"punishment</w>":12333,"Chidambaram</w>":12334,"Gupta</w>":12335,"Pulwama</w>":12336,"Thousands</w>":12337,"sit-in</w>":12338,"etooth</w>":12339,"[Goodreads](https://www.goodreads.com/book/show/":12340,".gg/":12341,"Aay":12342,"Black</w>":12343,"Cover</w>":12344,"KY":12345,"Kul":12346,"N.</w>":12347,"Now":12348,"Nath</w>":12349,"Nik":12350,"Oly":12351,"Others</w>":12352,"Path":12353,"RC</w>":12354,"Sach":12355,"Tag":12356,"[http://":12357,"auty</w>":12358,"cy.</w>":12359,"i.</w>":12360,"jaw":12361,"naren":12362,"s]</w>":12363,"s-</w>":12364,"sen</w>":12365,"tf</w>":12366,"wat</w>":12367,"washing</w>":12368,"y_":12369,"लो":12370,"iner":12371,"inary</w>":12372,"aning</w>":12373,"archi":12374,"ordering</w>":12375,"dialo":12376,"al_":12377,"lip</w>":12378,"asy":12379,"Ini":12380,"Info":12381,"Thread":12382,"age-":12383,"behave</w>":12384,"oler":12385,"old-":12386,"akash</w>":12387,"excep":12388,"cities.</w>":12389,"quo":12390,"are-":12391,"score":12392,"indigenous</w>":12393,"**The</w>":12394,"guaran":12395,"so-":12396,"ail.</w>":12397,"Near</w>":12398,"Reports</w>":12399,"fined</w>":12400,"Amrit":12401,"cring":12402,"aren’t</w>":12403,"19th</w>":12404,"bias</w>":12405,"understood</w>":12406,"logist</w>":12407,"info":12408,"politics.</w>":12409,"affron</w>":12410,"follows</w>":12411,"cutting</w>":12412,"intend</w>":12413,"rapists</w>":12414,"respond":12415,"true.</w>":12416,"burden</w>":12417,"####":12418,"Boy":12419,"like?</w>":12420,"touching</w>":12421,"girl.</w>":12422,"Tiwari</w>":12423,"searched</w>":12424,"patient":12425,"lux":12426,"mobile":12427,"Lockdown":12428,"crisis.</w>":12429,"defec":12430,"restricted</w>":12431,"Viral</w>":12432,"music":12433,"IFF":12434,"graduated</w>":12435,"hmin</w>":12436,"PhD</w>":12437,"right-":12438,"Become</w>":12439,"jpg)</w>":12440,"residence</w>":12441,"farmer</w>":12442,"Friends</w>":12443,"EEEE":12444,"tweeted</w>":12445,"online?</w>":12446,"racism</w>":12447,"Pradesh.</w>":12448,"shooting</w>":12449,"Rupe":12450,".indiatimes.com/news/":12451,"appointment</w>":12452,"Solar</w>":12453,"Power":12454,"preferably</w>":12455,"keyboard</w>":12456,"signal</w>":12457,"](http://www.":12458,"belonging</w>":12459,"Calcu":12460,"adopted</w>":12461,"established</w>":12462,"Patient</w>":12463,"िया</w>":12464,"CRPF</w>":12465,"materials</w>":12466,"nutri":12467,"economictimes.indiatimes.com/news/":12468,"ndtv.com/india-news/":12469,"Tl;dr</w>":12470,"thehindu.com/news/national/":12471,"Consumer</w>":12472,"Wedn":12473,"discord.gg/":12474,"(a</w>":12475,"1c":12476,"400":12477,"9-":12478,":-|":12479,"Clo":12480,"Car</w>":12481,"Dest":12482,"Dru":12483,"Jami":12484,"Jyo":12485,"Killed</w>":12486,"MC":12487,"Mom":12488,"Rally</w>":12489,"V-":12490,"Wanted</w>":12491,"ao</w>":12492,"but":12493,"dail":12494,"hes":12495,"less.</w>":12496,"rs":12497,"rati":12498,"rare</w>":12499,"ramp":12500,"wed</w>":12501,"ता":12502,"ये</w>":12503,"“The</w>":12504,"inent</w>":12505,"rejects</w>":12506,"arm</w>":12507,"or-":12508,"ham":12509,"al'</w>":12510,"alay":12511,"itt":12512,"item</w>":12513,"essi":12514,"visu":12515,"visible</w>":12516,"adult</w>":12517,"shopping</w>":12518,"chant</w>":12519,"proved</w>":12520,"seven</w>":12521,"edd":12522,"hiding</w>":12523,"sphere</w>":12524,"ims</w>":12525,"gram":12526,"ety.</w>":12527,"White</w>":12528,"donation</w>":12529,"cotton</w>":12530,"ppl</w>":12531,"Stand</w>":12532,"bot</w>":12533,"recession</w>":12534,"contem":12535,"contacts</w>":12536,"firm":12537,"mixed</w>":12538,"laze</w>":12539,"attached</w>":12540,"All":12541,"here:</w>":12542,"19)</w>":12543,"Shared</w>":12544,"Comments</w>":12545,"chay":12546,"monthly</w>":12547,"electoral</w>":12548,"blank":12549,"alism.</w>":12550,"posters</w>":12551,"Peace</w>":12552,"purpo":12553,"didnt</w>":12554,"situations</w>":12555,"beliefs</w>":12556,"2019]</w>":12557,"forever</w>":12558,"30%</w>":12559,"transl":12560,"Play</w>":12561,"governance</w>":12562,"Randians</w>":12563,"party.</w>":12564,"Apr</w>":12565,"marriage.</w>":12566,"Web</w>":12567,"tourism</w>":12568,"ATE</w>":12569,"thread.</w>":12570,"replies</w>":12571,"UP's</w>":12572,"[OLD":12573,"laptop":12574,"cope</w>":12575,"applications</w>":12576,"confirm":12577,"Crimin":12578,"Teac":12579,"fallen</w>":12580,"activist</w>":12581,"suicid":12582,"Yoga</w>":12583,"**](https://internetfreedom.in/":12584,"relationships</w>":12585,"master":12586,"ondon</w>":12587,"ratri</w>":12588,"campaign":12589,"mistakes</w>":12590,"details.</w>":12591,"Save":12592,"/03/2020|-|-|-|-|Hospitalized|":12593,"expect":12594,"Murder</w>":12595,"yr-old</w>":12596,"promoting</w>":12597,"suspect</w>":12598,"deeply</w>":12599,"tane":12600,"Benef":12601,"Truth</w>":12602,"Year-Old</w>":12603,"Defence</w>":12604,"argued</w>":12605,"frequently</w>":12606,"dinner</w>":12607,"Srin":12608,"defeat</w>":12609,"losses</w>":12610,"Response</w>":12611,"Index</w>":12612,"Poll](https://www.reddit.com/poll/f":12613,"niversary</w>":12614,"Japanese</w>":12615,"Aurang":12616,"Aarogya</w>":12617,"ICICI</w>":12618,"Recognition</w>":12619,"'S":12620,"(C":12621,"-modi-":12622,"0)</w>":12623,"5G</w>":12624,"=true":12625,"Bad</w>":12626,"Dies</w>":12627,"Durg":12628,"ES":12629,"Equ":12630,"Especially</w>":12631,"FO</w>":12632,"Gar":12633,"Iran":12634,"Jin":12635,"Lt":12636,"Lap":12637,"PT":12638,"Pak":12639,"Remo":12640,"SR":12641,"Sak":12642,"Sex":12643,"Train</w>":12644,"Vs</w>":12645,"Writ":12646,"Ze":12647,"b.</w>":12648,"badly</w>":12649,"cat</w>":12650,"hanging</w>":12651,"iz":12652,"kes":12653,"nath</w>":12654,"pop":12655,"s*</w>":12656,"s/</w>":12657,"swe":12658,"sends</w>":12659,"tains</w>":12660,"ts'</w>":12661,"wall":12662,"y.com/":12663,"rer</w>":12664,"reaches</w>":12665,"tivel":12666,"arbitr":12667,"have.</w>":12668,"aland</w>":12669,"asa</w>":12670,"ila</w>":12671,"ecli":12672,"Indefinite</w>":12673,"Indian.</w>":12674,"abroad":12675,"posed":12676,"verted</w>":12677,"unk</w>":12678,"cha</w>":12679,"witness</w>":12680,"seas</w>":12681,"apur</w>":12682,"model":12683,"umps</w>":12684,"oda</w>":12685,"est.</w>":12686,"and.</w>":12687,"to_":12688,"me-":12689,"endor":12690,"](https://the":12691,"commit</w>":12692,"host</w>":12693,"Nehru":12694,"wire":12695,"illiter":12696,"prison":12697,"finish</w>":12698,"te:</w>":12699,"sections</w>":12700,"pray</w>":12701,"compare</w>":12702,"attending</w>":12703,"colum":12704,"low.</w>":12705,"drama</w>":12706,"yeah</w>":12707,"line.</w>":12708,"10-1":12709,"philosop":12710,"True</w>":12711,"Shut":12712,"portal</w>":12713,"Academ":12714,"course":12715,"offices</w>":12716,"office.</w>":12717,"religion":12718,"clear":12719,"Parti":12720,"positive":12721,"ences.</w>":12722,"2020**</w>":12723,"brea":12724,"observed</w>":12725,"accountable</w>":12726,"etc?</w>":12727,"Quality</w>":12728,"Interview</w>":12729,"ate:</w>":12730,"Assam.</w>":12731,"maker</w>":12732,"developers</w>":12733,"moratori":12734,"courier</w>":12735,"valid":12736,"Rohing":12737,"list.</w>":12738,"returns</w>":12739,"grown</w>":12740,"otherwis":12741,"THIS</w>":12742,"spoken</w>":12743,"government-":12744,"books":12745,"Ayur":12746,"recogn":12747,"paper":12748,"clip</w>":12749,"Sharing</w>":12750,"employed</w>":12751,"definition</w>":12752,"MHA</w>":12753,"Phys":12754,"Scen":12755,"Detention</w>":12756,"investing</w>":12757,"meaning":12758,"apologi":12759,"doubts</w>":12760,"hunger</w>":12761,"smoking</w>":12762,"afterno":12763,"repeat</w>":12764,"Update:</w>":12765,"Shah's</w>":12766,"Carto":12767,"through.</w>":12768,"service.</w>":12769,"Corporation</w>":12770,"crucial</w>":12771,"monitor</w>":12772,"Explained:</w>":12773,"Analysis</w>":12774,"contract</w>":12775,"sponsored</w>":12776,"alliance</w>":12777,"desperate</w>":12778,"branch</w>":12779,"minutes.</w>":12780,"guilty</w>":12781,"certainly</w>":12782,"Through</w>":12783,"Couple</w>":12784,"|0|</w>":12785,"crimes</w>":12786,"Sanskrit</w>":12787,"Christmas</w>":12788,"pathetic</w>":12789,"old.reddit.com/r/india/comments/":12790,"#cit":12791,"&sort=new":12792,"/r/":12793,"3D</w>":12794,"Ahead</w>":12795,"Bac":12796,"BMC</w>":12797,"Calling</w>":12798,"Fo":12799,"Find</w>":12800,"Fort</w>":12801,"I-":12802,"JD":12803,"Jad":12804,"Jain</w>":12805,"King</w>":12806,"Kindly</w>":12807,"London</w>":12808,"Ms</w>":12809,"Male</w>":12810,"PS</w>":12811,"PG</w>":12812,"Phon":12813,"Rol":12814,"Spread</w>":12815,"Ved":12816,"Vaj":12817,"di</w>":12818,"d:</w>":12819,"e.com/":12820,"fab":12821,"foun":12822,"ft.</w>":12823,"lan":12824,"lac":12825,"nrc":12826,"pes</w>":12827,"pill":12828,"pic</w>":12829,"sad":12830,"taste</w>":12831,"vast</w>":12832,"wave</w>":12833,"wages</w>":12834,"xel</w>":12835,"या</w>":12836,"रो":12837,"ले</w>":12838,"era":12839,"onom":12840,"stops</w>":12841,"al\"\"</w>":12842,"ashe":12843,"nose</w>":12844,"letting</w>":12845,"Indian-":12846,"vibr":12847,"option.</w>":12848,"agri":12849,"ch-":12850,"doors</w>":12851,"sealed</w>":12852,"confron":12853,"conspiracy</w>":12854,"apr":12855,"motor":12856,"mode</w>":12857,"hired</w>":12858,"sp;</w>":12859,"spic":12860,"meat</w>":12861,"der.</w>":12862,"](https://ourgovdotin.files.wordpress.com/":12863,"awesome</w>":12864,"cott":12865,"cke":12866,"strate":12867,"against-":12868,"stars</w>":12869,"contest</w>":12870,"Concer":12871,"Moder":12872,"ans?</w>":12873,"nowled":12874,"appli":12875,"lag</w>":12876,"colon":12877,"Try</w>":12878,"subjec":12879,"atha</w>":12880,"poster</w>":12881,"wanting</w>":12882,"funded</w>":12883,"violating</w>":12884,"Lost</w>":12885,"handled</w>":12886,"China.</w>":12887,"helpful.</w>":12888,"group":12889,"unior</w>":12890,"universit":12891,"business.</w>":12892,"jobs.</w>":12893,"Resid":12894,"Result</w>":12895,"approves</w>":12896,"kari</w>":12897,"Secre":12898,"Rohit</w>":12899,"droxy":12900,"three-":12901,"authentic":12902,"ence:</w>":12903,"succe":12904,"kids.</w>":12905,"DIY</w>":12906,"Offici":12907,"targets</w>":12908,"domain</w>":12909,"save":12910,"protective</w>":12911,"weekend</w>":12912,"Curfew":12913,"Organ":12914,"regulation</w>":12915,"memes</w>":12916,"Sched":12917,"umped</w>":12918,"reasons.</w>":12919,"organised</w>":12920,"danger</w>":12921,"way?</w>":12922,"foli":12923,"quiet</w>":12924,"introduce</w>":12925,"suffered</w>":12926,"room.</w>":12927,"racist</w>":12928,"significantly</w>":12929,"function":12930,"functioning</w>":12931,"shoot</w>":12932,"Credit</w>":12933,"idiots</w>":12934,"challenging</w>":12935,"missions.</w>":12936,"CAB.</w>":12937,"distribution</w>":12938,"helpline</w>":12939,"artist</w>":12940,"Kannada</w>":12941,"organisations</w>":12942,"Corporate</w>":12943,"Assamese</w>":12944,"needed.</w>":12945,"schedule</w>":12946,"e_note":12947,"Won't</w>":12948,"extension</w>":12949,"credible</w>":12950,"equivalent</w>":12951,"Issue</w>":12952,"uploads/":12953,"procedure</w>":12954,"Russia</w>":12955,"condemn</w>":12956,"excluded</w>":12957,"Gopin":12958,"secret</w>":12959,"Request</w>":12960,"Village</w>":12961,"Farmers</w>":12962,"Hitler</w>":12963,"NIA</w>":12964,"database</w>":12965,"shirt</w>":12966,"explanation</w>":12967,"&restrict_sr=on":12968,"mutual</w>":12969,"/ref=sr_1":12970,"absence</w>":12971,"programme</w>":12972,"York</w>":12973,"Tomor":12974,"Intelligence</w>":12975,"chloroqu":12976,"#cite_note":12977,"8f":12978,"?ac":12979,"AS</w>":12980,"Achar":12981,"Blu":12982,"Epis":12983,"Haz":12984,"IIM":12985,"Jal":12986,"MN":12987,"Nur":12988,"Sand":12989,"Situ":12990,"Tour</w>":12991,"Tren":12992,"Takes</w>":12993,"Une":12994,"Vas":12995,"Wire</w>":12996,"bomb</w>":12997,"d_":12998,"ease</w>":12999,"gend":13000,"ghal</w>":13001,"nn":13002,"nam</w>":13003,"ro</w>":13004,"sat</w>":13005,"sans":13006,"trem":13007,"xes</w>":13008,"ंग":13009,"नि":13010,"पा":13011,"ले":13012,"in?</w>":13013,"inspired</w>":13014,"ones":13015,"onic</w>":13016,"redi":13017,"resig":13018,"tise</w>":13019,"ited.</w>":13020,"ece)</w>":13021,"righ":13022,"why-":13023,"loses</w>":13024,"adding</w>":13025,"their":13026,"abled</w>":13027,"opt</w>":13028,"dear</w>":13029,"depic":13030,"unt</w>":13031,"sim":13032,"beef</w>":13033,"akh":13034,"pean":13035,"iratory</w>":13036,"edge</w>":13037,"plate</w>":13038,"immen":13039,"ain.</w>":13040,"tok</w>":13041,"ets.</w>":13042,"uten":13043,"scrat":13044,"commits</w>":13045,"shipping</w>":13046,"marked</w>":13047,"factors</w>":13048,"Poin":13049,"Project</w>":13050,"decides</w>":13051,"places.</w>":13052,"boost</w>":13053,"Map</w>":13054,"man's</w>":13055,"located</w>":13056,"lyrics</w>":13057,"arious</w>":13058,"women":13059,"works.</w>":13060,"Meghal":13061,"ogy":13062,"2020)</w>":13063,"Sex</w>":13064,"Covid19</w>":13065,"lakh":13066,"traum":13067,"tradic":13068,"ers’</w>":13069,"control":13070,"Joint</w>":13071,"summar":13072,"Tuk":13073,"appear":13074,"Sourc":13075,"managing</w>":13076,"skin":13077,"dark":13078,"employer</w>":13079,"technologies</w>":13080,"headed</w>":13081,"i.e</w>":13082,"photograp":13083,"initially</w>":13084,"land.</w>":13085,"greatest</w>":13086,"urges</w>":13087,"excuse</w>":13088,"Kanpur</w>":13089,"public.</w>":13090,"there’s</w>":13091,"smoo":13092,"guidance</w>":13093,"thousand</w>":13094,"switched</w>":13095,"function</w>":13096,"Rule</w>":13097,"cooking</w>":13098,"Pakistan's</w>":13099,"Location</w>":13100,"problems.</w>":13101,"Bhakt</w>":13102,"affecting</w>":13103,"footage</w>":13104,"Centre":13105,"fraud</w>":13106,"conflict</w>":13107,"determin":13108,"advisory</w>":13109,"Mangaluru</w>":13110,"Covid-19:</w>":13111,"&utm_medium":13112,"aadhar</w>":13113,"Announ":13114,"OnePlus</w>":13115,"bachel":13116,"Ghosh</w>":13117,"territory</w>":13118,"April":13119,"Commissioner</w>":13120,"Davinder</w>":13121,"Chhapa":13122,"android</w>":13123,"Owaisi</w>":13124,"pdf</w>":13125,"Subramanian</w>":13126,"Corruption</w>":13127,"JNUSU</w>":13128,"mobile.":13129,"#COVID19</w>":13130,"(F":13131,"/](https://www.":13132,"1f":13133,"34</w>":13134,"55</w>":13135,"6V":13136,"700":13137,"BR":13138,"By":13139,"Bhim</w>":13140,"Ca":13141,"Cup</w>":13142,"Low</w>":13143,"Myan":13144,"R.</w>":13145,"Spic":13146,"[Read</w>":13147,"bc":13148,"bic</w>":13149,"bollywood</w>":13150,"ie</w>":13151,"ky":13152,"kick</w>":13153,"lun":13154,"mr":13155,"n't.</w>":13156,"rational</w>":13157,"ssi":13158,"uri":13159,"ves":13160,"xx":13161,"কা":13162,"inqu":13163,"tish":13164,"enge":13165,"habad</w>":13166,"liver</w>":13167,"noted</w>":13168,"urine</w>":13169,"amble</w>":13170,"abor":13171,"ics.</w>":13172,"agi":13173,"tri</w>":13174,"che</w>":13175,"chy</w>":13176,"superi":13177,"go?</w>":13178,"peak</w>":13179,"more-":13180,"ford</w>":13181,"spare</w>":13182,"aint</w>":13183,"\"\"We</w>":13184,"tic.</w>":13185,"avan</w>":13186,"ows</w>":13187,".....":13188,"radi":13189,"Chop":13190,"select</w>":13191,"stry</w>":13192,"strange</w>":13193,"Stri":13194,"bother":13195,"pride</w>":13196,"contains</w>":13197,"Mos":13198,"mentality</w>":13199,"siders</w>":13200,"hero</w>":13201,"national-":13202,"diture</w>":13203,"VIDE":13204,"syllab":13205,"blue</w>":13206,"Only":13207,"desire</w>":13208,"Exec":13209,"full-":13210,"want.</w>":13211,"Better</w>":13212,"Doing</w>":13213,"Work":13214,"travelled</w>":13215,"versy</w>":13216,"refl":13217,"reflec":13218,"group.</w>":13219,"Quotes</w>":13220,"Modi:</w>":13221,"Lets</w>":13222,"warri":13223,"colleagues</w>":13224,"flipkart</w>":13225,"Imple":13226,"ight.</w>":13227,"password</w>":13228,"mortality</w>":13229,"approached</w>":13230,"supporter</w>":13231,"suggestions?</w>":13232,"I’ll</w>":13233,"ISIS</w>":13234,"north</w>":13235,"Boss</w>":13236,"Janu":13237,"Here’s</w>":13238,"search=true":13239,"appearing</w>":13240,"arrang":13241,"Harv":13242,"debt</w>":13243,"recover</w>":13244,"clients</w>":13245,"Mughal":13246,"Coronavirus.</w>":13247,"Org":13248,"moment.</w>":13249,"welfare</w>":13250,"IAM":13251,"photography</w>":13252,"Jio":13253,"window</w>":13254,"models</w>":13255,"spiritual</w>":13256,"expression</w>":13257,"Facial</w>":13258,"organized</w>":13259,"Parliamentary</w>":13260,"able?</w>":13261,"Turkey</w>":13262,"ignoring</w>":13263,"Person":13264,"bags</w>":13265,"Communic":13266,"Regarding</w>":13267,"2019/11/":13268,"ILL</w>":13269,"revolution</w>":13270,"revolution":13271,"wasting</w>":13272,"Legal</w>":13273,"sweet</w>":13274,"reau</w>":13275,"descrip":13276,"Trump's</w>":13277,"=1&from_":13278,"Judge</w>":13279,"Malayal":13280,"DNA</w>":13281,"Smart</w>":13282,"compensation</w>":13283,"proposal</w>":13284,"policemen</w>":13285,"rank=":13286,"](https://www.indiatoday.in/india/story/":13287,"podcasts</w>":13288,"Judiciary</w>":13289,"scholar":13290,"accommod":13291,"everyone!</w>":13292,"criteria</w>":13293,"Environment</w>":13294,"adequate</w>":13295,"CORON":13296,"nbsp;</w>":13297,"Whether</w>":13298,"Durga</w>":13299,"?ac=1&from_":13300,"mobile.twitter.com/":13301,"search=true&qid=":13302,"?ac=1&from_search=true&qid=":13303,"&rank=":13304,"&nbsp;</w>":13305,"38</w>":13306,"4f":13307,"Ax":13308,"B.</w>":13309,"Ber":13310,"Braz":13311,"Date</w>":13312,"ELI":13313,"GST":13314,"Nearly</w>":13315,"Rab":13316,"SA":13317,"Satish</w>":13318,"Ut":13319,"U)</w>":13320,"Way</w>":13321,"[here":13322,"ahmed":13323,"bangal":13324,"cal</w>":13325,"i_":13326,"ight":13327,"kin</w>":13328,"overn":13329,"pm.</w>":13330,"s\"\".</w>":13331,"tant</w>":13332,"tful</w>":13333,"ual":13334,"yar</w>":13335,"zaff":13336,"ते</w>":13337,"नी</w>":13338,"്ക":13339,"inconveni":13340,"reforms</w>":13341,"replaced</w>":13342,"it:</w>":13343,"atra</w>":13344,"asser":13345,"eco":13346,"Indo-":13347,"noise</w>":13348,"lem":13349,"le?</w>":13350,"visi":13351,"abusive</w>":13352,"compu":13353,"polit":13354,"poor.</w>":13355,"un-":13356,"united</w>":13357,"se:</w>":13358,"seas":13359,"setup</w>":13360,"exposure</w>":13361,"worse.</w>":13362,"andra</w>":13363,"earth</w>":13364,"grat":13365,"indul":13366,"etary</w>":13367,"fights</w>":13368,"anyway.</w>":13369,"Stories</w>":13370,"-1)</w>":13371,"vegetables</w>":13372,"cancer":13373,"creation</w>":13374,"crete</w>":13375,"loose</w>":13376,"assemb":13377,"Pro-":13378,"miss":13379,"share.</w>":13380,"Supp":13381,"politics-and-":13382,"desi</w>":13383,"Expres":13384,".in)</w>":13385,"invo":13386,"Meit":13387,"Guid":13388,"licen":13389,"2020/03/":13390,
[...]
